#version: 0.2
Ġ t
Ġ a
i n
h e
r e
o n
e r
Ġt he
a t
Ġ s
Ġ c
o r
e s
e n
i t
Ġ o
i s
e d
Ġ p
Ġ w
i on
a l
in g
Ġa n
Ġ f
Ġ in
a n
Ġ b
Ġ d
Ġt o
i c
Ġ m
Ġo f
r o
e c
a r
Ġan d
l e
a c
u s
Ġt h
a s
Ġ re
e t
en t
Ġ e
Ġ n
o m
o u
at ion
Ġ h
i l
Ġ is
Ġ T
s t
l o
u t
l y
v e
i m
u r
- -
i d
v er
Ġ I
Ġth at
Ġp ro
Ġ on
ec t
Ġ A
o t
Ġ S
Ġf or
Ġb e
i g
u n
a m
ac k
u l
Ġc on
Ġ (
e l
Ġ l
it y
Ġ us
i f
c e
a b
Ġa t
Ġ g
Ġa s
o l
o d
e m
it h
Ġs t
Ġ C
es s
Ġe x
Ġ v
o w
Ġc om
c t
Ġa l
er s
ĠT he
at e
a d
Ġw ith
Ġ R
Ġw e
a in
c h
s e
Ġa re
a g
t er
u re
Ġ it
p p
i r
Ġ or
Ġat t
a y
r i
Ġd e
q u
Ġw h
-- --
Ġb y
he r
p t
Ġatt ack
Ġc an
Ġ F
Ġ P
Ġ M
u m
Ġ W
i es
is t
Ġ r
o re
Ġs u
f or
Ġ y
Ġcom p
Ġ D
Ġa d
ro m
i ve
ĠI n
Ġt r
or k
es t
Ġn ot
m ent
k e
Ġth is
re s
n t
i al
a re
il l
i z
for m
c c
an d
Ġ 2
Ġ 1
Ġf rom
Ġy ou
l d
y st
= =
p er
Ġ en
Ġ B
Ġ lo
or t
yst em
Ġd at
ac t
ec ur
ion s
Ġa pp
Ġcon t
ecur ity
ab le
Ġ H
Ġn e
o s
an t
et w
e re
p le
Ġh a
Ġ im
Ġs h
ar t
at ed
Ġ un
Ġ E
ic h
i v
â Ģ
E F
Ġ le
ation s
us t
ag e
ic al
Ġ O
Ġs ystem
Ġin t
al l
Ġ N
Ġre s
Ġwh ich
u p
ou ld
ac h
f f
lo w
Ġc h
en d
o c
ĠR EF
ul t
t her
in e
Ġha ve
Ġm od
0 0
i re
Ġ L
Ġdat a
u d
Ġs p
l ic
Ġw he
o st
b er
i le
o us
Ġa cc
a p
ig h
ver s
as s
v ic
a il
Ġs e
ig n
ar d
b le
w are
ĠT h
---- ----
ect ion
ab il
Ġp er
Ġ U
etw ork
Ġw as
u ct
g e
am e
Ġin c
s o
Ġw ill
Ġ G
Ġs c
Ġs er
an s
Ġh as
Ġ he
Ġc l
Ġs ecurity
0 1
p l
' s
Ġn etwork
ou r
Ġ k
as e
f ere
g r
if ic
n er
om e
id e
âĢ Ļ
ar y
form ation
d er
ou t
Ġd et
im e
en s
in d
Ġus e
an ce
ec h
Ġad d
Ġp re
u g
Ġthe ir
a k
u al
Ġcom m
Ġ "
t h
Ġm an
u e
Ġal l
Ġmod el
Ġd is
Ġd o
Ġus ed
r y
or d
Ġex p
ĠW e
Ġo ther
Ġe v
Ġa b
Ġs o
as ed
ĠTh is
f t
ent s
Ġin formation
Ġal so
Ġm ore
it ion
or s
Ġ up
e p
igh t
) .
od e
c id
c k
i ous
n d
y s
Ġthe y
Ġa ct
res s
Ġd if
Ġde f
i p
Ġo ut
o p
ow n
el l
Ġ V
Ġattack s
ul ner
en ce
u b
Ġo ur
Ġon e
abil ity
Ġim p
Ġsu ch
c ess
as t
i e
at es
Ġb ut
st r
Ġp art
Ġre p
Ġd es
or y
Ġre qu
ro l
Ġpro v
Ġp l
en er
Ġit s
it ies
Ġre c
Ġs et
ac e
Ġin ter
Ġo b
g et
i a
ri b
Ġa g
it e
Ġas s
Ġus ing
p ut
Ġw ork
in t
Ġt ime
y p
Ġ if
ect ed
Ġ ro
Ġm e
o k
Ġthe se
Ġv ulner
e x
Ġ ke
a us
Ġan y
Ġa r
Ġo ver
Ġst r
Ġf un
ech n
a v
on g
Ġa ut
Ġm et
a ke
Ġcon s
Ġ 3
Ġdif fere
on e
vic e
Ġf e
Ġex am
Ġin d
Ġwhe n
) ,
id ent
Ġv al
Ġe m
at ing
Ġn um
Ġpro t
Ġ qu
n ing
Ġon ly
Ġm ay
== ==
l ud
Ġpro cess
ic t
Ġl i
Ġg ener
Ġs ome
t t
ou nt
Ġacc ess
c es
m s
Ġs im
ri v
Ġus er
re d
ure s
an g
Ġg o
o se
Ġint o
ver y
Ġ J
Ġm al
i ed
ut ion
_ _
Ġbe en
Ġfun ct
Ġt w
Ġ j
Ġyou r
Ġ2 01
c om
Ġt echn
Ġtr ans
on d
Ġe ach
Ġcomp ut
Ġsp ec
j ect
Ġdiffere nt
i ent
Ġan al
Ġk n
Ġcont rol
Ġp h
er t
vic es
Ġres ult
pt ion
Ġne w
Ġinc lud
Ġapp lic
al ly
ir st
Ġne ed
ar get
Ġth an
ĠF or
ar ch
i ble
Ġthe re
Ġth re
Ġh ow
Ġin st
ag es
ter n
ar i
is e
Ġtw o
Ġp r
Ġsystem s
Ġdis c
ou nd
Ġw ould
Ġf ol
Ġper form
ff ic
Ġo per
lo g
h od
Ġp os
ug h
ve l
Ġc y
aus e
Ġs ec
gr am
Ġnum ber
Ġb ec
Ġ K
ĠI t
Ġwe re
Ġn o
iz e
Ġre l
Ġp o
Ġs ign
Ġc ode
s er
Ġt yp
Ġsu b
Ġcl ass
Ġapp ro
Ġd ec
e ver
Ġt arget
Ġ 4
-------- --------
Ġc r
Ġwhe re
Ġc ould
Ġmet hod
Ġre m
c ed
Ġab out
. ,
iz ation
Ġfol low
ment s
Ġad vers
s s
Ġun der
e en
if y
Ġwe b
Ġc or
ĠS t
Ġ ident
ro ugh
d u
Ġf irst
Ġre g
d uct
Ġattack er
ical ly
ire ct
etw een
at ive
Ġp at
o g
Ġthe n
Ġd ist
Ġres p
ain ing
Ġ 5
Ġli ke
Ġin v
Ġb etween
Ġm ost
Ġthe m
Ġex ec
Ġadd ress
Ġfunct ion
f ore
Ġal low
Ġpro gram
ig ure
ve lo
o ve
lo it
res ent
ul ar
ft ware
ow s
e ar
g an
i b
/ /
Ġb ot
Ġus ers
Ġexam ple
n ce
Ġ 0
Ġ ent
ic s
g or
he d
Ġprov id
Ġt est
he s
tt p
Ġc all
ff ect
l ed
Ġke y
Ġsh ould
Ġcon f
Ġth rough
iz ed
o log
k s
Ġa v
Ġr un
i x
: //
er m
Ġp ass
n el
Ġlo c
Ġex t
Ġs ame
Ġag ain
f ul
ing s
Ġg r
Ġc re
Ġen c
velo p
un d
a w
ay s
i qu
en c
ex t
Ġp riv
f ter
Ġfor m
ac y
Ġf ile
) (
Ġm em
Ġpro p
o b
Ġf il
ent ial
g h
Ġin f
8 6
Ġ âĢ
t e
Ġsu pp
Ġof f
Ġcomm un
et s
ou gh
ĠP ro
Ġ [
abil ities
is h
Ġc ol
Ġexp loit
Ġde p
Ġh ttp
u es
ry pt
ĠA n
ot e
Ġrequ ire
d e
v ed
Ġb ased
ic e
6 4
ific ation
Ġde velop
ĠA s
Ġs m
on s
ĠI f
ic ation
V E
if ied
ĠA l
Ġpre v
l es
Ġso ftware
ol s
at ure
an ge
Ġor gan
lo ck
b ers
Ġc o
gor ith
Ġcon n
in al
ys is
Ġb u
ie w
ĠT o
Ġp ub
Ġpos s
Ġwh o
Ġle ar
Ġdo es
Ġdes ign
ar k
our ce
Ġh igh
Ġf r
is s
Ġlo g
em ent
Ġagain st
Ġs ol
ro w
Ġp ack
ur ing
Ġadvers ar
Ġman y
Ġm ess
ap h
ple ment
Ġd irect
Ġpro ble
Ġw ell
ic ious
w ord
Ġwh at
Ġ Y
Ġs a
Ġser ver
lo y
Ġm ult
Ġcomp le
Ġcons id
he n
Ġ vers
Ġrep ort
1 0
Ġcy ber
Ġb ack
in k
ĠH ow
Ġ i
Ġh ad
lo ad
ĠC om
pl es
Ġex per
it s
b ased
Ġbot h
str uct
Ġkn ow
Ġim plement
Ġbec ause
Ġre al
as es
Ġe ffect
ce pt
re e
Ġ 6
p en
ain ed
Ġpo int
t en
2 01
ere d
Ġl ar
Ġin put
ad e
in ce
b o
he ck
ĠU n
ur re
Ġal gorith
on t
in es
os ed
i er
en se
iv en
Ġp ar
Ġde vices
Ġav ail
ation al
ain s
Ġanal ysis
ual ly
il ity
ut e
ĠF igure
Ġa m
Ġp ol
p h
v is
Ġprot oc
Ġre se
Ġadversar ial
in u
Ġv ari
Ġc ase
Ġcomp an
v ing
Ġse e
Ġup d
Ġev en
Ġf ind
Ġapplic ation
ĠC h
at er
Ġthre at
Ġfollow ing
u ch
ĠO n
p r
Ġvulner ability
Ġm ake
Ġa c
t s
ĠHow ever
Ġin s
Ġ 7
Ġp ers
Ġis s
o f
t ing
Ġpart ic
Ġp e
cc ess
Ġbe ing
Ġc ert
Ġm ain
Ġmal icious
Ġst ate
Ġmal ware
Ġbe h
Ġresult s
2 0
in ed
Ġinc re
Ġtr a
p m
Ġtechn iqu
Ġst ud
__ __
Ġl ist
Ġm a
Ġwh ile
ro up
Ġ 8
Ġw ay
Ġh is
I S
i an
Ġh and
ow er
n ess
Ġdes c
at or
r act
Ġr is
Ġser vice
Ġw r
Ġsupp ort
e f
Ġp a
ĠA d
Ġavail able
Ġme as
Ġg et
Ġm ach
Ġle vel
Ġval ue
t ur
Ġ2 00
==== ====
Ġc heck
l ine
r pm
Ġm on
il ar
Ġtr aining
it ive
Ġvulner abilities
Ġor der
olog y
ĠE x
Ġa fter
Ġf ound
or m
Ġpass word
ĠS ecurity
ot her
Ġs ens
Ġimp ort
er r
Ġd own
Ġ X
Ġmult i
l p
Ġmem ory
Ġex ist
Ġm in
enc y
Ġacc ount
Ġ et
Ġman ag
us s
at ures
S S
y n
ust om
il d
Ġposs ible
Ġappro ach
ro und
ĠR e
Ġadd ition
Ġo pt
l ect
Ġde vice
ic k
Ġpub lic
Ġb lock
Ġdet ection
urre nt
Ġsh ow
Ġe very
w ard
Ġth ose
ri pt
Ġre ad
g er
Ġmodel s
Ġst at
Ġd om
al s
Ġre ce
T he
ate g
Ġst art
Ġhe lp
it ed
Ġpro per
Ġdist rib
ur ther
Ġg u
Ġh ard
Ġs el
ĠThe re
Ġpro duct
Ġp resent
Ġre le
o ple
Ġfil es
Ġm ust
v ir
are d
Ġwith out
ind ows
and om
Ġproble m
Ġdet ect
n s
Ġlo ok
Ġwith in
Ġs end
y m
f er
il y
he nt
al u
Ġprov ide
ic ro
iv es
ol d
ail s
Ġbe fore
E R
Ġen d
uct ure
Ġrequ est
a pt
Ġb o
Ġm at
1 1
ak ing
Ġj ust
Ġn on
Ġs am
Ġf act
Ġcomm and
Ġnetwork s
Ġ est
Ġo w
Ġ1 0
Ġch ar
Ġ 9
v es
Ġ very
Ġ ==
ent ion
Ġspec ific
ĠIn tern
Ġact iv
l l
w w
Ġa ble
ĠW h
re ad
Ġpe ople
Ġ1 9
am et
Ġinst all
Ġcomput er
Ġpol ic
Ġinclud ing
i el
Ġ ver
Ġg roup
ĠI P
Ġlo w
or ld
Ġst and
Ġh ack
c o
Ġlar ge
Ġapplic ations
Ġob ject
Ġ |
Ġcon c
b r
Ġem p
s c
Ġe as
Ġ .
vir on
Ġob ser
en g
in ess
Ġsu ccess
Ġtra ffic
as h
ĠC VE
Ġo pen
Ġh ost
Ġlear ning
t r
av i
l ess
Ġev alu
he m
1 2
Ġt e
n et
Ġsim ilar
ro ss
Ġtyp e
Ġprop osed
Ġp ower
Ġperform ance
Ġ x
Ġmethod s
ĠW indows
Ġy ear
Ġpro b
iel d
Ġaut h
Ġl im
od es
A C
Ġb us
Ġcomp on
Ġmach ine
n ot
Ġvers ion
Ġpre d
Ġch ang
Ġc urrent
Ġr andom
Ġcor re
Ġthre e
Ġen viron
Ġf l
ive ly
Ġpers on
Ġaut om
Ġdesc rib
Ġris k
Ġst ep
it or
er ing
Ġprotoc ol
ĠW hen
inu x
iv id
Ġser vices
Ġg iven
ak es
Ġfe atures
im ate
Ġsec ure
Ġc ustom
Ġb r
ĠE n
Ġse ver
Ġl ay
Ġen g
Ġc ap
t ed
m in
p o
Ġimp ro
A T
fere nce
p ec
Ġe qu
ec un
ecun ia
it ical
Ġt ake
Ġalgorith m
Ġp ort
Ġpr act
Ġs oc
Ġbeh avi
om et
Ġsm all
Ġs ection
Ġl ong
ĠThe se
Ġimport ant
p ro
Ġto ols
Ġsec ond
Ġle ad
al ity
Ġm ight
im es
Ġaut hent
Ġ *
Ġass um
Ġpartic ular
r ic
ot ential
Ġpar amet
ĠS er
Ġcomm on
our ces
Ġ err
is ion
Ġn ame
it es
Ġout put
Ġexec ut
Ġsh own
v iew
n ed
Ġdet erm
Ġs ource
Ġdisc uss
ict im
Ġweb s
Ġs ur
r a
Ġd uring
Ġor ig
Ġb re
t he
ys ical
ĠH e
Ġs ince
Ġst ill
Ġdat as
ech an
Ġrese arch
Ġp otential
er nel
o ver
ial ly
oc um
ing le
Ġst ore
Ġkn own
Ġtechniqu es
Ġmulti ple
ou d
Ġstand ard
oc us
b it
l i
Ġin it
Ġad v
---------------- ----------------
Ġv ictim
00 0
Ġm uch
Ġmess age
st and
Ġl ine
Ġint e
ĠA pp
at a
ĠIntern et
Ġacc ur
om m
Ġrem ote
r ast
Ġw ant
w ork
Ġd em
Ġc ost
p or
m it
Ġstr ateg
Ġmeas ure
ou n
Ġval ues
Ġv ia
Ġp ay
t o
Ġ2 0
ent ly
Ġinv est
p ect
Ġrep resent
Ġopt im
m iss
A N
it ect
Ġprev ious
an nel
Ġcompan y
Ġan other
Ġanal y
ur al
Ġof ten
o v
ĠS ection
Ġar ch
1 5
Ġm echan
ab les
Ġloc al
T P
Ġsever al
a ult
ĠA nd
ord ing
Ġen s
Ġus es
Ġn ow
Ġs ingle
Ġv ar
Ġow n
Ġp ur
am es
i ence
Ġemp loy
Ġf ul
Ġd el
ut ions
e e
I N
Ġb as
du ce
A R
Ġpa per
Ġallow s
Ġf ocus
Ġ ed
p ar
u le
ir d
Ġdep end
Ġcall ed
Ġident ify
Ġfr ame
l ing
ere st
ul ation
Ġt as
Ġcol l
ĠT r
Ġim age
Ġpriv acy
Ġto p
Ġob t
on se
ĠA P
Ġro b
Ġimp act
Ġinclud e
ĠS o
end ed
iz ations
led ge
Ġcomp rom
Ġpred ict
Ġint ro
ro p
Ġc le
at form
Ġl ab
is ed
Ġbus iness
at ors
Ġcommun ication
O N
an c
Ġconsid er
Ġind ivid
de b
ul es
it ions
Ġconn ect
w it
ir t
ist ic
Ġmechan is
Ġle g
it her
Ġorgan ization
e ad
Ġd ocum
ĠâĢ ĵ
x t
el f
ffic ient
et y
Ġsa id
Ġ Z
it al
Ġval id
ver age
re at
Ġpro f
bers ecurity
Ġexec ution
an k
at her
Ġprovid es
Ġgener al
Ġenviron ment
Ġin struct
Ġm ed
Ġd ue
ig ur
a x
ĠM an
Ġk ernel
Ġch ange
ĠG o
Ġindivid ual
ry ption
Ġsh ows
ĠI D
Ġb l
O S
Ġm ade
I T
Ġto ol
act ion
ch ie
ess ion
Ġrun ning
Ġ '
oc i
Ġs ize
Ġsign ific
Ġattack ers
Ġexam ples
Ġ ,
ar c
Ġdef ense
1 6
Ġ z
ĠL inux
Ġme ans
Ġ /
Ġcan not
Ġcom b
re t
Ġn odes
Ġvar ious
Ġgr aph
r u
Ġunder stand
Ġdat ab
Ġd id
S A
Ġcert ain
Ġtyp es
h ip
Ġmanag ement
so ft
Ġb row
Ġa chie
em pt
ang u
Ġexper im
Ġbu ild
Ġsc en
Ġint erest
Ġf ix
Ġv is
Ġp age
Ġm ark
ĠY ou
Ġinte gr
O R
Ġ Q
Ġb et
Ġproper t
Ġdom ain
ĠM icro
i res
gr aph
res p
Ġre as
Ġcre ate
Ġo cc
1 4
E C
v en
ac hes
Ġupd ate
Ġl ess
I D
Ġarch itect
Ġch annel
in ation
Ġc lo
E S
ist r
Ġcon d
Ġr ight
Ġs he
g est
ect or
or ies
ĠC on
Ġind ic
Ġtr ust
Ġse arch
is hed
Ġsignific ant
Ġr ate
ĠR es
Ġwhe ther
Ġcl ient
Ġph ysical
h ing
or g
Ġcomple x
Ġre tur
1 9
Ġsoc ial
Ġp res
Ġc ount
Ġsc hem
i o
m ed
ish ing
Ġcorre ct
ob ile
3 2
ĠS c
i vers
Ġw orld
Ġinv ol
yn am
Ġgo od
ant s
Ġfe ature
Ġrequire d
Ġknow ledge
Ġeng ine
g ed
Ġch all
Ġem ail
Ġte am
e w
Ġb en
ac ter
it ing
Ġresp ect
ĠH T
Ġpat h
Ġh um
Ġfe w
Ġcont ent
Ġ $
Ġsp ace
Ġf in
Ġc ases
l er
Ġab ove
Ġc ar
Ġch o
Ġf urther
Ġprot ect
ĠD e
ri or
Ġpl atform
Ġstud y
Ġfunct ions
r on
Ġl ink
Ġadvers ary
Ġ== =
ĠT able
un t
Ġqu er
Ġp ost
Ġn ode
Ġe ar
Ġd en
Ġ ut
Ġb est
Ġf ield
ac he
ĠWe b
ord s
s h
Ġn orm
ĠS ystem
Ġgo ver
Ġbet ter
Ġpolic y
Ġ1 2
iv ed
I n
Ġanaly z
1 3
am p
t ic
Ġ es
Ġp op
ate ly
Ġframe work
ĠI m
ec ess
Ġrel ated
Ġro ut
Ġc rypt
ove red
Ġbehavi or
Ġh ig
Ġatt empt
og le
a ve
Ġne xt
Ġscen ari
ac es
Ġon line
irt ual
Ġsa f
Ġe ither
re qu
Ġdif f
resp ond
C P
Ġconf igur
her s
o graph
ri es
Ġs ent
Ġc red
og n
f ace
s ecurity
Ġcons ist
Ġf low
du ced
Ġlo ad
Ġmess ages
in s
in c
Ġl angu
ell ig
pl ay
ĠD N
Ġmon itor
ĠC P
Ġre f
o T
Ġbe l
Ġv iew
us ion
Ġdep loy
Ġchar acter
Ġauthent ication
th ough
Ġrob ust
Ġim ages
____ ____
Ġc ent
Ġinvest ig
Ġorgan izations
at ch
m er
Ġcor respond
Ġgover n
b ed
E E
f o
ĠMicro soft
Ġf ail
is on
rast r
Ġd ig
Ġcr itical
ib ility
c on
c l
Ġdatas et
Ġauth or
t ime
Ġtechn ology
1 8
ĠC ont
Ġsuccess ful
Ġvulner able
Ġorig inal
Ġerr or
Ġqu est
ĠOn e
al e
Ġaccur acy
1 7
pp ing
Ġt erm
Ġcl oud
Ġdown load
Ġd ynam
Ġe l
an ces
Ġsm art
Ġrec omm
Ġev ent
Ġl at
Ġsc ript
Ġiss ue
Ġresp onse
x im
Ġinter n
Ġenc rypt
Ġs omet
Ġpro ject
ĠThe y
ĠWh ile
Ġl ater
Ġ ide
Ġprovid ed
Ġ <
Ġaddition al
Ġass oci
Ġp rior
Ġcy bersecurity
Ġc ause
bo x
w ays
Ġcont ext
C S
Ġdet ails
g es
s ecunia
Ġyear s
2 5
Ġdatab ase
Ġke ep
Ġlab el
Ġcommun ic
ĠGo ogle
Ġexist ing
Ġlo ss
Ġs ite
Ġprev ent
p ort
Ġoper ating
Ġres ources
Ġcomple te
e ed
Ġmin im
j or
ĠC y
he re
ic ult
av a
Ġe le
R L
Ġchang es
Ġoper ations
ir c
Ġind ust
Ġex pl
Ġn ecess
l ied
ĠO ur
2 4
ut ed
Ġc al
ans om
Ġc op
ill ion
Ġb ound
if ier
Ġsc an
2 00
read y
Ġhard ware
u c
is co
Ġenc ryption
al th
Ġm y
o S
o id
Ġdistrib ution
ĠW ith
Ġse qu
Ġsim ple
Ġad min
Ġser vers
Ġcompan ies
s ing
Ġt ext
Ġsol ution
Ġac ross
Ġiss ues
A P
Ġl ast
Ġl it
Ġcompon ents
ly ing
ĠC l
Ġstr ucture
Ġle ast
Ġpriv ate
Ġt er
Ġimplement ation
ĠU S
Ġal ready
m an
I P
R EF
ut h
ut ure
er g
Ġc aus
ĠR ed
c hes
ĠA tt
Ġgener ated
Ġpat tern
Ġm obile
w ay
Ġimpro ve
Ġwebs ite
ep end
Ġneed s
m e
Ġtr y
Ġma jor
Ġsam ples
Ġrese arc
Ġalgorith ms
d ay
Ġf ree
ab ly
r al
Ġhum an
unt u
5 0
Ġinf rastr
Ġconsid ered
Ġdiff icult
at t
Ġa ff
Ġam ount
Ġpack et
ĠA fter
ire d
Ġtest ing
Ġl a
miss ion
Ġreas on
Ġtr ack
ĠB ut
Ġper tur
it ig
Ġa round
Ġresp ons
Ġdevelop ment
on str
Ġrequ ires
in ary
Ġprot ection
pr ise
2 2
l ished
ĠIn t
Ġinit ial
Ġlay er
Ġcont ains
Ġdocum ent
Ġd ri
Ġl aw
Ġc apt
Ġaddress es
Ġpl ay
Ġlike ly
ĠI oT
p os
ĠB y
Ġdef in
. "
ain t
Ġhe ad
ĠN etwork
Ġparamet ers
Ġth ird
Ġ =
r ary
Ġth ough
Ġme an
i ver
Ġdem onstr
er o
I C
ic es
Ġter ms
Ġpl an
ellig ence
Ġloc ation
lo c
Ġdesign ed
Ġf requ
as ing
lic k
Ġass ess
Ġens ure
M L
Ġarchitect ure
======== ========
Ġthreat s
lo b
Ġinst ance
Ġhe re
Ġext ract
9 0
Ġm aking
Ġal ways
8 0
ens ive
ĠâĢ Ķ
id d
Ġpl ace
Ġt ur
I ON
Ġth us
E T
Ġocc ur
d o
ir m
Ġf uture
Ġcont ain
Ġprogram s
Ġeffect ive
Ġdirect ly
Ġre t
ver t
Ġr ansom
iz ing
id ence
Ġful l
oun ter
Ġdef ined
i ents
Ġcon struct
Ġhig her
Ġprocess es
ol ution
o ot
Ġcre ated
re am
Ġsim p
Ġd r
Ġreport ed
Ġm akes
Ġs k
ĠS ince
e es
Ġconfigur ation
A A
ition al
Ġdescrib ed
a f
Ġt imes
bo ok
Ġpriv ile
n ces
ĠA r
u pp
Ġv irtual
al se
Ġhow ever
Ġcal c
Ġsc ore
Ġf ac
pp ed
Ġapp ear
er n
Ġwork s
M D
3 0
on om
Ġc ard
Ġ her
Ġf our
Ġstr ong
ens ion
Ġb ug
le vel
c ent
ar ing
o od
, "
Ġpertur b
E D
Ġg ame
ĠA t
A S
Ġm itig
Ġb it
E N
Ġvers ions
em ber
Ġ &
Ġrec ogn
ap s
Ġbrow ser
Ġprotoc ols
Ġgovern ment
Ġc our
m ing
ap ter
Ġperson al
Ġsens itive
Ġdeterm ine
Ġb ro
se qu
Ġdef end
Ġlangu age
c hed
ĠM ore
en ces
ul ated
for ce
g in
Ġest ab
Ġnorm al
Ġr ules
Ġam ong
ro id
Ġautom at
Ġinfrastr ucture
f for
Ġincre ase
Ġoper ation
an ced
Ġpack ets
Ġcons um
Ġre view
ĠF urther
f low
ĠS h
Ġd one
Ġgener ate
um p
Ġits elf
is ing
IS T
ĠI T
le t
Ġst e
oc k
Ġdevelop ed
Ġar bit
Ġclass ification
Ġcon duct
Ġh im
Ġtas k
Ġev ents
us e
ĠS ec
Ġtechniqu e
Ġprob ability
l u
end s
Ġacc ording
Ġstrateg y
vis ories
ĠAtt ack
Ġcert ific
4 8
ĠAl l
Ġr ange
ut es
Ġw ar
Ġconn ection
Ġact ion
n e
h old
Ġproduct s
Ġun t
h at
v ant
Ġproble ms
olog ies
l ight
Ġactiv ity
Ġassoci ated
iqu e
Ġcon str
Ġcheck s
Ġtarget ed
Ġsh ort
ff er
Ġstr ing
ĠAP I
Ġre d
Ġe lect
Ġinst ead
i od
Ġse en
4 0
Ġmark et
Ġke ys
ĠU RL
s ide
Ġcle ar
Ġf ire
ĠN ote
Ġs at
Ġs it
Ġpoint s
b y
Ġla un
Ġf ore
ĠD es
2 3
ĠD ata
Ġdef ault
ĠB e
Q L
( )
Ġli br
Ġ #
Ġpr im
Ġro ot
Ġass ign
Ġm is
Ġcon cept
Ġdig ital
Ġv end
ĠO S
Ġmain t
Ġest im
A D
Ġth ink
7 0
ĠD ef
b ack
in ally
Ġdisc overed
Ġinclud es
s p
Ġus ually
Ġar g
Ġav oid
Ġa verage
Ġsimp ly
Ġre st
Ġadmin istr
Ġbec ome
Ġint r
ĠCom m
Ġexec ute
Ġent ire
* *
Ġsol utions
Ġdec ision
Ġt em
Ġrequire ments
Ġpassword s
Ġapp lied
Ġc irc
ub untu
ul ate
str ict
as ter
eng th
Ġact ions
Ġtr ig
Ġpresent ed
Ġut il
ĠHT TP
Ġma xim
Ġatt rib
Ġaff ected
a ir
Ġcustom ers
Ġa ud
im inal
Ġto t
Ġreg ard
ĠJ ava
Ġneed ed
Ġsu g
c ing
Ġse par
A L
Ġs us
Ġbe low
ww w
ce ed
s et
ĠO pen
Ġin j
Ġbel ie
m ail
act ions
A M
ir us
Ġab ility
ĠO r
Ġmechanis m
h ic
Ġha pp
Ġen ough
Ġcomprom ised
Ġre pl
ĠA cc
Ġto o
il t
Ġconn ected
Ġpro ced
r ation
Ġg ive
Ġdet ail
Ġbl ack
p art
Ġsug gest
at h
Ġchall eng
Ġle ak
Ġschem e
Ġident ified
6 0
Ġf alse
Ġwork ing
Ġc ache
Ġper iod
Ġt able
re n
Ġk ind
Ġcompon ent
Ġcorrespond ing
Ġpartic ip
re en
Ġappro aches
ivers ity
Ġsel ect
Ġha ving
a im
8 8
Ġstore d
Ġpro m
k n
Ġlim ited
w all
Ġst or
M S
ĠIn st
ri ption
C VE
Ġ )
Ġs ide
Ġarbit rary
ist ics
ru pt
Ġnecess ary
Ġpop ular
Ġresearc hers
Ġst ates
Ġs em
Ġspec ial
Ġeas ily
Ġe ffor
Ġqu ant
ĠP l
R O
ĠS ome
Ġapp s
f act
er c
Ġuse ful
lob al
t le
Ġtrans fer
Ġm iss
Ġlim it
al k
ĠThere fore
Ġhttp s
v al
Ġcont ract
Ġv ol
Ġgo al
9 6
g ing
c r
Ġv ide
Ġs um
a z
Ġrequest s
ar ies
Ġs ay
ort h
Ġintern al
L E
Ġent er
Ġ1 5
it imate
Ġv ector
Ġet c
Ġgr ad
Ġcont inu
ĠH P
Ġle t
Ġcon st
Ġexperim ent
tern al
Ġc ounter
Ġr ather
Ġm illion
Ġransom ware
ĠP h
ĠAd d
po int
Ġset ting
ĠH at
in ter
p ass
Ġs wit
Ġpro of
Ġse em
Ġd est
Ġ ve
Ġw ide
S T
Ġf am
he ad
i um
Ġre strict
Ġne g
ĠS im
Ġgo ing
Ġal ong
Ġinter face
Ġph one
Ġb ase
Ġac cept
Ġpropert ies
Ġnum bers
iz es
Ġfix ed
Ġo pp
Ġunt il
if ically
Ġtr ad
yp e
i ate
Ġpolic ies
Ġaccount s
Ġactiv ities
V SS
Ġph ishing
Ġsec ret
Ġas k
Ġc are
Ġsign al
Ġsit u
Ġs ym
ch ing
i k
Ġsomet hing
ak en
ĠS e
ĠM od
Ġencrypt ed
Ġother s
T h
Ġh y
Ġtot al
lo s
Ġp en
if i
Ġun ique
iv ing
Ġth ings
p d
Ġt im
ative ly
Ġmed ia
Ġlear n
R E
pec ially
ĠS S
s w
p ose
b e
Ġquer y
Ġp ut
enc ies
Ġperform ed
Ġc lick
Ġprocess ing
Ġrel ations
Ġstep s
Ġobt ain
m ost
Ġdistrib uted
Ġcol lect
Ġimplement ed
w ise
th ing
Ġa ware
id es
Ġ :
ĠSer ver
Ġqu ick
on ym
re g
Ġ1 00
Ġwr ite
t es
Ġexp ress
Ġadd ed
N N
Ġact ually
ĠTh us
Ġst ack
Ġleg itimate
Ġeas y
I F
Ġcred ential
Ġachie ve
ĠAnd roid
Ġcont in
Ġsub ject
" ,
Ġwr it
Ġparamet er
Ġrec ent
2 1
Ġare a
Ġ ill
S P
l ib
vis ory
9 9
ward s
ĠV ulner
Ġg reat
Ġw ords
Ġa im
Ġd ay
Ġrece ived
Ġdynam ic
) :
ire less
Ġcomp ared
ĠT echn
M P
I I
Ġre ve
Ġl if
Ġf ar
op e
ĠO nce
Ġve hic
o pt
ĠPro t
ens es
ĠN ot
Ġcapt ure
Ġinstruct ions
Ġv i
iv ity
w e
Ġt re
ag ing
Ġcl aim
Ġsam ple
Ġadv ant
Ġretur n
Ġw ays
Ġb inary
Ġmem bers
Ġa ffect
Ġmod e
Ġcop y
3 5
N et
Ġe fficient
2 6
Ġbas ic
Ġcomput ers
Ġrespect ively
ĠDN S
li ke
Ġclass ifier
Ġrec ord
get her
ĠR ec
Ġd er
Ġm ove
Ġs ites
in ks
Ġph ase
bed d
Ġpr inc
ĠCom put
Ġo ption
Ġn ames
Ġmonitor ing
is es
Ġcrypt ograph
Ġben ef
Ġfollow s
il it
Ġsh ared
one y
ĠAl though
" .
Ġ1 6
l ish
and s
Ġg row
Ġne ver
Ġmechanis ms
Ġbo ok
ĠIn formation
ĠF irst
Ġs ession
Ġexploit ed
ĠC isco
Ġlow er
Ġt akes
ist s
Ġapp ly
Ġ1 1
Ġincre asing
ĠCy ber
Ġon ce
Ġcall s
ac hed
Ġtas ks
u z
Ġscenari o
ore d
Ġg ain
Ġmeas ures
Ġde ep
c y
ip her
a pp
Ġtyp ically
Ġan t
in ing
p re
Ġh old
o ol
Ġsur ve
ĠN ew
Ġvari ables
Ġform at
ĠThe n
Ġfl aw
Ġm ot
D P
2 8
ab led
A B
Ġl ength
Ġper cent
Ġb ig
Ġre fer
p ri
Ġauth ors
Ġcomput ing
ar ant
Ġan n
por ate
ĠIn d
kn own
Ġevalu ate
Ġact ive
Ġindust ry
Ġinput s
os s
ĠS ecunia
ĠF ace
Ġclo se
2 7
ĠS ize
Ġpre c
Ġcont act
Ġlo t
Ġs ure
y th
Ġtechn ical
Ġmon th
Ġreg ular
an e
Ġ ec
Ġ201 8
Ġc amp
po ol
Ġz ero
Ġupd ates
Ġes pecially
Ġver ify
ar m
ate gor
Ġdiscuss ed
ĠTh at
id er
Ġsh are
Ġfunction ality
Ġrele ase
ĠA ss
Ġset s
Ġde al
Ġide a
Ġassum e
Ġstor age
Ġwe ak
Ġappro pri
Ġevalu ation
al y
Ġexp ected
Ġwebs ites
Ġquest ion
Ġ201 7
ĠL e
se e
Ġhack ers
Ġvari able
ĠA ct
s ec
od y
I G
Ġit er
l ation
ĠC VSS
Ġobser ved
ar ily
Ġm ention
Ġno ise
Ġre duce
Ġcommand s
Ġ1 4
ĠEn ter
3 4
Ġautomat ically
m ore
âĢ Ķ
Ġsequ ence
Ġex ternal
Ġinstruct ion
Ġtr ained
Ġpropert y
Ġcommun ity
od ing
ĠUn ited
ĠA ut
Ġne ural
Ġbec om
Ġinc or
Ġinclud ed
i ation
Ġrele ased
iven ess
Ġgroup s
ĠMan ag
Ġcap abilities
Ġ {
Ġh ome
lic it
Ġobser v
Ġfire wall
ĠT CP
Ġexperim ents
5 5
Ġinstall ed
Ġbre ak
c ript
Ġb i
t ings
Ġact ual
at ic
Ġg lobal
Ġmod ule
Ġint elligence
ĠEx p
as p
Ġar tic
Ġsaf e
Ġintro duced
Ġs y
ĠSo ftware
m l
Ġfil ter
ĠM et
w h
Ġpa ir
Ġcont rib
m ain
Ġident ity
o int
Ġgener ation
Ġem bedd
yth on
on es
Ġengine ering
S M
Ġcomp ar
em b
I M
Ġpract ice
is f
Ġbu ffer
l ier
Ġobt ained
ĠF inally
Ġtr ue
ol ic
Ġbu ilt
Ġreg ist
Ġres ource
Ġgu arant
Ġcond itions
Ġrobust ness
a ign
if ies
ab or
Ġt aken
m et
Ġdom ains
Ġfun d
Ġpay load
epend ent
Ġt ri
Ġc ore
Ġbro ad
ac ed
Ġthere fore
in fo
Ġcon v
n ame
Ġto gether
A V
Ġc ategor
g ress
Ġro le
ĠFace book
anc ial
Ġ1 3
Ġman ip
ĠF ig
L S
Ġtechn ologies
Ġh ist
Ġ201 6
Ġwh y
pr int
ch ange
ĠCont rol
Ġw ind
Ġsk ill
Ġrele vant
Ġconc er
Ġsaf ety
a ft
att ack
ĠA C
Ġemploy ees
Ġbe gin
Ġen erg
Ġad apt
g o
ĠE ach
ĠS QL
Ġdirect ory
Ġrel i
Ġle ft
Ġdet ected
Ġc ross
Ġdef ine
Ġex act
Ġm o
Ġre ach
fere nces
Ġlar ger
ĠS p
ĠF r
Ġpur pose
Ġhas h
am ed
ack ing
Ġd am
Ġg re
Ġcredential s
Ġag ent
ver se
is ter
uz z
Ġcour se
Ġenerg y
Ġm icro
u fact
Ġexecut ed
y le
Ġd on
Ġcom e
a ud
P N
L L
3 6
Ġsens or
Ġpotential ly
Ġinj ection
Ġw or
Ġdis play
Ġre ally
Ġsat isf
Ġne ar
o very
Ġvide o
Ġrece ive
Ġstrateg ies
Ġw ireless
ĠCP U
Ġlevel s
Ġprevious ly
Ġcamp aign
m d
Ġp ast
Ġris ks
ĠP C
Ġresp ond
ĠA S
u ary
ri x
mit ted
Ġp ages
8 4
de f
ect ors
Ġcontrol s
Ġdiffere nce
us ter
l ated
Ġhe alth
are nt
ust r
uth or
Ġf irm
Ġappropri ate
Ġoff ic
Ġreve al
Ġins ide
Ġcr aft
ĠEn g
Ġrelations hip
Ġan sw
le ase
ĠD et
ic ated
g round
Ġbeh ind
Ġmach ines
Ġback do
ĠN ow
Ġo ld
Ġ201 9
N D
Ġal ert
ce ption
Ġpattern s
Ġscenari os
res hold
Ġpart y
Ġsel f
m od
Ġprop ose
Ġun s
le x
Ġdist ance
2 9
Ġfor ward
Ġvi ol
7 4
Ġsign ature
Ġallow ed
Ġ ess
Ġpract ices
o ok
lic ation
ĠA D
O M
r ics
is m
w r
up d
en ge
Ġl ight
) ;
Ġb ank
b ug
Ġpat ch
# #
a h
Ġf inal
Ġs ources
Ġlit tle
8 5
D oS
Ġresult ing
Ġen able
ĠG r
ĠEnter prise
Ġas pect
Ġcommunic ations
Ġm oney
Ġcomput ation
Ġj ob
Ġchalleng es
Ġshe ll
Ġcond ition
m ar
Ġcomplex ity
Ġsem ant
0 4
Ġele ments
7 5
ĠAn other
Ġfe ed
ĠSer vice
Ġpub lished
Ġrem o
ĠCom p
ain ts
deb ug
e y
c ont
Ġsy nt
ĠV M
Ġcomprom ise
Ġlibr ary
Ġconnect ions
Ġexper ience
Ġtarget s
Ġl inks
ous ly
Ġwrit ten
Ġinf lu
Ġdef enses
o ff
Ġon es
Ġdevelop ers
ify ing
a a
Ġs n
W e
Ġlong er
Ġclass es
ĠA g
wit ter
Ġexploit s
im in
el ine
Ġobject s
Ġsp eed
ĠH ere
ap e
ed er
t op
Ġear ly
ĠSt ates
Ġver ification
ĠUn iversity
un e
Ġto k
Ġal most
Ġl ack
Ġen force
x y
ul l
ĠU sing
ct ion
or ing
Ġde g
ĠAcc ording
ar s
Ġcomp il
Ġw ord
Ġupd ated
Ġset tings
Ġr ule
in a
ĠSystem s
Ġwe e
Ġnot e
Ġbuild ing
ing u
Ġadvant age
Ġth reshold
Ġwe ight
Ġoptim ization
ĠF rom
Ġintegr ity
Ġt ag
Ġhigh ly
Ġde le
du ces
ot s
Ġform al
c ode
Ġan om
Ġreport s
ĠâĢ ĺ
Ġlook ing
ĠS P
ers on
el ves
Ġser ies
Ġsub st
Ġ u
________ ________
lo re
Ġf ive
ĠWh at
ec ause
O C
Ġcustom er
Ġanalyz e
Ġinc ident
Ġpos itive
ident ial
Ġstat ic
ĠG P
ad visories
s ers
Ġar t
l ack
Ġsu per
ĠR ep
Ġoptim al
ĠA m
ĠS pec
el s
Ġr ad
Ġill ustr
Ġc ur
Ġinvol ved
ol l
Ġb its
Ġent ry
Ġlay ers
7 9
Ġcl ients
Ġdefin ition
Ġfin ancial
Ġst ream
Ġsus p
n a
c ert
Ġt ell
ing er
t on
ĠN o
ch ain
Ġal loc
ĠD ec
Ġy et
Ġsignificant ly
il i
Ġunderstand ing
at ory
Ġassess ment
Ġdatas ets
Ġsp o
Ġcomp et
Ġwind ow
Ġcom es
ĠE u
Ġh our
ro j
Ġquer ies
Ġ201 5
Ġcho ose
Ġev idence
Th is
5 86
Ġlog ic
o ber
Ġinter act
Ġprovid ing
av es
iv al
U T
Ġad opt
Ġpen et
Ġful ly
Ġover all
Ġline ar
Ġ3 0
ĠO ther
il es
Ġup on
Ġsens ors
Ġo p
em ents
Ġlo ck
Ġconf igure
ĠC ent
Ġ2 5
ect ions
Ġbre ach
c le
Ġinter net
Ġprof ession
Ġd i
n ers
Ġarg um
Ġdescrib e
ous e
-------------------------------- --------------------------------
idd en
d is
o le
Ġallow ing
Ġd ays
ĠA I
Ġchannel s
Ġquest ions
um e
3 3
as k
Ġby tes
n ow
Ġexp ect
Ġtrad itional
Ġpredict ion
Ġtrust ed
ĠB r
Ġsuccessful ly
Ġcle an
Ġac qu
Ġquick ly
6 6
Ġn at
ĠI CS
Ġ1 8
ex e
Ġdo ing
Ġtrig ger
U S
ĠMore over
Ġup gr
Ġf ake
red hat
Ġrec on
duct ion
Ġchall enge
ri al
Ġout side
Ġsend s
end ing
Ġsel ected
C C
Ġmaxim um
o per
ĠApp le
Ġman ufact
Ġinterest ing
ifi ers
ib ly
7 7
Ġrec ords
mer ic
art ment
Ġcr iminal
Ġstud ies
v ious
Ġhapp en
r c
Ġ201 4
Ġsu fficient
V M
Ġconst ant
Ġd ate
Ġear lier
Ġact ors
Ġl ines
Ġprivile ges
Ġbo x
Ġproper ly
ĠL i
Ġplatform s
ĠAl so
Ġqu ality
Ġstart ed
Ġcre ating
Ġvend or
ud e
it er
ort un
Ġmention ed
Ġess ential
Ġden ial
Ġsp e
O P
Ġse g
ul ations
Ġch ain
Ġare as
ĠP riv
Ġcertific ate
Ġit em
Ġcont aining
Ġim med
Ġen h
Ġcontrol ler
Ġfrequ ency
miss ions
I L
Ġp i
ub lic
ĠS C
00 00
ĠFurther more
al f
ffic e
Ġpos ition
Ġtr ain
Ġtur n
Ġwho le
Ġf ace
Ġ5 0
ĠI N
ĠF ire
Ġc ell
d own
Ġf ault
Ġto day
Ġ201 3
ag ed
ard s
Ġconstr aints
4 4
Ġg ives
du cing
d d
Ġsend ing
Ġhack ing
Ġprot ected
u ed
Ġindividual s
Ġsym b
Ġpack age
Ġlit er
am s
ĠA meric
Ġcurrent ly
ĠL et
m p
res ents
Ġun a
Ġspo of
Ġdetail ed
Ġb ad
Ġpr int
is ions
Ġgu id
9 5
Ġag ents
ĠB ecause
Ġal tern
ĠP re
ĠT witter
ĠM ost
ĠC r
Ġdocum ents
Ġby pass
Ġcoll ected
Ġn ature
er ous
Ġconsist s
7 8
ĠR em
Ġsome one
ri e
Ġgener ally
Ġc ipher
Ġgr id
Ġthe ore
ĠTr ans
av ing
Ġlo op
Ġthe ms
uct ures
Ġmat rix
Ġrep resents
Ġthems elves
e an
Ġtrans form
ater ial
Ġsc reen
Ġlif e
Ġoff er
Ġautom ated
Ġpo ison
. )
r ay
c ast
Ġerr ors
S t
Ġwh ose
os en
Ġatt ention
ĠMan y
Ġtrans action
ĠG ener
ĠA T
Ġvictim s
i i
Ġvari ety
Ġsh aring
Ġcontin ue
Ġcent ral
ĠR uss
7 6
Ġt aking
Ġme et
Ġlat est
---------------------------------------------------------------- ----
Ġ201 0
Ġinf ected
Ġrecomm end
il ities
cl ass
ĠU pd
n o
p s
Ġeffect iveness
u it
u ck
ĠO b
Ġhand le
Ġnew s
Ġcount ries
e arch
Ġperturb ation
Ġover head
ĠF e
Ġblock s
Ġst op
Ġpat ches
I A
a ff
ĠN ational
ĠS M
ĠEu rop
Ġsign als
Ġpract ical
Ġcl uster
v ent
i ency
Ġdeploy ed
Ġintro duce
G P
Ġ8 0
Ġattempt s
Ġan onym
ĠS ub
Ġopt ions
Ġgrad ient
Ġd riv
Ġprogram ming
am er
o h
od ed
T S
Ġth ing
Ġm ag
Ġcaus ed
Ġpack ages
9 8
r ight
ĠT e
ĠD is
ip s
Ġfr aud
Ġover flow
ĠE ven
Ġhack er
Ġstandard s
Ġpres ence
t y
ph p
Ġ >
Ġdec re
ĠCh apter
ĠD ep
Ġph ot
Ġbecom es
Ġassign ed
Ġad vert
re me
Ġint ended
yn ch
R P
ot h
Ġde v
Ġsp am
3 8
S cript
Ġcryptograph ic
Ġ20 20
t ext
Ġre ference
ĠP art
Ġeffor t
or n
Ġsc ale
Ġschem es
Ġthe ory
Ġbackdo or
Ġsc al
Ġmean ing
Ġbelie ve
Ġ201 2
Ġsp read
Ġcon sequ
Ġem ails
g reg
Ġcomm it
Ġincre ases
ĠSt r
Ġf igure
Ġsupport ed
Ġartic le
Ġadd ing
Ġpart ies
part y
Ġmet rics
Ġchecks um
Ġdel ay
Ġs ense
Ġcoll ection
Ġpart s
Ġpro duce
Ġincre ased
h t
Ġfollow ed
A s
Ġexploit ation
Ġclo s
Ġwr iting
Ġdisc los
Ġfact ors
ens ions
ict ion
E M
k y
Ġtrans actions
Ġspec ified
Ġpi ec
ĠCP S
igh b
Ġ1 7
ress ion
u x
Ġus age
Ġn amed
Ġspec ifically
Ġco ver
Ġsim pl
Ġcol um
Ġqu ite
Ġmeasure ments
Ġec onom
an y
Ġpenet ration
Ġste al
Ġinst ances
Ġrespons ible
Ġvalid ation
6 5
Ġtry ing
Ġsepar ate
p ack
ur ance
for t
ac le
ĠS m
ition ally
ĠSim ilar
Ġdri ver
it ute
act ers
imate ly
Ġadv anced
EE E
if f
Ġ q
Ġro und
Ġext ension
ĠM al
Ġ201 1
Ġhost s
Ġs low
Ġm aterial
3 86
ynch ron
ĠComput er
a i
im ension
g u
Ġe ffic
4 5
Ġ ====
Ġcon ver
ĠN IST
Ġloc ations
ER T
debug info
Ġ +
L C
ill a
Ġvis ual
Ġst age
Ġs ays
ay er
Ġdemonstr ate
ust ed
Ġd rop
Ġdeg ree
ad d
Ġw a
ĠD DoS
ĠRe g
Ġexp licit
Ġsmall er
u ly
ĠP er
deb ian
Ġprinc i
ĠN e
sc rib
R C
Ġwh ite
Ġcr ash
Ġre ly
Ġsitu ation
Ġin ject
Ġind ex
Ġparticip ants
ent al
Ġexist s
ac ing
bo ard
id ents
Ġprim ary
con f
Ġequ ival
Ġcorrect ly
Ġreg ion
ĠV PN
Ġ200 9
Ġp ress
id th
Ġintr usion
Ġf lo
D F
Ġchar acters
ĠHT ML
Ġab str
Ġobser ve
Ġli b
Ġm ail
Ġcraft ed
vis ed
ĠI I
le ar
w orld
if t
ĠC ustom
Ġcomplete ly
us ed
Ġind ependent
Ġw ww
olog ical
ph one
Ġ200 8
ist ing
Ġmod ified
Ġproced ure
Ġf inger
Ġdri ve
Ġa ir
Ġis ol
Ġh idden
pos es
a res
Ġres ol
ĠI C
Ġeffect ively
Ġv irus
Ġlog s
Ġel se
Ġopp ortun
ĠW ork
Ġrep e
Ġmaint ain
us c
Ġfind ing
Ġhy per
Ġcomb ination
Ġbo ot
Ġenviron ments
i j
us h
al ysis
Ġreg ister
un ction
Ġin ference
Ġex c
Ġtrans mission
ĠM L
3 7
t ical
Ġrun s
ĠRes earch
Ġchang ed
ĠI S
Ġcho ice
Ġperturb ations
Ġrem ain
ĠI EEE
Ġmod ern
Ġal though
ĠD o
Ġa way
k top
Ġcompar ison
roj an
Ġleg al
al le
Ġlog in
Ġcont rast
ĠM ay
ĠS u
lo t
m a
Ġother wise
O T
3 1
Ġsurve y
Ġch osen
Ġt ree
Ġfail ure
ĠC S
Ġb al
ĠVulner ability
3 9
Ġg ot
Ġeas ier
Ġhead er
Ġun known
ĠS uch
Ġf ri
Ġcharacter istics
eder al
Ġbas is
Ġprovid er
ir ing
Ġin form
lic e
re ct
fo x
w here
Ġexp os
Ġb and
Ġstart ing
Ġs ound
Ġrec ently
Ġun d
it ors
Ġsub sequ
ĠA ccess
Ġperform ing
6 8
ke y
pect ive
Ġpur poses
Ġen ables
Ġab s
Ġcost s
ĠC ons
Ġinvestig ation
Ġr ates
re te
li ance
ĠT or
Ġlead ing
Ġmod ify
re lated
Ġestab lished
Ġcor porate
ag r
Ġhigh light
Ġdam age
Ġmeasure ment
Ġret rie
Ġwide ly
ific ations
y ond
Ġexper ts
idd le
Ġstat us
Ġsim ulation
upp ort
Ġag greg
Ġcomm erc
ĠIm p
Ġes c
ĠP a
Ġcomp are
h ttp
Ġt alk
Ġnat ural
Ġf ast
Ġd ed
Ġeffect s
Ġembedd ed
Ġed uc
ron ic
ĠF l
Ġtr ace
Ġcommon ly
Ġcomput e
Ġut ility
Ġ3 2
upd ates
Ġindic ates
ĠB it
Ġproced ures
Ġass ets
Ġto ok
1 00
Ġtrack ing
Ġch apter
P ro
p c
Ġele ment
Ġprovid ers
Ġco ord
Ġregard ing
i or
h ib
Ġthre ad
ĠO ver
Ġdr aw
Ġcategor ies
Ġcap ability
ĠM S
Ġswit ch
Ġto wards
Ġdefend er
Ġgre ater
Ġprob ably
ĠQ u
Ġdist ingu
Ġtest s
ex p
H E
Ġc ou
ĠManag ement
Ġf all
id ed
s elf
f usc
Ġex change
Ġm ind
ateg ory
Ġget ting
Ġext reme
Ġpl ug
Ġne ighb
o y
p ite
Ġsomet imes
ĠB ob
Ġtem por
ĠInt el
Ġs ort
Ġaspect s
ren g
n cy
el i
Ġhour s
Ġed ge
Ġdepend s
Ġneg ative
Ġcred it
Ġcomput ational
Ġd ou
Ġliter ature
Ġrecomm ended
Ġfor ce
Ġi P
Ġman ner
ĠO per
Ġ rol
Ġaware ness
Ġauthent ic
Ġobject ive
Ġmot iv
Ġ2 4
ĠIn c
Ġfl ag
Ġpath s
Ġunder lying
ĠG u
le g
ra ft
Ġr a
Ġm ap
6 9
Ġvehic le
P R
Ġwee k
Ġad j
ĠJava Script
ĠAP T
Ġl ic
it able
ĠJ an
Ġfact or
yp ot
Ġdis k
Ġrel atively
Ġrepresent ation
Ġrem ove
en e
AT ION
Ġup load
on est
Ġstat ement
it ude
s ource
Ġinter action
Ġg e
Ġparticular ly
Ġch ild
l ist
ĠC or
Ġco ok
Ġspec ification
Ġfield s
he ll
Ġpro ve
** **
Ġdest ination
Ġconf idential
Ġattrib utes
an ch
Ġpo inter
O L
br id
Ġman age
Ġcar ri
Ġm ass
ĠE d
Ġins ert
Ġrecogn ition
Ġlaun ch
oc ol
Ġlist ed
Ġpur ch
Ġant i
Ġhist ory
l and
Ġen abled
pro cess
s pec
Ġag re
Ġenforce ment
ĠIn ter
ĠN ext
Ġdec rypt
ĠD irect
Ġexecut able
Ġprop os
Ġport s
ĠC o
Ġex cept
d om
Ġcyber cr
Ġenter prise
ilit ary
me as
Ġc amer
Ġdepend ing
t ers
ful ly
he st
Ġoff ers
pt h
E P
Ġskill s
âĢ Ŀ
Ġconduct ed
Ġblock chain
Ġsc hed
Ġinc om
c ome
Ġv ectors
md v
Ġcoll abor
ĠS D
Ġrout ing
i ately
Ġe ver
ĠComm un
m ark
ut ation
N IST
Ġfinger print
ĠM ult
ĠS T
ure r
Ġfore ns
ol en
Ġminim um
Ġvend ors
Ġdetect ing
Ġeffor ts
Ġb an
Ġdirect ion
Ġcommerc ial
ĠO ct
Ġbel ong
Ġcount ry
Ġmodel ing
Ġass ist
Ġidentify ing
Ġso ph
Ġde bug
ĠSec ond
Ġper mission
Ġprof ile
Ġprop ag
ĠC O
Ġem erg
Ġchang ing
uthor ized
Ġmod ules
s ive
Ġfocus ed
Ġappear s
o ice
Ġfam ily
Ġorig in
Ġsub s
f ect
Ġident ification
Ġdec isions
Ġsol ve
Ġmonth s
al i
Ġbug s
ĠS A
Ġs al
Ġloc ated
Ġmanag er
Ġoffic ial
d b
Ġback ground
co in
Ġany thing
ĠCh ina
ĠP ython
Ġeffic iency
ĠD oS
ht ml
Ġcont ained
Ġs ix
Ġposs ibly
Ġsign atures
Ġper missions
Ġlabel s
Ġst reng
Ġreas ons
m ap
Ġteam s
ĠM ark
Ġshow ed
ĠC IS
ĠL ab
Ġcont ents
c ription
Ġrandom ly
Ġassum ption
ĠEx am
e v
Ġno vel
ĠP r
Ġansw er
F F
ĠImp act
Ġhelp s
H A
Ġimmed iately
Ġser ious
Ġh alf
Ġ 64
ĠâĢ ľ
Ġachie ved
Ġmat ch
Ġappro x
ĠDN N
ĠA v
ĠH ence
Ġn ational
Ġv ary
z illa
Ġpass ed
Ġun it
U N
ĠM arch
st yle
Ġexper t
OR Y
ĠN et
Ġexact ly
ĠUpd ate
pt ions
Ġset up
Ġsc ope
Ġpublic ly
d f
Ġres il
ĠIntern ational
Ġte le
Ġread ing
er y
Ġfirm ware
ĠI s
Ġpro xy
Ġhand ling
ot es
Ġl ed
B I
act ive
Ġconf idence
Ġmajor ity
Ġtest ed
Ġanal yst
Ġst olen
Ġimpro ved
Ġcar ry
9 4
Ġoper ator
ul let
Ġim pl
m on
et ch
ers ion
ĠEng ine
Ġdem and
Ġestab lish
oun ced
Ġinvol ves
ort ion
Ġinflu ence
Ġtim ing
3 90
Ġent ities
ru ption
Ġoper ational
ri ef
f ile
ot ed
at ives
ip ment
w ide
e qu
F or
ĠAl gorith
Ġemploy ee
Ġoper ators
C om
Ġseg ment
Ġf uzz
Ġapp lying
ĠTechn ology
Ġgu ess
Ġadversar ies
ad ing
ĠDep artment
l ies
ĠB ased
Ġben ign
Ġm ix
Ġanalyz ed
Ġwr ong
ĠA b
ĠS ch
Ġdesc ription
Ġconfigure d
Ġoutput s
ĠCon f
Ġcan d
ĠI d
Ġdel i
Ġdist in
201 4
Ġcheck ing
Ġequ al
ac cess
ĠG roup
Ġavail ability
ĠSt ep
id ing
Ġg round
IN G
ĠD uring
Ġsupport s
Ġperform s
Ġg en
w idth
scrib e
================ ================
is k
our n
ĠA pr
Ġbe yond
Ġmitig ation
f aces
8 3
Ġtok en
Ġinstall ation
ĠM o
0 5
B M
Ġdisc over
Ġd ro
7 2
I t
Ġtarget ing
Ġlear ned
ĠA re
Ġsel ection
Ġst o
Ġnot ice
ĠAdd itionally
m ary
Ġtrans mit
Ġtrig g
201 7
l ers
c all
Ġro w
Ġcommunic ate
b ound
ĠM ed
ĠID S
Ġinc idents
Ġpers pective
h ood
q l
ĠO ut
o o
Ġl and
Ġcomb ined
Ġlist s
Ġcertific ates
ĠCl oud
Ġstat ist
Ġdec l
Ġretur ns
Ġpay ment
pl ing
Ġmitig ate
Ġle ver
b a
Ġdeploy ment
Ġtre nd
VE R
Ġcalc ulated
Ġin n
Ġaddress ed
4 6
T ION
ĠInst ead
Ġcand id
Ġcontrol led
7 3
C R
ĠA ug
Ġtr aces
Ġfind ings
f ree
Ġlangu ages
G D
ĠG iven
Ġindic ate
Ġor d
Ġre verse
Ġext ended
ĠL og
Ġtyp ical
ĠM ac
Ġscan ning
ĠProt ocol
Ġclass ified
Ġw orth
Ġmem ber
B S
Ġmet ric
istic ated
Ġrecomm ends
Ġcap ac
Ġ %
Ġsched ul
ul ating
Ġad visory
ĠA ND
Ġ 00
Ġfr ont
lic ations
Ġm ilitary
ad es
ĠW i
ĠR F
s rc
Ġr ank
Ġright s
Ġpower ful
ĠOct ober
I R
Ġf it
Ġmat ter
Ġg ate
ĠCy bersecurity
Ġb ody
pp c
Ġtr ade
ĠS EC
Ġgo als
Ġ4 0
Ġfunction al
el ines
Ġp ix
Ġmed ical
l it
ĠE X
Ġst aff
Ġevery thing
âĢ ĵ
Ġaccess ed
ĠB ack
Ġcap able
AC K
it ives
p age
Ġfeed back
ĠMod el
Ġs ell
Ġconcer ns
E x
Ġs light
Ġs ch
H P
Ġreport ing
ĠS y
Ġaccur ate
Ġremo ved
O D
ĠApr il
h a
Ġimport ance
Ġpre p
ab ling
Ġlead s
Ġth ous
Ġprocess or
ĠI V
Ġdeterm ined
Ġg ets
Ġbusiness es
A G
ĠC IF
Ġb ar
F i
y ing
Ġinit i
Ġoccur s
ĠA lice
8 9
V IS
Ġob vious
Ġdemonstr ated
Ġclass ifiers
Ġstud ents
Ġd ang
Ġconsid ering
Ġcomp re
ĠS ym
Ġma pping
Ġaccess ible
Ġseem s
Ġob fusc
Ġp ict
emb ly
ĠJan uary
Ġask ed
ĠP ower
Ġconc lud
Ġg ames
Ġindust rial
alle l
wh ich
or der
ĠE C
Ġg ather
ĠC an
ĠCent er
u ge
l a
Ġgr ant
Ġest imate
ĠJ une
T C
Ġany one
um er
Ġestim ation
Ġprec ise
ĠTh reat
Ġcomp os
ĠAlgorith m
Ġsign ed
Ġbr ing
Ġgener ating
em ic
Ġdevelop ing
ĠUn der
Ġins p
Ġmin utes
Ġrepresent ed
ĠM in
Ġincor rect
Ġform er
le ep
Ġfe el
r ing
Ġsupp ly
Ġuna uthorized
ĠC ol
is ation
Ġre n
Ġman ually
ist rib
y e
Ġfor ms
ĠI II
AB LE
om en
ĠPro gram
Ġf air
Ġinter p
Ġanom aly
Ġpres er
ap id
U R
un g
Ġspec ify
ĠO ffice
Ġbegin ning
velo per
ĠM AC
Ġoper ate
Ġc ategory
Ġhe nce
ĠAD VIS
en ing
Ġrec over
Ġattack ing
ĠP o
Ġdiffere nces
Ġthough t
Ġsoph isticated
Ġadministr ator
Ġitem s
Ġintegr ated
Ġvehic les
u ff
Ġvol ume
ĠADVIS ORY
Ġdef ensive
Ġh onest
d ata
Ġc ame
Ġrec overy
o x
ĠA V
Ġproduct ion
Ġrem ains
Ġrout er
ĠJ uly
Ġcre ates
Ġbec ame
ĠSe pt
ach ine
ĠDes cription
Ġstr uctures
en ced
ĠM on
re ens
ĠSpec ifically
Ġwhere as
Ġ200 7
Ġto ld
ĠC ode
ĠS et
Ġproject s
Ġ{ \
Ġ ign
AA AA
Ġevalu ated
ĠPro cess
as ion
Ġann ounced
Ġins ight
U I
ast ic
n g
Ġbenef it
Ġsemant ics
Ġpres ents
Ġb log
ĠSec ure
Ġcent er
T L
ĠCIF AR
201 9
Ġcounter meas
fort un
ĠT est
Ġimplement ations
Ġext ra
Ġattack ed
Ġlibr aries
ĠDef ense
Ġred irect
Ġbe gan
Ġcorre lation
Ġstud ied
ch ang
ĠU ser
E L
Ġbr anch
Ġow ner
Ġdes ired
f il
Ġref lect
ure d
ĠK ey
Ġdiscuss ion
Ġcon vers
Ġfac ilit
Ġrespons es
Ġf lex
ĠP ack
Ġcompre hen
Ġf aster
Ġkeep ing
Ġnot ed
al id
Ġlaun ched
Ġs ector
ourn al
Ġcoord in
Ġhig hest
Ġattrib ute
oot h
Ġpro duced
l im
Ġfrequ ently
def ined
ĠL oc
Ġequ ipment
Ġiss ued
Ġaltern ative
Ġthrough out
Ġent ries
Ġtr ick
P C
Ġband width
ĠC R
Ġlaw s
Ġflow s
Ġinvol ve
201 5
Ġw ater
Ġb rief
Ġscript s
go ing
Ġsecond s
p ace
ĠRep ort
201 8
ĠE v
ĠH ack
â Ķ
ĠC W
Ġag encies
g i
Ġanalyz ing
Ġexp lore
Ġpo ly
ĠSS L
Ġso on
Ġpoison ing
Ġrun time
0 6
Ġr at
p at
Ġn et
201 6
urre ncy
Ġclos ed
ĠSept ember
Ġev ol
Ġargum ent
vis ion
Ġcontinu ous
ĠAug ust
Ġro om
-------- ----
Ġt ax
a ut
ul ator
ud get
Ġequival ent
Ġbehavi our
201 3
Ġent ity
s ite
Ġcolum n
Ġrece iver
Ġf ine
Ġtrans ition
c f
Ġex ception
Ġm om
Ġexp osed
dis play
k it
cont rol
Ġrequire ment
Ġacc om
w o
s uch
ĠB lack
T r
Ġs ynchron
Ġexpl ained
5 6
h ost
us iness
Ġconcept s
Ġbenef its
Ġmanag ed
Ġfund am
Ġcomp liance
Ġn or
Ġbre aches
Ġdescrib es
Ġstr ings
con n
op s
ĠJ oh
Ġconf irm
ĠV irtual
Ġl ive
ĠAn alysis
ĠS ever
Ġst ated
Ġre v
w ith
4 3
m ers
Ġsc ient
Ġform ul
ar ge
ĠAn y
Ġval u
Ġco verage
Ġstart s
ĠO f
und red
Ġcr iter
Ġback up
ention al
Ġprinc ip
Ġupgr ade
Ġdatab ases
Ġper fect
el er
ĠM y
Ġsur face
at ter
ser ver
ist ent
ign ed
Ġpar allel
9 7
ĠS ource
ĠBe fore
Ġt end
at s
Ġar ray
af e
Ġm ar
Ġj o
Ġcaus es
Ġstore s
Ġtrans port
Ġ ult
Ġsc ience
E G
Ġmethod ology
ĠId ent
0 8
Ġinterest ed
ĠPriv acy
ĠB oth
Ġben ch
Ġassum ptions
Ġexper i
Ġst ory
end ix
Ġgraph s
attack s
Ġon to
B C
Ġenh ance
fortun ately
Ġel imin
f ix
p e
f e
Ġman ual
ot ing
Ġstatist ical
6 86
rop y
Ġcirc uit
Ġ upp
Ġmeasure d
ĠD ig
ĠC al
Ġh it
Ġown ers
C ERT
b in
Ġpro gress
Ġterm in
Ġreveal ed
Ġguarant ee
Ġwar ning
Ġph ys
-- -
ĠO R
ĠL ear
g ov
Ġre duced
Ġinst ant
Ġlar gest
Ġs l
ĠDe ep
Ġatt ach
Ġaut onom
Ġsc reens
ĠR SA
ĠAd visory
Ġinvestig ate
Ġt reat
Ġsec re
Ġnot hing
Ġ2 1
ur s
on y
Ġ ur
Ġsub set
Ġcirc um
Ġsum mar
Ġarchitect ures
5 4
ĠE lect
ĠAd vers
oss ible
Ġinst it
Ġd iver
Ġfe as
el t
ĠDec ember
Ġt act
ĠC ar
Ġbehavi ors
m ber
Ġextreme ly
5 3
T R
Ġminim ize
f r
Ġoff ice
Ġpl aced
0 2
l s
Ġsitu ations
Ġm en
Ġj ump
## ##
ĠM c
ult ane
Ġsend er
Ġrec ip
Ġs w
as on
Ġmain ly
Ġcapac ity
Ġprivile ge
Ġconf ir
Ġexecut ing
Ġload ed
Ġlink ed
Ġh undred
Ġcre ation
M I
ĠNetwork s
Ġemploy ed
Ġelect ronic
Ġprom pt
ĠB u
C E
Ġy ield
ier arch
Ġle ave
ĠOr gan
b ody
Ġsubsequ ent
h aps
Ġle verage
Ġflaw s
met ric
Ġde veloper
ive red
Ġrel ation
m y
Ġby te
Ġc odes
Ġrece iving
Ġgo es
Ġb udget
br uary
ceed ings
ĠU p
Ġbot net
Ġweak ness
Ġquant um
Ġdistin ct
hes is
L O
ĠD r
ĠC rypt
F S
ĠAd v
Ġexpl ain
c are
end er
x x
Ġdec e
Ġ â
Ġlook s
Ġsp lit
Ġr apid
Ġder ived
ec ure
ĠW orld
Ġhe av
ap ers
t om
Ġm ill
Ġextract ed
ĠSt and
hem at
Ġsusp icious
Ġt un
G SM
Ġintern ational
ĠS ol
ĠT LS
ĠEurop ean
Ġw on
Ġrem aining
ĠF ile
b re
ĠT rojan
Ġb in
em ble
Ġm ut
Ġenc our
Ġgener ates
ic ations
ove mber
Ġretur ned
put er
Ġun cert
p y
Ġ ]
Ġshow ing
Ġconf lic
ser vice
Ġlimit ations
Ġdoes n
Ġdel iver
Ġbrow sers
âĶ ģ
Ġ2 2
n y
Ġp ick
Ġrel ative
ar ial
Ġp ip
7 1
ĠD LL
Ġli k
Ġs qu
ĠW here
Ġc ult
display style
Ġdel ivered
% )
Ġs ections
ĠIm age
v est
Ġpiec e
Ġlat ter
Ġobserv ation
in st
Ġdisclos ure
ĠSer vices
Ġrefer red
P A
Ġnot ion
Ġremote ly
Ġh arm
Ġposs ibility
anc y
Ġcor rupt
ĠSimilar ly
ĠExp loit
Ġrel ies
op en
Ġlo st
U D
Ġclear ly
Ġexp and
ĠG erm
se ud
pro duct
ĠThe ore
Ġconsist ent
Ġinterp ret
t ics
Ġsu itable
ail y
Ġ ir
Ġwork ed
U L
ĠAre a
Ġmo ving
ĠMult i
g y
olic y
U C
Ġdownload ed
Ġexploit ing
Ġsp ect
Ġex erc
Ġmanufact urer
Ġm ac
ĠA R
Ġinter actions
Ġspoof ing
Ġcomput ed
c or
Ġsim ultane
Ġrece ives
ĠCon ference
ĠN ovember
ĠD ue
Ġnear ly
Ġgener ator
Ġp arent
Ġpr ice
Ġvari ants
Ġfilter ing
Ġinter faces
ĠCustom er
ou nce
h ot
istr ation
Ġcard s
5 1
Ġdistingu ish
Ġhy brid
ĠInd ust
ad ow
l ig
Ġupp er
Ġt en
âĶģ âĶģ
ĠD ES
Ġprofession als
Ġthe ft
Ġend point
lud ing
Ġscore s
Ġhapp ens
Ġstreng th
8 7
9 3
C h
U s
ĠFe bruary
Ġapp e
od er
Ġrep os
Ġh ypot
ac ement
Ġd ivid
m al
et er
Ġtrans formation
ĠM NIST
Ġb illion
b u
Ġslight ly
d ll
ĠU se
spec ific
Ġrecon struct
ĠC re
ĠPro duct
4 2
Ġsc am
Ġet h
Ġassum ed
Ġbas eline
ĠApp lication
Ġcomprehen sive
Ġun its
Ġcontract s
20 20
Ġcho os
Ġr ang
Ġd imension
Ġed ges
Ġc he
Ġun ivers
R F
Ġvari ant
D e
if orm
Ġdetect or
av ig
Ġplan ning
Ġinter cept
Ġkn ows
Ġconfigur ations
str um
de vel
IT Y
Ġreli able
ĠP ar
Ġc ut
az on
ĠDet ection
lic ated
Ġpart ition
Ġf re
201 0
Ġlog ical
Ġser ve
Ġevent ually
Ġtw e
ĠU N
rom e
ĠAmeric an
op h
' ,
Ġbut ton
Ġcol or
Ġg iving
ill ance
Ġh ij
Ġv oice
Ġexperiment al
n orm
Ġun like
Ġnetwork ing
ĠJ ust
ines e
ck now
8 1
Ġded icated
Ġrepe ated
Ġun tr
Ġ }
out h
Ġmin ing
Ġuser name
Ġcaus ing
ĠP e
oc ial
Ġinf er
Ġf ill
l ishing
i pped
Ġsa ve
Ġconstruct ion
Ġconsum ption
ific ial
ĠUS B
Ġdes ktop
E O
re c
Ġdisc overy
s es
s ub
Ġexpos ure
us er
Ġvalu able
Ġaim s
Ġnum erous
Ġ id
Ġ il
ĠS Y
ĠAut hent
201 1
Ġc lock
Ġabstr act
c a
Ġintegr ation
Ġmiss ing
ol low
Ġ @
Ġtur ned
ĠDef in
iv irus
ĠFire fox
Ġm er
ĠP ort
Ġhold s
ĠS he
0 3
here nt
l is
Ġkind s
Ġrad io
ĠC NN
ĠComm on
ĠBit coin
Ġmat ching
Ġsh all
ĠN orth
Ġthous ands
Ġexplicit ly
d it
Ġbroad cast
ĠV er
Ġestim ated
ĠM achine
Ġimp ossible
ĠK ali
9 2
Ġimplement ing
Ġalert s
Ġcom ing
Ġco oper
aint ext
Ġt it
Ġad visories
Ġact or
Ġch ance
Ġconc ern
ĠV ersion
ĠIn f
ĠW ar
ĠO F
ple te
Ġb ur
Ġcarri ed
Ġlat ency
5 8
ĠB l
r ate
Ġs aw
ĠSever al
ers ky
Ġdeli very
ĠC D
ĠA nt
ĠCh inese
j ection
Ġ2 3
im al
Ġre duction
ĠP RO
AD A
Ġt err
re st
Ġpart ners
Ġh uge
asp ersky
ĠE qu
Ġst ay
Ġsc r
Ġcomp at
ĠC A
Ġinn ov
um b
agr am
Ġfail ed
201 2
Ġ2 6
Ġext ensions
ĠM IT
Ġh ierarch
le y
Ġstat istics
Ġatt ract
ĠRuss ian
Ġdis rupt
pp er
Ġref ers
ĠF BI
ĠAttack s
Ġmost ly
Ġdou ble
fere d
ĠEn c
Ġcr ime
Ġanom al
4 7
Ġnecess arily
Ġmult ip
Ġrecogn ize
am ing
ie f
Ġchalleng ing
S N
Ġprofession al
Ġguarant ees
over n
Ġf av
os p
Ġaud it
T o
C l
V ID
Ġrat io
ĠD at
Ġreli ability
9 1
Ġpre fer
Ġ200 0
Ġpop ulation
d a
Ġatt ached
st ream
Ġconstr aint
ing ly
Ġcampaign s
Ġm aster
Ġcapture d
Ġprotect ing
Ġconsum er
Ġsequ ences
Ġadministr ators
Ġinf ection
ĠE S
Ġadopt ed
ĠM e
Ġeconom ic
wr ite
ter m
lo ok
ĠP ass
Ġobserv ations
Ġrelationship s
Ġgener ic
ĠPro ceedings
ĠEx ec
Ġplay ers
Ġemp ir
Ġexist ence
I X
Ġres ist
Ġdis s
Ġincreasing ly
it ative
Ġp seud
iminal s
Ġstr a
Ġal le
an n
Ġbu y
S er
ĠB o
Ġaccess ing
ail able
Ġconsum ers
ĠAPI s
Ġk ill
ur y
ĠCl ass
Ġfirewall s
Ġapplic able
fere nt
ĠSc ience
Ġs an
Ġtra vel
ĠSm art
vis or
ĠD en
ag n
Ġargum ents
Ġsemant ic
d en
ĠG e
ĠSt ate
sc ale
pos ition
es ides
ĠRes p
g ener
Ġcamer a
Ġcr ack
Ġfin ite
ĠIn it
ĠTe am
ĠS ign
c s
word s
R e
Ġbr ute
ĠU K
% .
Ġdynam ics
ĠTheore m
Ġpa id
Ġpl ant
Ġvalid ate
Ġgrow th
ĠC ert
Ġmiss ion
ĠLear ning
Ġb ind
ens ity
ĠManag er
Ġexam ine
Ġmat hemat
Ġinte ger
Ġh ar
ĠEngine ering
om b
Ġstra ight
s on
Ġterm inal
Ġ200 6
v ulner
ph ysical
A l
so le
Ġesc al
ĠAm azon
Ġre ached
Ġpl ans
Ġext end
Ġleak age
ĠP DF
Ġsimilar ity
Ġaud io
pl ed
Ġauthor ization
t p
Ġf ederal
Ġcy cle
A pp
Ġil leg
it iz
Ġlook ed
Ġname ly
Ġpo ol
Ġtop ic
ĠApp endix
Ġresil ience
ĠRe qu
Ġlead ers
Ġrout ers
ĠU b
ĠInt elligence
4 9
ĠX ML
f l
Ġro ute
Ġof fered
Ġpol itical
Ġincor por
l usion
M A
ic ed
Ġcryptograph y
4 1
Ġsee k
Ġdec ide
Ġ er
ĠI BM
Ġi OS
Ġh om
Ġfri ends
Ġdo or
ĠUn fortunately
Ġsuggest s
Ġ6 0
ĠProt ection
omet ric
Ġcall ing
Ġenc l
Ġd iv
Ġevery one
Ġm ist
Ġprot ot
ili ar
ĠJoh n
Ġre ducing
it ory
Ġw in
Ġhe ld
Ġdec ided
um ber
Ġtem pl
ten ance
Ġgrow ing
Ġclaim s
ĠC T
ess ions
i et
Ġminim al
Ġd ial
Ġver ified
Ġsuggest ed
F T
6 7
Ġinter med
Ġ \
b b
z e
F igure
Ġm ov
Ġwor st
Ġpl aintext
Ġf ails
Ġclick ing
s ystem
Ġl apt
Ġeduc ation
5 2
Ġw alk
he l
Ġconsequ ences
a e
Ġconfidential ity
un k
Ġide al
Ġe p
Ġopportun ity
________________ ________________
ĠMal ware
ĠAdvers arial
F I
Ġmom ent
Ġm ask
no arch
Ġpercent age
ĠInst itute
Ġst ation
H T
. ;
Ġcriminal s
Ġfundam ental
Ġacc eler
ĠT ime
Ġconfir med
Ġrele ases
Ġspe ak
Ġwant ed
Ġtok ens
I f
c at
S C
16 8
i ant
Ġpo or
Ġsh ut
Ġdistrib utions
ĠP ublic
% ,
aw n
Ġdesc ript
ĠCIS A
ĠSt e
Ġrob ot
ĠE m
Ġstat ements
ĠB ay
Ġpair s
Ġinter view
Ġc overed
ĠF ore
200 9
Ġexp ensive
ĠSt at
EC T
asp loit
Ġenc oding
Ġtop ology
Ġste alth
Ġt ables
op y
Ġconnect ivity
Ġinter pre
Ġens ures
8 2
Ġtrans mitted
Ġautom ation
Ġh ide
Ġfin ally
ĠM em
on ent
ĠS n
ĠH igh
ad get
Ġ ;
Ġcalc ulate
ut ing
Ġfr ag
ĠO N
Ġin strum
Ġev olution
Ġsurve illance
Ġbo ard
Ġsever ity
Ġdef ines
Ġint ent
Ġs av
ĠT arget
Ġext ent
Ġim m
Ġro ad
Ġuncert aint
Ġf oot
Ġvol t
Ġa cknow
Ġa ge
s u
b ian
ĠA ust
et ary
Ġw ent
ĠW ord
Ġf ool
Ġresearc her
ĠiP h
Ġr ating
lore r
Ġfor um
ĠEx t
ĠLe vel
r an
Ġregist ers
us ions
r or
Ġopen ed
ĠF ound
Ġprim arily
Ġrol es
Ġun less
Ġimprove ment
Ġrepl ace
Ġstr ict
Ġcompil er
ĠA p
a ugh
pack et
Ġinter val
ĠP HP
Ġl ate
ĠA c
un der
Ġmembers hip
Ġdefin itions
ĠY ork
ur ation
Ġpict ure
ĠPro ject
Ġapprox imately
Ġutil ize
Ġide as
Ġ2 7
Ġh ot
ĠH y
Ġcriter ia
Ġbro k
line ar
ĠP at
Ġs izes
Ġind irect
r um
Ġj oint
A n
ĠAut om
Ġm ount
ĠL isting
ĠGener al
0 7
ub e
Ġst able
Ġweight s
us ing
ĠB usiness
Ġdocument ation
anc ing
Ġc at
Ġreal istic
Ġ2 8
ĠT re
Ġqu al
ĠP GP
per form
Ġregist ry
Ġhum ans
u itive
ĠT wo
Ġtem per
Ġsymb olic
p ower
Ġlabel ed
ac c
Ġinter rupt
ĠL ast
Ġover view
os ystem
Ġnum er
Ġautonom ous
id s
Ġme ant
ĠDe velop
ĠLi ke
ĠE very
Ġn ation
Ġmanip ulate
Ġbound s
g le
ĠM D
ĠY our
Ġn avig
ĠD istrib
Ġc ity
S I
ent ed
ĠP ost
Ġprof iles
al t
b il
Ġh ol
Ġal one
ĠUb untu
Ġcr uc
Ġsam pling
Ġre duces
Ġb ill
ĠU sers
com p
Ġt ab
Ġmag n
Ġrequ iring
âĢ ¦
Ġnorm ally
Ġimpl ies
Ġmod ification
Ġen abling
Ġrestrict ions
Ġp ush
Ġpol ice
Ġm iddle
in ations
st ation
ĠIn te
ri ve
Ġ9 0
if e
ĠS IG
6 2
Ġobject ives
Ġautomat ic
Ġforens ic
Ġpart ial
ro te
Ġr are
Ġsu c
U RE
Ġprec ision
u k
Ġoff line
Ġreason able
Ġauthent icated
Ġwant s
em on
Ġrepl aced
on ly
Ġins urance
res h
EN T
c p
Ġprinci ples
ĠDig ital
ĠSS H
o ption
Ġintr ud
Ġlog ging
un ch
Ġrestrict ed
Ġcons ult
ph as
Ġauthor ity
du c
Ġcipher text
it ic
Ġfail ures
l ab
ĠM obile
Ġcl ust
Ġant ivirus
0 9
ĠF in
Ġw atch
i em
Ġreg ions
ĠC ore
Ġfocus es
f s
Ġen for
Ġadj ust
Ġprinci ple
ĠEx per
Ġrecord ed
Ġspec ially
ĠA ir
Ġpredict ions
Ġr aw
ellig ent
Ġvis it
Ġre ward
om ic
Ġsubst ant
Ġdriv ing
Ġuntr usted
Ġadd s
A d
Ġass et
Ġappro xim
Ġhealth care
l ink
Ġdec ryption
ĠM ess
Ġincom ing
P S
ĠCh rome
a u
Ġsuc ceed
ĠStr ateg
Ġdep ict
ĠF ree
Ġiter ation
Ġaccept ed
om ial
Ġauthor ized
ĠPa ul
aus s
Ġshell code
ro s
ad ed
ve re
The re
Ġm s
ed ia
pro t
Ġcrypt oc
ĠS ocial
Ġbound ary
D B
ĠAd min
Ġsum mary
Ġopen ing
Ġplay er
ame work
Ġtop ics
Ġsimultane ously
ĠExp lorer
ĠR ob
Ġfol der
if ferent
Ġst ake
Ġp apers
200 8
ĠIP v
Ġprocess ed
Ġcountermeas ures
am b
Ġj ud
ĠG N
Ġinv alid
Ġbecom ing
ĠRem ote
Ġind epend
Ġal ter
Ġanonym ous
l inux
st ep
Ġvis ible
d et
s y
as c
Ġprior ity
an ning
Ġun iform
Ġhe ap
ĠSt ud
p riv
Ġlay out
ĠS HA
Ġse ed
Ġanal ys
iction ary
ullet in
ĠN on
d r
ĠX SS
5 7
gr ade
Ġapp lies
Ġlic ense
Ġmarket ing
Ġaccom pl
Ġcruc ial
Ġtri ed
c ore
Ġpos itives
Ġtrans l
ĠA ES
c isco
ĠU AV
Ġoccur red
Ġident ical
Ġtheore tical
ĠP lease
for ward
ĠB as
Ġp ul
Ġse arc
Ġrep utation
ens or
F A
Ġg l
Ġs essions
Ġd aily
ĠM at
ĠIn s
Ġw rote
Ġfix es
Ġbe g
fere n
6 3
Ġcook ies
al ing
Ġinit ially
T ER
p ub
Ġ200 3
uct ion
is c
C H
D K
Ġefficient ly
Ġread y
Ġprincip al
t est
Ġens uring
Ġexpress ion
D R
Ġread er
b s
ĠAuthent ication
Ġmain tenance
Ġadv ance
Ġfil ters
Ġoff set
P M
Ġmove ment
ograph ic
el low
cept ible
ograph y
Ġactiv ation
Ġco vert
Ġcandid ate
Ġent ropy
ĠB lock
ĠURL s
ĠSt ack
Ġext ensive
ĠP olicy
ch annel
Ġgu est
Ġguid ance
Ġelect ric
r ical
et c
l in
Ġh or
eli hood
6 1
Ġdisplay ed
ĠP res
Ġguid elines
Ġsp ot
Ġp an
O n
Ġimpro ving
K E
Ġregard less
Ġessential ly
Ġind eed
Ġinstall ing
ĠMet asploit
Ġcop ies
Ġpl aces
D A
f it
i os
ĠM ar
Ġdang erous
Ġdepend ent
Ġdivid ed
U X
leep ing
Ġden ote
Ġrequest ed
ĠiPh one
or ph
ĠP LC
Ġregist ered
h p
m ax
Ġdele te
ne y
Ġt ick
om s
Ġcorrespond s
Ġbank ing
Ġbot tom
Ġcom ment
Ġrel ay
Ġcare fully
S ec
ĠL o
Ġop ens
Ġdes pite
Ġconcer ned
5 9
Ġtrans p
Ġprivile ged
U M
Ġar riv
ĠO T
ĠP R
Ġj ava
ĠT ype
ad a
Ġcou ple
ĠF ollow
Ġsoc k
ob e
Ġiter ations
ĠS upport
k r
ar b
Ġdri vers
Ġins ecure
Ġsay ing
Ġg ap
ad ata
" )
Ġact u
SS L
C omm
Ġex hib
l en
Ġcomple ted
Ġrem ember
E s
le ment
in ite
Ġrepresent ing
Ġperson nel
t ion
ion ed
ĠP GD
ĠD om
ens us
ĠCh r
Ġt ries
pl ace
ĠD R
ĠG overn
Ġex chang
Ġa ug
ĠCh ar
ĠRe ferences
Ġfam iliar
Ġinvol ving
Ġke pt
es ter
ĠS G
Ġsch ool
Ġdisc r
Ġadvert is
Ġw orm
in y
Ġvolt age
ĠFl ash
Ġexp lo
ĠThe ir
Ġm aps
ĠC heck
Ġph ones
ĠU s
Ġd ump
ĠK e
ĠS am
Ġmanufact uring
S h
vulner ability
Ġpredict ed
Ġg adget
Ġmed ium
ĠS N
Ġvide os
Ġrecommend ations
W S
us ive
ĠT yp
Ġexp ort
r d
ĠT HE
Ġun able
Ġt ro
] ,
Ġsh ift
Ġreal ity
Ġto uch
Com puter
Ġdom in
Ġcheck ed
n c
iem ens
Ġprocess ors
g ence
Ġhand led
Ġscript ing
Ġport ion
Ġm ig
ĠMet hod
Ġpost ed
Ġextract ion
Ġne ur
ĠH is
Ġpe er
ul ative
ĠF ix
Ġper haps
D N
de v
on n
Ġadvert ising
ĠTr ust
Ġhundred s
Ġadministr ative
in istic
j ected
ol ute
Ġdisc rete
Ġcor ruption
Ġin herent
V D
Ġle tt
Ġem phas
Ġlim its
ĠCon n
ib ilities
ĠC C
Ġadapt ive
d es
Ġcon ference
ĠW in
Ġaffect s
OS T
Ġtrigg ered
S ection
Ġhard er
Ġt el
Ġsynt ax
ĠRuss ia
Ġdecre ase
f c
st ate
Ġg as
ĠAr ch
d riv
Ġhand s
we b
ĠE mail
Ġd ark
Ġmis class
ĠN SA
Ġlog ged
Ġpropag ation
Ġpro ceed
est amp
ĠAct ive
Ġrec all
Ġqu e
d ro
Ġcommun ities
ĠK aspersky
Ġv s
ult s
ĠR ober
Ġst ri
Ġmill ions
Ġold er
Ġclaim ed
Ġachie ves
Ġw at
auss ian
ĠU DP
at ically
Ġaccess es
hold ers
T D
Ġident ifier
ĠM a
Ġfeas ible
10 7
Ġdec om
IS C
ient ed
ĠS w
ĠIn tr
N ET
ĠI SP
Ġalloc ation
Ġhost ing
ress ed
Ġdifferent ial
Ġover l
Ġgovern ments
tt y
/ ?
Ġtempor al
H z
up s
Ġag o
h and
Ġsol ving
Ġcol le
Ġdis able
Ġis n
Ġclust ers
ĠD av
Ġillustr ate
Ġauthor ities
Ġac ad
Ġdynam ically
Ġclose ly
S QL
ĠP en
Ġentire ly
tr ans
Ġident ifies
L P
Ġp lease
Ġle aving
Ġcon ven
ant ec
Ġintermed iate
Ġaut o
ĠDes pite
Ġexpl an
Ġsatisf y
og ene
Ġanaly tics
Ġsp y
Ġc itiz
er v
abil istic
Ġprov en
ash ing
and box
Ġon going
t ered
Ġsc ans
Ġfri end
Ġfr ames
ic on
H ow
r ant
ĠIm pro
ĠB ug
ĠRe ad
Ġsp at
Ġf tp
ot al
Ġh ope
D I
Ġ5 00
Ġr an
Ġtag s
Ġrespons ibility
ĠOr acle
Ġinvestig ated
g ers
ch astic
Ġuncertaint y
ĠA lex
ĠT ABLE
Ġenc oded
Ġaug ment
Ġbot s
Ġ200 5
n omial
+ +
Ġh one
Ġinter v
Ġinf ect
ach ing
Ġmass ive
Ġanalyst s
ĠFr amework
p ost
Ġpat ched
ĠEurop e
n ets
Ġcomp r
Ġwe ap
Ġtr uth
Ġun re
Ġst yle
ĠS um
Ġframework s
Ġag ency
lo se
Ġtre es
Ġre ven
Ġremo ving
Ġto ward
Ġj am
Ġg ave
Ġthink ing
Ġdeterm ining
ub y
Ġsub sc
ĠTh ird
ĠPl atform
ĠSy bil
Ġsupp lied
ib ri
Ġres olution
Ġpost s
Ġcrypt o
Ġrep ro
Ġevalu ating
Ġthere by
ion al
ĠCal if
Ġhas hes
Ġconc rete
Ġstrong er
Ġworld wide
Ġmo ved
m o
ĠComm and
ĠE l
ĠCW E
ph ones
Ġfacilit ate
Ġd ictionary
Ġutil ized
Ġconv olution
G A
e b
Ġclass ify
ĠR T
Ġch ip
i ans
err ing
5 00
ĠSt art
Ġad option
Ġcontin ues
Ġprev ention
uc lear
Ġagre ement
Ġar r
Ġbal ance
Ġs il
Ġsh ares
ĠE r
Ġfav or
Ġdepend encies
sp ace
arget ed
Ġlik elihood
Ġz one
et ooth
Ġtemper ature
Ġindic ated
Ġbench mark
ĠP ay
Ġlet ter
B A
ash ion
Ġcybercr iminals
ĠN ame
Ġass embly
Ġexpress ed
Ġhist or
Ġyour self
Ġbr and
ĠK ore
Ġw ild
Ġdec ent
par amet
it ation
Ġimp erson
1 01
ĠUn like
Ġreview s
Ġred und
der ing
ĠC EO
Ġsupport ing
H S
Ġsur pr
Ġex ceed
il ibri
Ġformul a
Ġde pth
Ġblock ed
Ġstr uct
] .
Ġleak ed
Ġde ad
ur n
Ġn one
Ġrout ine
' t
Ġretrie ve
vers ion
Ġmanag ing
Ġcomp licated
Ġbr id
Ġas ym
ur b
Ġinstit utions
Ġprotot ype
inst all
Ġcontrol lers
ĠG et
Ġfr action
Ġpat ient
ber g
L R
ĠSC ADA
ĠCommun ications
Ġpre m
Ġsol d
Ġhost ed
Ġconstruct ed
Ġcon ve
Ġswit ches
Ġwhen ever
Ġscreens hot
ul ates
fil tr
Ġspecific ations
Ġmaint aining
Ġembedd ing
Ġb atch
Ġadvant ages
Ġreg ression
Ġpublic ation
c ase
Ġrem ed
Ġsequ ential
Ġex cl
Ġcom ments
Ġst ages
Ġ19 2
ĠBay es
Ġp p
Ġblock ing
Ġem er
ĠS O
Ġilleg al
Ġ _
d s
Ġencl ave
Ġchild ren
ĠF ederal
ĠGP U
it ored
ft p
ĠR el
ĠEng lish
Ġbl ue
Ġdeal ing
Ġgu ide
Ġfore ign
Ġcomp aring
Ġproof s
im age
Ġins ider
Ġprevent ing
it ivity
Ġab use
ĠR E
Ġb atter
Ġh ook
ecur ing
Ġa x
en ed
ĠResp onse
Ġv ision
Ġartic les
Ġe ight
Ġper ce
ĠR andom
Ġinv ok
Ġde b
Ġmet adata
Ġconv entional
y ear
Ġbin aries
Ġimpact s
i ety
Ġcentral ized
ĠAmeric a
ĠB lu
Ġsmart phone
on al
Ġindic ating
orn ia
ĠVulner abilities
m its
Ġp lot
Ġind u
D S
augh t
Ġdiver se
h ol
iv il
inc luding
Ġloss es
iss ance
ĠR isk
C B
Ġpoly nomial
ĠS W
Ġs ys
a round
ĠP age
Ġload s
Ġfew er
c d
ĠB esides
Ġpurch ase
Ġabs olute
Ġrepos itory
Ġfac ilities
ĠInte gr
Ġkn ew
Ġconnect ing
Ġact ively
ĠD C
Ġexecut es
Ġdis pl
} }
Ġmanip ulation
Ġinj ected
Ġpro duces
Ġsupp osed
Ġexerc ise
ion age
ĠS E
ĠF TP
ĠTechn ical
Ġcluster ing
he red
l ayer
Ġrest art
u el
ag er
Ġam pl
Ġwee ks
ĠAust ral
leeping Computer
Ġinv ari
Ġcopy right
p atch
ĠF GSM
ĠPl ay
ĠR ES
Ġspe ech
Ġdocument ed
ĠB ase
Ġsal es
Ġhe ur
rough t
Ġimprove ments
ĠExam ple
ĠCalif ornia
E X
Ġart ificial
Ġcompil ed
ock er
ĠREF REF
ens itive
l ines
Ġcomp osed
Ġsu ff
Ġweakness es
d oc
Ġpre fix
Ġdis abled
ĠP ol
ĠV is
Ġse vere
Ġdeploy ing
Ġprob abilities
Ġanal og
process ing
**** ****
Ġillustr ated
c heck
Ġto ler
Ġmaint ained
Ġre play
Ġim ag
ĠL ink
Ġ2 9
Ġre ferences
ĠT op
Ġorig inally
ĠS olution
Ġamount s
u its
Ġestim ates
Ġpix el
Ġcy c
ĠS ur
ĠAp ache
Ġsp end
Ġop in
ĠA ff
pt y
Ġopportun ities
Ġtrans f
Ġex it
r un
Ġvary ing
Ġstrong ly
ĠGP S
ĠZ h
Ġsubject s
na issance
Ġens emble
ĠG aussian
Ġfre ed
ĠSym antec
exp ected
S E
UT ION
Ġcert ification
Ġtact ics
Ġmod ifications
Ġprev ents
Ġel ection
Ġask ing
: :
ĠRober t
en ior
Ġout come
Ġspect rum
re p
Ġacknow led
ux net
am per
ro y
Ġes p
Ġp ython
s use
Ġappe ared
ĠD epend
o ke
upd ate
Ġt ail
b and
Ġintro duces
Ġinterest s
Ġst ability
norm al
Ġdifficult y
port s
Ġint ention
oc ation
ĠZ ero
Ġen umer
call ed
Ġhack ed
c he
ic ks
lo ts
Ġcour t
i ated
Ġstrateg ic
C r
ĠP E
the re
um an
Ġ9 9
Ġr ise
Ġprior it
ĠAT T
Ġed itor
Ġfil m
el ect
s l
Ġterr or
Ġempir ical
Ġpre tty
ĠV ol
t xt
f b
Ġneighb or
ĠT V
ĠHe alth
Ġh ouse
ĠT R
g ent
ĠM UD
Ġorgan ized
Ġdro pped
i pping
Ġnew ly
Ġmathemat ical
c b
u ing
ĠTh rough
Ġorganization al
ĠBr it
Ġprop ortion
am a
ount y
= "
Ġtim estamp
M C
ad v
Ġrem ov
Ġph ases
Ġlarge ly
IN T
Ġreg ulations
Ġsearch ing
Ġconclud e
Ġan not
Ġreg ul
p ath
Ġwa it
Ġinvest ment
ĠCl ient
ĠNot ice
ĠA uthor
Ġequ ilibri
Ġcons ensus
Ġder ive
ĠS upp
igur ation
Ġexpert ise
ĠC urrent
ĠX P
onse qu
Ġcompos ition
Ġconsider ation
Ġtheore m
Ġh op
Ġdesign ing
Ġn ative
Ġcontinu ously
if act
w hat
ĠS af
Ġprob abilistic
Ġcult ure
Ġdiscr imin
ĠBlu etooth
Ġpass ive
Ġbi as
Ġengine ers
U P
ap an
Ġpiec es
riv ial
Ġdis ass
er ce
Ġimp licit
ment ioned
Ġdif fer
Ġcomb ine
Ġd im
row ser
Ġsp ent
ĠS outh
Ġcontinu ed
Ġcook ie
ĠAd obe
Ġs ectors
Ġmagn itude
Ġoff ering
Ġro t
Ġ ),
Ġb rought
Ġknow ing
he tic
UN IA
ĠSEC UNIA
Ġder iv
Ġcell s
Ġ20 21
Ġser ial
Ġm id
Ġcontain er
ĠDes ign
Ġsto chastic
Ġsym metric
Ġm and
Ġcollabor ation
Ġeng ines
Ġlapt op
Ġtrans lation
Ġupd ating
Ġc ogn
Ġclass ical
ĠMulti ple
Ġd uration
ĠOn ly
ĠI ran
the less
wh ile
Ġdid n
Ġrespect ive
Ġgate way
Ġp us
ĠSu ccess
Ġcertain ly
Ġchoos ing
val ue
Ġbrok en
Ġprep ared
ĠE U
ul n
ate ver
Ġne ither
ĠG it
Ġhelp ful
Ġact s
i ke
H ER
Ġphot os
ifi able
Ġmanufacturer s
Ġpress ure
Ġc oding
Ġmin or
Ġstud ent
Ġexp on
L A
Ġden otes
Ġg ained
Ġdirect ed
Ġmat ches
Ġindepend ently
ĠIn put
Ġ3 1
ĠFollow ing
own load
Ġequ ation
Ġalloc ated
Ġapp arent
ĠAn aly
Ġhim self
Ġresol ve
ĠDe bian
gr ad
Ġpred ic
ĠAdv anced
Ġf ood
A X
imension al
Ġe aves
D D
stand ing
ĠSt uxnet
Ġwor se
z er
ĠMo zilla
re et
Ġse ven
ĠOrgan izations
t ype
Ġd oll
Ġacqu ired
is ition
Ġad s
Ġmon itored
U n
f rom
c ons
ur ally
ĠVulner able
b ar
f ire
ĠHTTP S
ĠDis c
G B
or ation
Ġass ert
mar ks
Ġro ugh
ĠT ra
Ġd up
pr ises
s upport
ĠCr itical
Ġfor ces
Ġintrud er
Ġcryptoc urrency
ĠN E
Ġp ure
icro soft
ĠH ost
e fficient
Ġout perform
te e
OL UTION
Ġdefin ing
Ġsecre ts
Ġinteract ive
e ffect
n ames
Ġreg istration
Ġkey board
iss ion
Ġobfusc ation
Ġhappen ed
ag ement
Ġreason ing
ĠC AN
Ġann ounce
O W
Ġcontrib utions
Ġres et
âĢĶ âĢĶ
Ġaccur ately
Ġview s
Ġim per
ĠR et
Ġe ye
po ch
Ġ< /
Ġwork flow
Ġad equ
angu age
Ġp hen
Ġem pty
ĠH ard
Ġswit ching
Ġanonym ity
Ġint elligent
Ġcur ve
Ġpix els
Ġgrad ients
Ġcircum st
Ġmon itors
ĠB ur
ĠIndust rial
c il
we ight
y es
Ġprov ed
Ġ( "
de ed
Ġt ech
Ġn ull
st er
Ġult imately
S hell
ĠC H
it ution
ro g
ab out
int elligence
Ġsens ing
i pl
Ġgu ard
Ġflex ible
Ġmanag ers
Ġv ast
Ġsh ape
g roup
Ġref l
ĠP awn
por ation
v ari
ĠImage Net
Ġbound ed
ĠFound ation
ĠE ther
Ġemerg ing
Ġforens ics
Ġnot es
il ies
du le
Ġex filtr
Ġintro duction
rypt ed
A I
Ġh osp
ĠIS O
ĠS iemens
Ġobser ving
Ġdetect s
S c
Ġconflic t
Ġselect ing
Ġ7 0
Ġdepend ency
ĠCons ider
Ġalle ged
ĠS an
ĠB leepingComputer
ĠJ apan
Ġengine er
Ġex ha
Ġview ed
sc ape
Ġmaterial s
Ġregular ly
ĠExam ples
ĠM ich
Ġprop ri
Ġprecise ly
Ġser ves
Ġdriv es
Ġcorre l
ĠS k
Ġdesign s
Ġmot ion
tr ained
ul us
Ġthrough put
Ġ200 4
ID S
ĠB re
Ġviol ation
AB IL
Ġsh adow
Ġmod es
Ġrepresent ative
Ġs andbox
Ġwork ers
Ġtrigg ers
ist ry
ĠT im
Ġsan it
Ġsim ulated
Ġm ere
Ġinfrastr uctures
ĠIn deed
> <
ner gy
EN D
Ġchar ge
X X
Ġocc urre
Ġdetect ors
ral ized
Ġinsight s
Ġphys ically
ĠS MS
Ġdev iation
Ġpar ad
Ġban ks
Ġident ities
art h
AR E
Ġmeet ing
T E
Ġfuzz ing
ĠStand ard
Ġd a
ĠA N
Ġhypot hesis
Ġpre ced
el ess
Ġw indows
Ġ1 000
w ar
lud e
Ġconc ent
Ġpayload s
ĠIt s
b ase
et ic
Ġloc ally
Ġm us
ĠM and
am ple
Ġar rest
ut ive
a per
Ġmodel ed
Ġisol ation
st e
Ġor acle
G u
Ġsub mit
ĠN umber
R I
Ġdeterm ines
Ġc e
ĠI MP
Ġun expected
Ġ12 8
Ġcar s
Ġsav ed
Ġcond itional
C ont
Ġattempt ing
Ġdirect ions
ĠD ifferent
od ay
irc raft
Ġd iversity
Ġbatter y
Ġtrend s
Ġman if
ĠOb ject
Ġdele g
in it
down load
Ġf i
Ġal arm
Ġcolum ns
a el
Ġw ish
Ġso ft
ig m
CR IP
ĠGovern ment
f are
ĠR AM
Ġinc ent
Ġret ail
Ġansw ers
ec k
k ernel
he dule
dom ain
Ġe poch
in f
ak ers
Ġbig gest
Ġbrow sing
Ġdele ted
Ġj ournal
in o
iz er
Ġdou b
Ġcorrect ness
ĠB Y
Ġpart ially
Ġpos itions
Ġillustr ates
ro k
ir th
or iented
Ġresult ed
M M
ĠG AN
ĠAss oci
Ġconsid ers
f d
s g
Ġnot ification
ell ing
Ġdemonstr ates
Ġfind s
ĠS IM
Ġstake holders
Ġmen u
b ird
AT E
Ġconsist ing
ĠPro v
Ġmark ed
Ġag ree
Ġread ers
Ġstraight forward
ĠC onsequ
ĠPro f
Ġspat ial
ĠL ist
ĠN S
Ġmod ifying
Ġ20 22
L e
Ġpass ing
+ ----------------
Ġacc ident
m at
Ġun us
ĠRF C
Ġgrant ed
ĠAdd itional
Ġobt aining
ĠV I
com m
http s
Ġphen omen
mod ule
Ġdep artment
ĠI R
ular ity
le vant
Ġch at
b lock
Ġconstant ly
ar ter
arch itect
Ġre feren
c gi
Ġfam ilies
s m
b ot
Ġrecogn ized
G AN
w orth
ĠLoc al
Ġexam ined
Ġsign ing
sy ch
Ġrapid ly
Ġrecip ient
Ġexpon ential
driv en
ĠU SA
Ġdisclos ed
Ġdef e
Ġunivers al
Ġf resh
Ġsh if
Ġcollect ing
Ġacqu ire
Ġdim ensions
ĠAv ailable
ĠRes Net
Ġins pect
Ġpers istent
Ġforward ing
ST M
ĠN ever
Ġfocus ing
Ġsoc iety
ĠO ption
ĠID s
Ġhead ers
Ġover come
aa S
: \
ĠE st
Ġtun nel
Ġgreat ly
Ġaccept able
i pt
ĠDefin ition
ĠS un
h ark
Ġpub lis
Ġn uclear
Ġvari ation
ĠP IN
ro ok
k i
Ġdr ug
Ġre bo
ĠAg ain
H ub
ĠP M
i us
ocum ent
ĠV ER
Ġpropri etary
Ġcomb inations
Ġthread s
A r
ĠTre nd
How ever
ĠD an
a pping
Ġlett ers
ĠS ee
Ġreal ized
Ġdece ption
ĠSc ript
ĠR ef
ĠM ean
conn ected
ABIL ITY
Ġnot iced
Ġimmed iate
Ġre act
Ġso le
Ġdispl ays
ĠPer form
Ġbrief ly
Ġcitiz ens
Ġimpro ves
ĠM ag
it ten
Ġsus pect
ĠH ome
Ġanomal ies
un ct
L AN
Ġn ar
Ġexperi enced
== =
Ġtit le
onym ous
Ġhij ack
ĠC ross
Ġsymb ol
Ġschedul ing
book s
Ġ3 5
Ġvari ations
Ġw omen
Ġdest r
n etwork
Ġread s
ĠF unction
Ġindust ries
Ġsecond ary
Ġg lob
ĠS pect
CRIP TION
ple ments
ĠN T
Ġarg ue
ec omm
Ġp ow
Ġcamer as
ĠL em
ĠM P
Ġa head
Ġhe ter
or ter
Ġent ered
ĠTh ings
re es
ires hark
b d
Ġsee ing
Ġenvironment al
b al
Ġwill ing
Ġstor ing
com mon
Ġhand sh
ĠJ ournal
Ġsim ulations
per vised
Ġexpl ains
Ġreal ize
qu e
Ġassum es
Ġtell s
W h
as er
Ġload ing
Ġdeterm inistic
Ġsens itivity
Ġc ash
ĠAg ency
lic ate
ĠSY N
ĠWith out
Ġtransfer red
ĠV al
Ġlead er
p read
il ing
ĠIn vest
ĠK now
ĠC ON
Ġelimin ate
ĠSt ore
ar se
Ġsub mitted
ak er
Ġcho ices
Ġaddress ing
ĠMon itor
ĠP atch
Ġlimit ation
u ous
Ġbl ind
Ġfac ility
Ġposs ess
Ġf ashion
Ġign ore
Ġa ircraft
Ġemerg ency
Ġcontrol ling
F ile
r ad
Ġ9 5
K ey
Ġim plements
Ġev asion
Ġun n
Ġindic ators
ĠDES CRIPTION
Ġvari ance
com es
Ġn ight
att le
im ent
d imensional
Ġapprox imate
Ġincre ment
D E
ir ms
or age
ĠR un
ĠL ine
ĠE nd
Ġa pt
a ware
Ġpresent ation
Ġfair ly
Ġma pped
Ġequilibri um
ides pread
25 6
ĠConsequ ently
Ġdownload ing
ĠAm ong
Ġmaxim ize
Ġhighlight ed
Ġheav ily
Ġinter ference
ĠW r
Ġsteal ing
ple x
oun cil
Ġr ace
ĠL ow
ĠEx change
Ġmet a
um ing
_ {
Ġa part
ĠB i
Ġsc hedule
Ġseem ed
i pp
Ġgather ing
ĠRe lease
ĠID A
re w
Ġbeg ins
F C
Ġexecut ive
Ġwa iting
B R
ĠPres ident
Ġcomp l
ĠSe arch
Ġcontrib ution
ĠDet ails
I E
Ġtalk ing
Ġconsequ ence
ĠCont ent
Ġart ifact
omet imes
Ġec osystem
Ġcan c
Ġhand ler
Ġassign ment
A tt
ro ot
IP S
Ġintro ducing
f ill
ĠF P
Ġre in
Ġfor ced
Ġreven ue
or ough
ĠB en
Ġenter prises
ĠK ing
h ole
ĠI M
ent y
Ġa fore
Ġcr itic
Ġreve als
Ġauthentic ate
ĠInst all
Ġattempt ed
Ġfrag ment
Ġdirect ories
ĠL ib
ĠVM ware
Ġfund s
ĠW ill
net ic
AAAA AAAA
Ġtempl ate
Ġimp lications
ĠI OS
ĠAdd ress
Ġthan k
en ame
ĠA RP
Ġev ade
Ġeth ical
Ġopp os
Ġstructure d
ĠE vent
Ġ -
Ġinstrum ent
anc hes
ist ence
ogene ous
Ġinsp ection
Ġm ob
Ġround s
Ġres id
ĠAr t
Ġb ul
l ined
Ġsubs ystem
ĠE ve
Ġspec ifies
Ġcybercr ime
ynam ic
Ġst ress
Ġclo ser
ĠC opy
ĠS OLUTION
Ġsus ceptible
ĠRe al
Ġma x
Ġlever aging
ĠB ig
Ġrecon naissance
f a
ĠDen ial
Ġneighb ors
ĠGerm any
is hes
Ġsur round
Ġabstr action
Ġbelie ved
ri ver
ough t
Ġcircumst ances
al ert
al og
ĠM ax
d ec
Ġvirus es
em ail
Ġdescrib ing
Ġcompat ible
Ġpro hib
ĠTr aining
i ations
Ġl ives
Ġcomb ining
force ment
rastr ucture
Ġhand les
G G
ut or
Ġconf ig
Ġst uff
Ġw idespread
ric es
ĠIntr usion
Ġcapt ures
power pc
Ġbook s
ĠDom ain
red ict
Ġaggreg ation
200 7
ĠE nt
Ġsusp ected
Ġsufficient ly
Ġform ally
Ġsub red
R es
Ġtempor ary
Ġexha ust
Ġcon j
Ġrepl acement
Ġdi agn
em por
li ers
ĠG lobal
W indows
Ġabs ence
p erson
Ġspoof ed
Ġke yst
Ġtele phone
Ġt amper
D C
ĠN AT
Ġaffect ing
ĠS VM
Ġsat ell
Ġflex ibility
Ġrepresent ations
Ġsatisf ies
J DK
D ata
ĠN OT
ĠApp ro
Ġafore mentioned
Ġmix ed
Ġsu ite
ĠCom par
s ize
Ġuns u
ri er
Ġsafe gu
K S
st ood
Ġc ivil
ĠSD N
Ġden oted
ĠA f
ir able
Ġdig it
Ġspecial ized
Ġenh anced
Ġwh atever
ĠS I
ĠES X
S o
ak ed
at hered
loc ation
ĠCom mission
v uln
Ġdebug ger
Ġcyc les
ĠGr aph
cor porate
Ġmeas uring
Ġadministr ation
W OR
g ment
Ġachie ving
r ase
Ġassum ing
Ġmeaning ful
Ġal ign
Ġpoint ed
Ġde ath
ĠB ulletin
Ġco vers
form ed
Ġexplo red
Ġesp ionage
Ġint ers
o om
Ġsearc hes
A E
Ġsatisf ied
Ġinf inite
Ġvis ibility
Ġsn iff
Ġfl ight
Ġtur ns
Ġwar rant
A b
Ġcomple ment
ĠUn ix
Ġele v
Ġmark ets
Ġleak s
ĠUn ion
ĠM E
Ġexploit able
ĠMem ory
Ġbr anches
ĠSIG N
ĠNe ural
Ġlab or
O ne
ĠIC MP
g a
ĠP oint
Ġf ight
a fter
Ġf irms
Ġsign s
Ġdel ays
Ġintegr ate
Ġdownload s
Ġl inux
ĠF ind
Ġcompet ition
Ġcyber attacks
ĠNew s
Ġv ot
ak s
Ġvers us
Ġ ).
Ġw ire
ĠE there
os h
Ġc atch
Ġoper ates
ĠTh ose
add ing
or ms
Ġjob s
Ġocc up
Ġp and
U LL
Ġstealth y
Ġcirc uits
ĠDav id
Ġsymb ols
ĠAR M
Ġcogn itive
Ġacqu isition
Ġsub t
Ġacad emic
Ġexplan ation
ĠApp lications
Ġm or
B P
Ġtra ject
Ġsp aces
Ġjo in
Ġdial og
Ġcandid ates
ĠC I
) -
ĠB ar
Ġsol ved
out put
ĠCO VID
T A
lic ity
ab ase
Ġpoint ers
w n
onom y
Ġcap ital
Ġperce ived
Ġm ys
all s
DP R
Ġimpact ed
as hes
sh ot
Ġaim ed
c ol
Ġent ering
Ġconduct ing
ĠSG X
o ffice
Ġcons ent
Ġfl ash
Ġm es
B y
N s
w s
Ġneur ons
Ġcomp ression
ĠN orm
Ġr ig
Ġsh o
ag s
fact or
#### ####
Ġnumer ical
Ġf elt
vir t
h am
Ġunlike ly
C on
ĠL AN
Ġtransfer ability
Ġsecure ly
Ġsim ulate
Ġtest bed
Ġth orough
Ġsc ams
ĠA ud
Ġbehavior al
s yn
ĠGN U
ro ad
Ġsock et
Ġg athered
Ġw ave
ĠP S
Ġse x
Ġoptim ize
Ġiter ative
ĠLem ma
AC T
Ġfrequ ent
Ġpr ime
IC AL
ĠE mp
ĠDirect ory
Ġrough ly
Ġdest roy
Ġreferen ced
ĠD P
b ut
ĠBu ild
Ġv oting
Ġpat ients
ĠC our
Ġinterpret ation
th at
ĠM ail
Ġpl ain
bers pace
ĠB ank
re nt
ĠD ISC
Ġplan e
ĠEthere um
ĠGo od
ĠL aw
il ot
om an
ĠO P
cr itical
Ġ ========
m em
Ġdefend ers
Ġle aves
ut s
e per
Ġt rojan
ell ect
Ġresil ient
Ġutil izing
ĠL ayer
Ġleg is
ĠK n
H e
Ġorgan is
ĠPe ople
ock et
ĠStrateg ies
Ġanalys es
ĠSc ore
Ġinf o
h ow
ent er
n ew
ĠO pt
Ġscient ific
Ġpip eline
Ġs ale
Ġcare er
L U
Ġprom ising
Ġm im
ĠPriv ate
Ġeaves dro
ĠHack er
g s
Ġcontrib ute
conf ig
b c
ĠPro of
Ġph p
Ġopp osed
ĠJ S
Ġconc urrent
âĶģâĶģ âĶģâĶģ
Ġconsist ency
ĠX OR
oc r
Ġ3 3
Ġexpress ions
Ġloc ate
ĠDevelop ment
Ġan tic
ĠD ownload
Ġa id
Ġs ecuring
L Y
Ġtransform ations
Ġlock ed
ole an
c ve
do or
Ġenc ount
ĠWh ite
Ġscan ner
Ġcon sole
Ġbound aries
Ġre lying
c hers
ens ors
ĠOn line
ĠComput ing
Ġsmart phones
Ġs ust
Ġmaint ains
Ġsem i
ĠU I
Ġisol ated
id ers
Ġreview ed
Ġfreed om
Ġland scape
Ġsent ence
Ġsynt hetic
Ġdecre ases
ĠGit Hub
Ġe ase
Ġam b
Ġbelong ing
ble m
ĠC ong
ĠH ar
Ġmotiv ation
b l
air s
Ġseg ments
Ġsn ap
ĠIm plement
Ġconver gence
Ġsubsequ ently
Ġident ifiers
Ġcr aw
Ġphot o
Ġp in
ĠPass word
al ent
ant ed
Ġsur v
Ġarch ive
Ġmotiv ated
ĠL ook
Ġescal ation
Ġhor iz
ĠL a
ĠNever theless
ul ent
c ap
wr itten
d k
Ġf ig
ĠOper ating
Ġformat s
Ġsecre cy
Ġd ensity
ĠC F
Ġoptim ized
Ġpar sing
Ġconvolution al
ĠE nergy
' ll
ĠBrit ish
Ġun lock
Ġmo ves
ĠD L
Ġhandsh ake
Ġ ip
Ġsubst itute
ĠC a
ĠEX P
ph a
s arge
kr ain
Ġout comes
w ell
ĠCan ada
Ġspec ies
sh op
ĠOpen JDK
Ġass urance
Ġus ual
ĠCre ate
Ġun w
Ġstream s
Ġst ick
Ġinform ed
t echn
S ecurity
Ġdep art
Ġbreak point
N ER
f unction
Ġ4 5
sec ure
Ġhelp ed
IN D
ĠOpen SSL
BS D
Ġaud ience
d at
ĠInd ia
Ġrang es
Ġelect rical
Ġth row
Ġ ing
Ġsol id
em y
Ġser ved
Ġp sych
lo ys
Ġcare ful
or a
ĠRed dit
ĠP i
Ġsepar ately
Ġ80 2
Ġfault s
Ġrec ording
ĠS R
Ġs enior
ect ing
Ġst ories
Ġexp ose
ĠH ist
Ġsynchron ization
product s
Ġb und
Ġapproxim ation
Ġcommunic ating
Ġm ouse
Ġus ability
3 00
Ġpat ching
d ependent
Ġsome what
b f
ĠT el
ĠGerm an
ĠF OR
ashing ton
Ġbr ain
Ġkeep s
Ġ ================================
ip hers
cl ient
Ġc row
Ġwr ites
Ġflag s
ĠP erson
d c
Ġd ual
- >
Ġmod er
Ġtwe ets
Ġpopular ity
Ġpay ing
ĠArch itect
Ġtra vers
Ġmess aging
ĠDNN s
Ġin ner
ab y
rol l
los ure
ind s
Ġplay ing
ĠDes ktop
ĠS il
Ġvalid ity
ĠAl tern
Ġequ ipped
Ġhyper visor
ĠC ap
Ġrespond ents
Ġconc lusion
A F
Ġra ise
al es
Ġs yn
f ield
Ġinterv als
ĠPower Shell
ĠTh ough
Ġinnov ation
Ġdoll ars
g n
Ġse ason
Ġnew er
Ġleg acy
ar a
ĠW ik
P h
en ger
Ġres er
T ube
Ġsegment ation
A IL
Ġdi agram
an ks
Ġguarant eed
Ġany where
ĠAd visories
ĠRes ults
Ġbi ometric
ĠAC M
Ġan ten
Ġper man
lab el
Ġpay ments
ĠU krain
Ġviol ations
Ġantic ip
t a
c her
Ġhe art
Ġinc ons
ĠC hen
Ġofficial s
ĠC ity
al ty
Ġbot nets
ĠH uman
Ġscal ability
ĠAff ected
ellect ual
Ġcon ce
uitive ly
Ġkey words
Ġad vice
ĠC ase
4 01
est ed
Ġrandom ized
Ġc aught
Ġregul atory
Ġsubstant ial
Ġpl us
Ġp ose
Ġv ital
um es
Ġour s
Ġpre par
t hen
Ġsecure d
ĠRe view
Ġg reen
ĠBayes ian
ĠD H
Ġun c
Ġthe r
M an
Ġord ers
Ġconvers ation
ĠW ashington
ĠW ireshark
Ġque ue
Ġtyp ing
Ġlist ing
L og
en abled
enc rypted
Ġinitial ization
am d
ĠChr ist
Ġend s
ĠT oday
Ġcl ar
Comm erce
00 1
Ġmus ic
Ġt ack
Ġp ull
O s
Ġe yes
C A
est s
ĠOption al
Ġcent ers
ĠP rior
ĠA M
Ġform ed
s ys
Ġequ ations
ĠRe ference
Ġ !
Ġdisc lose
Ġbre aking
Ġdefend ing
Ġheav y
ĠH aving
Ġsurpr ising
Ġunder stood
Ġlo se
Ġre aches
in der
ĠMark ov
Ġch ose
ĠD B
e ffic
Ġrepl acing
Ġcon vert
Ġincor porate
Ġcontext s
Ġdebug ging
Ġupload ed
Ġdecent ralized
em pl
ĠC AP
ĠAn g
x ml
ĠYou Tube
Ġper mit
ĠSub scribe
Ġadv ise
Ġremov al
Ġsim ulator
l ists
Ġun int
ri an
ad min
Ġmere ly
ĠEv alu
ĠL abor
C s
Ġp pc
Ġpart ner
ĠDe vice
Ġperiod s
hem ical
is a
Ġco in
Ġtw ice
ĠDepend ing
Ġassist ance
for d
Ġund et
U ND
Ġhistor ical
' )
Ġ8 00
Ġch ains
V PN
ĠV e
Ġyou ng
Ġrep ly
Ġow ned
Ġhelp ing
p k
prot ected
Ġweb page
ro b
Ġrel ax
ĠE N
ĠS oph
AG E
Ġcorrupt ed
ĠRes ear
Ġra ised
Ġg aining
dis c
Ġrest ore
ĠR O
il s
Ġestab lishing
as hed
Ġconnect s
ech o
Ġprogram mer
Ġtreat ment
ĠEther net
ĠS wit
ĠPa per
op ens
ĠInf rastructure
ĠAcc ount
Ġ //
Ġcomprom ising
ed u
Ġjam ming
Ġ3 6
ĠEnc ryption
S D
Ġv irt
Ġper mitted
Ġsimp licity
ĠR ad
Ġpro min
Ġforum s
ess us
Ġresist ance
Ġpertur bed
Ġparticip ate
Ġun p
Ġtre ated
s um
Ġcomputation ally
re m
Ġfor th
ĠN one
ic ial
priv ile
Ġdem ands
r ated
effect ive
D ef
pec ified
et ing
ĠPC I
Ġob lig
Ġpass es
ĠW ireless
Ġpro x
ĠM ir
ĠP ub
Ġoffic er
ĠDistrib ution
p ublic
Ġcour ses
Ġendpoint s
ĠSol ar
Ġprotect ions
B Z
pre ter
ĠT ur
i as
Ġdist urb
lo od
Ġtrans itions
Ġcontact s
Ġr ing
Y ou
Ġlow est
is y
Ġeconom y
Ġs ke
Ã ©
Ġh iding
iz able
ĠC oll
Ġprof it
a o
r is
Ġh ab
Ġ7 5
Ġisol ate
Ġenc ounter
ĠStat us
Ġdirect or
s im
ĠL ock
com ing
ĠComp any
M AC
ĠCustom ers
lack ware
Ġexc ell
Ġpub lish
Ġ9 8
ith met
Ġab normal
' .
Ġsp ear
j s
Ġdrop s
ĠSum mary
ĠB I
ar ms
Ġ( @
Ġaggreg ate
Ġsimpl er
ĠFire wall
Ġattach ments
Ġincorrect ly
ĠTe le
erm ark
Ġupgr ades
ĠSec ret
Ġw al
ĠSpect re
Ġem ot
Ġquant itative
Ġhij acking
et ime
Ġr ational
Ġinv ent
Ġlim iting
ĠMich ael
roj ans
Ġlear ns
Ġlic ens
v ention
d i
Ġutil ities
ĠMed ia
ĠTest ing
ĠRec all
Ġ3 4
ig en
RP MS
Ġrang ing
UL NER
Ġdefin ite
The se
Ġen j
Ġ Ġ
U ST
Ġlist ening
Ġwork load
Ġcop ied
br a
n v
Ġparticip ant
Ġpe ers
c oded
Ġun f
am ent
ĠJ o
Ġinsert ed
Ġare n
Ġscen e
g res
Ġre use
de pth
Ġfraud ulent
Ġdesign ers
ansom ware
ĠMess age
Ġmay be
Ġhierarch y
Ġinit iate
ecomm un
Ġcomput es
Ġins u
s he
Ġb ounty
Ġver t
ĠEx c
Ġconc l
ĠD em
m ode
Ġan gle
P T
ĠTo ol
vious ly
I nt
Ġv ote
ĠIm port
ĠD on
ullet ins
az ine
im eter
ĠEqu ation
Ġpro active
Ġflo od
Ġc iphers
Ġplug in
Ġunn ecess
ĠH el
10 5
ĠAttack ers
Ġroot kit
Ġstruct ural
ist ingu
Ġinterpre ted
o ols
u ine
Ġtri al
ĠAn onymous
ĠKore a
ĠDirect or
ĠSc an
ĠJ B
a id
le ts
ĠA z
Ġexist ed
Ġconstr ained
ĠK er
Ġt ight
Ġrow s
ĠM ad
e a
Ġprov ision
Ġrandom ization
Ġpan el
Ġdistrib ute
R ep
Ġwork around
AR T
tr aining
Ġ4 8
Ġ25 6
Ġgadget s
un ting
ĠS ometimes
ĠU P
Ġ200 1
ĠStand ards
ĠN ode
orph ic
---- ---
ĠHy per
v ar
under bird
ah oo
g en
ĠS V
Ġdeg rees
A u
Ġgraph ical
W hen
Ġneg ot
Ab out
st able
Ġhe x
Ġnon linear
Ġcert ified
Gu ard
Ġar ise
sc ript
p et
ĠE M
Ġe vic
ĠL anguage
y cle
G S
Ġtechn ological
ĠS oci
ĠUN IX
ĠV ULNER
Ġconst it
ig er
/ --------------------------------------------------------------------
Ġcoll ision
Ġm as
Ġunus ual
4 00
Ġaccompl ish
Ġrandom ness
Ġconcer ning
ft en
Ġrepe at
Ġsell ing
b us
Ġfunctional ities
b g
ĠM itig
Ġexperi ences
Ġsqu are
oun der
Ġvis ited
ithmet ic
Ġv an
Ġfound ation
ĠG DPR
ĠV end
on ic
ĠInt erest
ist ance
Ġf em
Ġcomp ens
B e
ag on
Ġsimilar ly
Ġar m
ĠD ark
ĠG en
ĠSu per
Ġadj ac
ĠH acking
Ġrare ly
loc al
ĠPh ysical
Ġverify ing
Ġext ens
df sg
ĠGr ad
Ġvisual ization
T LS
Ġâ Ī
Ġdr am
ĠDe v
Ġneg lig
Ġuns pecified
10 4
enc ing
ot t
ĠB el
Ġdis ruption
h ouse
Ġscient ists
Ġl ies
Ġann ual
ĠPart y
T ime
Ġbas ically
ĠAut o
Ġinsu fficient
un ing
Ġprob e
Ġput ting
Ġscan ners
Ġaccording ly
o ad
ĠL ight
Ġrec ru
ĠD i
Ġplay ed
Ġgr an
el and
ĠC all
F inal
ĠTr ue
U RL
N G
ĠP OST
L ab
Ġmis le
Ġreconstruct ion
rook s
ĠV II
Ġlat ent
ĠG ET
ne g
Ġcomput ations
an alysis
Ġwh om
Ġw it
ex ec
Ġplan ned
r andom
Ġdescript ions
ĠL im
Ġcore s
I d
z ero
ĠM or
uct ive
l t
kn ow
Ġa p
ĠS AP
art ic
Ġinc ur
Ġspe aking
ĠL STM
Ġsu ffer
ok en
ĠC red
by te
Ġsepar ation
Ġcapt uring
C L
Ġnat urally
Ġyield s
Ġcompar able
Ġprep are
Ġconsider able
Ġcalc ulation
IF Y
ser v
Ġob st
Ġp le
A dd
Ġsynt hes
ĠTo ols
Ġconven ient
Ġsuper vised
Ġcooper ation
Ġreach ing
Ġtransf ers
Ġper ception
Ġdisc ard
ĠTra ffic
Ġr ich
Ġg aps
ĠAC K
m es
ic ing
Ġpredict ive
ber t
ili ary
Ġdisc onn
p ers
Ġdriv en
Ġ200 2
ĠSuccess ful
s ign
P oint
Ġlever aged
ĠD S
ĠK ernel
N ame
Ġspy ware
Ġmut ual
Ġcy berspace
F low
Ġprefer red
ĠAf ric
wr iting
Ġparad igm
Ġrec overed
Ġthan ks
ĠN map
Ġ3 00
Ġinvestig ations
Ġ19 90
Ġpreser ve
Ġpro s
m aking
ar ious
Ġdiss em
Ġhierarch ical
Ġtransport ation
Ġadapt ed
ĠV iew
le ft
p an
R T
Ġmat rices
Ġper m
k ing
Ġcon gest
Ġpro ducing
ux iliary
ĠAustral ia
Ġlaun ching
Ġperiod ically
Ġcompat ibility
Ġbuild s
se en
ĠF il
D M
Ġsubsc ription
Ġs ink
Ġmet er
Ġorgan isation
ĠâĢ ¦
re l
Ġde eper
Ġoccurre nce
Ġtr uly
Ġv ice
w in
Ġdr one
Ġbelong s
c lick
ĠStack Commerce
Ġcharacter istic
ag ue
Ġfund ing
ĠT imes
C N
Ġk it
u ition
Ġdiscuss ions
itor ies
an a
Ġgraph ics
Ġb irth
Ġex cess
P ress
Ġtr ap
Ġresid ual
Ġbr ings
Ġf aces
Ġfact s
Ġgen uine
ĠM ake
Ġfore cast
ĠLe g
ĠC ost
gr ained
ost ic
Ġrank ing
Ġagre ed
AN D
Ġrepeated ly
ĠSpec ial
Ġeng age
Ġrel ays
Ġover write
Ġcomp ile
Ġopin ion
Ġsystem atic
ĠR C
m iddle
ĠM TD
i ences
Ġexp ans
Ġcr acking
us r
u lo
Ġbelie f
Ġsole ly
ĠT L
Ġinvestig ating
ii i
h ard
ĠI ss
The y
F L
Ġcur ves
Ġassess ments
Ġkey word
ĠR S
Ġstrict ly
Ġpoison ed
ĠL ater
ĠCommun ication
ĠDefin itions
Ġhe ight
Ġsubred dit
Ġat omic
Ġnot ifications
Ġtransp arent
Ġnavig ation
Ġc um
vir us
Ġnar row
( ),
il ed
ĠF IG
aa aa
Ġfrequ encies
il tr
ĠCor poration
I B
ĠH u
Ġful fill
Ġmob ility
Ġencour age
ail ed
Ġcollabor ative
Ġc aches
Ġuser names
Ġfin ished
Ġattach ment
bu ild
ut able
ĠT erm
ant ic
Ġinject ing
Ġpropos al
Ġl iving
ĠN at
Ġhappen ing
ĠD ynamic
ĠExec ution
Ġfac ing
es e
Ġfingerprint ing
Ġdist ances
ĠPerform ance
ĠSoph os
Ġcall er
ons ored
Ġre ject
d em
ĠR L
ĠF ort
Ġopt ical
ĠBl ue
ĠCrypt o
Ġdepict ed
Ġ 01
Ġre nd
Ġsam pled
ĠAdmin istr
eng ine
iqu es
Ġc ities
ĠFor ce
Ġinf iltr
ĠIN F
Ġinc lusion
Ġch art
Ġconsist ently
Ġint ellectual
( "
a it
ĠProcess ing
I oT
as ure
ĠVULNER ABILITY
Ġg arb
ell ed
Ġnot ation
ĠSp ace
ess or
Ġoper ated
C D
ĠD ay
lear ning
. âĢĿ
ĠOver all
Ġa ver
Ġlist en
Ġmalicious ly
ĠN ULL
Ġg ang
Ġequival ence
AS E
ic a
Ġag gress
co ver
Ġg ains
Ġ6 5
Ġ( )
fire fox
Ġtrust worth
Ġ echo
em p
Ġp adding
ĠC lick
ĠD iff
Ġmov ie
Ġprim itives
Ġbench marks
Ġflo oding
le an
Ġdraw n
ĠW ell
Ġgeneral ization
d irect
I m
U B
Ġcountermeas ure
Cr itical
Ġconstruct s
ĠCopy right
Ġ4 2
T able
Ġlo ve
v m
ĠCom mit
IT LE
al low
IS A
g l
ĠWith in
ĠAss ess
tr a
at en
Ġqu ad
n b
val id
Ġsto pped
ac on
Ġout s
Ġindic ator
I s
Ġcon form
Ġreg ulation
Ġcharacter ize
ĠWork station
Ġpl ays
ĠAT M
Ġcircum vent
w art
Ġsp ending
j a
ub scribe
Ġpand emic
Ġle ts
E A
P s
Ġst ations
Ser vice
ĠAV AIL
ĠGu ard
ĠO ffic
Ġp uzz
Ġtransform ed
t yp
Ġconcl usions
Ġc ast
Ġfac ial
Ġartifact s
Ġbrid ge
ch ar
Ġdeli ber
Ġcorre lated
ĠAg ent
P ass
Ġde let
Ġmet ers
Ġdecrypt ed
Ġmed ian
sub scribe
Ġfol d
Ġcoord ination
Ġord ered
ĠAnt i
. --------------------------------------------------------------------
d ate
Ġconj unction
Ġutil izes
Ġcompet itive
ĠT H
Ġoccur ring
Ġ3 7
ĠSM B
Ġrec ur
Ġne ut
Ġprom ote
viron ment
st orms
F rom
mod ules
Ġdig its
Ġpres ident
Ġn ice
ĠJ e
inter ference
Ġfe ar
ur acy
ĠB ot
ron ics
p res
Ġn om
Ġbig ger
ĠTyp ically
ĠN essus
em s
ĠDat abase
Ġsepar ated
T ech
k a
M icrosoft
Ġequ ally
U ns
B ox
ĠCong ress
ot ic
Ġdiscuss es
ri end
Q u
in i
200 6
mo zilla
' re
Ġexcell ent
Ġadequ ate
Ġcommit ment
ĠAVAIL ABLE
Ġar ithmetic
c al
ĠH om
Ġbu ck
Ġdifferent ly
w d
Ġavoid ing
ĠBur p
Ġoption al
control led
Ġbo ost
) )
ĠT om
We b
S ystem
Ġmac OS
Ġun av
Ġquant ify
istingu ish
ren ch
se arch
ĠE ar
t arget
Ġscal able
ĠL LC
Ġwat ermark
ĠL ic
Ġprim itive
ĠResear chers
ĠVER IFY
Ġautom ate
ĠTr ump
ĠR ight
ĠPro blem
ĠC ouncil
Ġc a
Ġanomal ous
ĠZ e
Ġm ir
ĠL ive
Ġform ulation
Ġvirtual ization
Ġt aint
h avi
Ġenfor ced
s ensitive
Ġcomb ines
Ġchoos es
th is
gres ql
ĠS at
Ġencrypt ing
Ġ Â
ĠF ast
Ġst ock
Ġt rivial
Ġh ub
Ġdec ade
< /
Ġd raft
Ġincom plete
ĠV irus
25 5
Ġh ur
Ġbu ff
lim inary
Ġoff ensive
al so
t ically
n es
Ġgeneral ized
ĠM ot
E ye
Ġheur istic
ĠMal icious
Ġhe ard
Ġexhib it
Ġmer ch
Ġhe at
ĠD u
Ġwor ry
he ther
I V
i h
mit re
Ġ ================
riv a
Ġpost ure
Ġcent r
Ġrestrict ion
ĠInit ial
ad vant
Ġdisc ipl
storms ecurity
ind ex
CP S
Ġmac ro
re f
ist ant
ge bra
u ate
ĠR ather
Ġgood s
Ġbroad er
Ġnot able
Ġwar fare
S tr
v i
Ġfour th
ĠB ra
Ġfac ed
Ġrout es
Ġmist akes
Ġgr ab
p ir
Ġpartners hip
un c
Ġg ates
packet stormsecurity
Ġcount s
Ġhone ypot
Ġpropos es
ith ub
Ġ4 1
Ġinsp ired
I CS
com put
Ġcharacter ized
Ġparent s
ĠAn n
requ ency
Ġobvious ly
C VSS
Ġemp loys
ĠArchitect ure
ĠH and
Ġactu ators
ĠD ate
Ġtick et
ĠR ich
Ġf ather
ĠG B
al one
Ġpurch ased
Ġconf usion
ĠInvest ig
Ġvalid ated
Att ack
Ġc asc
Ġsummar ized
Ġdam ages
ent est
Ġa uxiliary
IM E
Ġenj oy
Ġep is
mer ce
ail ability
ĠT O
Ġweap ons
Ġco ol
IC E
Ġun iversity
ĠNot es
Ġencount ered
K I
hent icated
ĠTechn ologies
Ġphenomen on
Ġrespons ibilities
v ol
Ġexpand ed
ĠB oot
p ur
Ġper t
Ġn ine
Ġout lined
IN AL
ĠVM s
ĠR est
e books
Ġrem ark
Ġgener ative
Ġ5 6
Ġaud iting
Ġclass ic
Ġbeh alf
EG IN
i ary
Ġactiv ated
Ġign ored
Ġdo ct
paramet ers
Ġan im
Ġschedul ed
r ich
Ġbit coin
Ġact ing
Ġdo z
is p
ĠV ari
Ġexcept ions
ĠIn jection
ĠEd ge
ĠCour t
C K
Ġmanip ulated
Ġappro ved
Ġpur s
ĠKing dom
Ġimportant ly
r ict
RO M
Ġper cept
Ġunnecess ary
G o
r s
Ġacc ord
T ype
ĠH ouse
ies t
Ġleaders hip
ĠF alse
Ġr h
Ġdis app
Ġelectric ity
lib c
ust ration
Ġsatell ite
Ġp ain
Ġint uition
Ġda emon
Ġd ut
Ġch ief
Ġad vised
Ġprotect s
ĠP ract
Ġvert ex
ĠFr anc
on ents
ĠY es
ĠiP ad
n on
Ġstart up
ess age
ond on
AN ET
Ġorganis ations
ro om
tic es
Ġdis e
ĠTrans port
p osed
it ud
Ġprint ed
ĠSM TP
Ġcommit ted
Ġcost ly
US E
Ġa ward
are st
omm od
Ġmitig ations
Ġexecut ives
12 9
Ġfil ename
B EGIN
ap es
Ġmethod ologies
Ġtax onomy
Ġmin ers
R A
ynchron ous
cid ent
Ġminim izing
c rib
b an
Ġevery body
as ive
Ġas ks
ĠA B
ĠS OC
ĠReg ard
qu er
B ased
k its
d ig
are ncy
ĠNE VER
Ġannounce ment
Ġst ead
Ġcons ec
Ġprogram mers
b all
Ġvar ies
Ġcons erv
Ġpict ures
Ġtrack ed
Ġwit ness
ĠCPU s
Ġsurround ing
Ġlever ages
ĠC N
Ġback ward
Ġno arch
Ġneighbor hood
ĠFr ance
ur ity
Ġcyber attack
ĠP y
Ġevol ving
Ġfiles ystem
Ġre wards
lim ited
Ġfingerprint s
ĠSt orage
fr ame
c ious
er ving
Ġspec ifying
R S
Ġtime ly
Ġno isy
in et
Ġpre defined
ĠUp on
Ġbox es
Ġp ump
Ġed it
ac les
Ġ icon
W ARE
Ġexpans ion
ĠM B
Ġauthentic ity
Ġext ends
un subscribe
ri ber
Ġcounter part
ĠY et
Q U
ĠG ate
ur ch
1 10
Ġg one
Ġacc ommod
Ġeng agement
ĠE ffect
Ġkey log
Ġbackdo ors
Ġiniti ated
M B
Ġf ed
Ġnot ing
Uns ubscribe
Ġch ances
Ġpreced ing
Critical ity
H N
Ġhighlight s
ĠComp ared
Ġcr imes
Ġr ated
IT E
ĠO W
if er
12 8
Ġweight ed
privile ged
ĠV ector
Ġdec ades
Ġatt est
Ġhold ing
Ġocc asion
Ġdist ortion
z ip
ĠR out
Ġmod ular
Ġarr ang
Ġexpl oration
Ġpromin ent
Ġh ole
es tern
O b
p ython
Ġhe ar
Ġmultip lication
ĠB ell
Ġstand s
id ering
Ġextract ing
Ġgu ys
Ġcarry ing
Ġon t
Ġf ab
Ġconsider ations
us es
ĠLab s
Ġobfusc ated
nv d
ri p
Ġexam ining
Ġcomp ares
Ġfe e
Ġview ing
out s
ĠS hell
ĠRec ently
pl ain
Ġdefe at
Ġdiff ers
mod el
Ġtrack s
Ġsafe ly
Ġ3 8
Ġtr acing
Ġsummar ize
lib s
Ġuns afe
ĠUAV s
Ġconver ted
ĠY ahoo
Ġseek ing
Ġj ail
ĠPh ishing
in formation
Ġa w
Ġbenef icial
c isa
C O
Ġtur ning
dd en
Ġoutperform s
ad o
j dk
to ols
Ġincorpor ated
Ġfig ures
Ġowners hip
ist a
Ġel abor
exp loit
Ġcomb at
ĠIdent ity
Ġload er
? "
Ġmin ute
i ance
a ur
ĠP ath
l or
Ġpro l
Ġcoordin ated
Ġcontinu ity
ĠN CC
19 2
Ġl aser
ĠC FI
ip edia
ĠI E
Ġterm ination
Ġsynt hesis
, âĢĿ
ĠC M
Ġemer ged
Ġperfect ly
Ġprox ies
Ġdefinite ly
ĠAltern atively
ĠIs ra
ĠAssoci ation
Ġa ffor
Ġcollect s
ĠF iles
Ġheter ogeneous
ul a
L ib
ro vers
Ġfeas ibility
st age
ĠCR IT
Ġsu dden
Ġcategor ized
Ġacc um
b ps
is ons
ĠKe ep
Ġrob ots
Ġmin er
Ġpre ferences
Ġglob ally
p us
ĠD el
ĠOr ig
ĠQ ual
ĠTrans fer
Ġprevent ed
o on
Ġcover ing
ĠAz ure
b oss
Ġrequest ing
Ġinf ections
T ITLE
Ġ4 3
ĠN N
ĠH E
Ġresol ved
Ġtele vision
Ġfor get
Ġcor por
re ate
Ġrefl ected
r t
ĠL ondon
nc ies
syn gress
Ġo vers
ĠA MD
ond s
as y
Ġnormal ized
ĠT CB
P ack
Ġdec oy
the ore
Ġo dd
Ġprob ing
l ands
iver se
ĠWill i
u ple
ĠSn ort
Ġgener ators
ĠSoci ety
ect s
lo tt
re levant
ĠR eli
Ġutil ization
ĠS ing
F GSM
in ated
Ġp un
Ġqu arter
Ġcent ury
Ġformul as
S RPMS
Ġpredic ate
Ġdis advant
ĠO l
ĠB at
ĠIndust ry
ĠCRIT ICAL
ĠR oot
Ġretrie ved
Ġha z
ĠCert ific
Ġconvers ations
Ġadv oc
Ġexchang ed
th rough
Ġsimpl ified
Ġ4 4
p g
IT H
Ġdecl ared
ĠMy SQL
T est
ĠR AT
Ġcr ashes
urre ncies
L inux
ĠS pr
Ġappear ance
ph ishing
ĠC SS
Ġtempl ates
ian ces
Ġsu it
pd f
Ġimag ine
Ġpre liminary
lic ks
Ġover w
ĠF low
Ġc urrency
ĠE th
Ġind istinguish
Ġpus hed
Ġdes k
ĠUn it
ĠC lear
Ġpers istence
Ġrecogn izing
ĠM art
Ġdraw back
ĠC ond
T M
ĠF rench
ĠHard ware
off s
V iew
Ġrep lic
ri ed
Ġdes irable
Ġevol ved
Ġden y
Ser ver
ĠDN A
Ġ19 99
ĠLabor atory
I O
Ġre active
M od
ac ies
Ġb attle
Ġlo ts
Ġpub lishing
j pp
ĠMean while
Ġconve x
Ġper imeter
ĠP an
ĠE V
ger y
[ .
ĠR ansomware
Ġinstit ution
Ġw ider
Ġ1 50
I Z
Ġ5 3
Ġab ort
ĠOR IG
ĠL u
---- -
Ġpr ices
Ġloop s
Ġspread ing
ĠD M
ĠRec ogn
ĠC OM
Ġweap on
H ash
ĠBas ic
Ġeduc ational
Ġaccount ing
c ity
V ersion
Ġmand atory
s par
Ġaccord ance
Ġattract ive
ĠB GP
ĠB er
Ġmist ake
Ġvol umes
Ġoverl ap
Ġord inary
Ġepoch s
Ġcustom ized
Ġdesign er
ĠB ACK
Ġ4 00
Ġenc ode
N o
Ġperiod ic
Ġneglig ible
Ġsm oot
ĠW ang
ĠCent ral
ĠZh ang
Ġb omb
Ġw all
Ġredund ant
ĠRes ource
ĠDistrib uted
25 8
Ġsome where
pos ium
ĠOper ation
Ġc rooks
ari o
artic les
ĠF L
Ġwh it
Ġtyp ed
ĠM I
c an
bound ed
Ġclaim ing
am mer
ĠF AT
Ġm ent
ĠVis ual
e k
Ġsc oring
ĠN ort
ĠM ain
u ble
ĠF uture
n n
Ġinteract ing
h an
Ġte ac
Ġwork er
Ġpre y
cle ar
Ġvis itors
Ġassess ing
ĠWord Press
Ġhosp ital
Ġsm ooth
Ġmail ing
ap ache
Ġver tical
s n
ĠImpro ving
O V
Ġ5 5
Ġintr usions
ĠA k
ec ycle
ro ke
Ġrig or
ĠPack et
ĠV GG
Ġgr ay
ĠD ocument
Ġch ips
ĠHack ers
ĠJ P
ron es
Ġdet er
ap ing
ST EM
Ġdat es
ĠBe low
Ġunder ground
in ity
i able
Ġin her
ĠL at
ĠT ask
OR M
po of
o gram
Ġredund ancy
Ġoppos ite
ĠO ff
ĠCommit tee
is is
P E
Ġoverw hel
Ġconclud ed
Ġinvok ed
ĠTh om
A ll
ĠMitig ation
ĠVend or
Ġnetwork ed
Cl oud
c ond
Ġbre ached
Ġn an
ĠA WS
ĠH ot
ĠB L
C II
ĠBug s
Ġcoordin ate
Ġpr ison
met ry
Ġdis aster
Ġassoci ation
grad ation
Ġselect s
ĠO VER
Ġre action
Ġmult ic
ĠT S
ĠD O
Ġper pet
ĠT ech
ist ed
Ġsp arse
Ġend ed
P l
ain ment
xim ity
Ġrecommend ation
Ġaffor d
ĠK en
ĠEn vironment
ĠP U
Ġren dering
ĠSc oring
Ġ9 6
ĠG reen
ĠM ont
ĠG ame
20 3
Ġguess ing
AS P
E n
Ġban ned
ag ent
Ġcongest ion
ĠC L
Ġl ie
ĠORIG INAL
Ġhe l
Ġo il
pl ug
Ġn ations
ĠM it
Ġan g
ab ot
Ġevol ve
i ers
Ġcomple tion
Ġp it
Ġf etch
Ġf eder
Ġb ird
AT A
Ġwarning s
Ġexpl oring
Ġstreng then
Ġpro sec
ĠFore ns
ĠOther wise
ĠLo ad
Ġproduct ivity
R s
ĠAb out
Ġgovern ance
ĠRequ est
Ġprov ing
pat ched
Ġattrib uted
AN S
Ġdepart ments
ĠLic ense
Ġstudy ing
ĠDH CP
ĠE duc
ĠC V
ĠN P
ĠCompar ison
Ġpe ak
Ġst ating
ĠImport ant
Ġpart itions
Ġmat ched
B N
ĠV ers
Ġd ie
LO IT
app ro
n ist
or ig
ĠP al
Ġadjac ent
ĠK B
ĠE con
Ġdist ill
ĠCurrent ly
Ġevalu ations
b ing
ĠG UI
Ġsn ipp
Ġcell ular
Ġinter oper
mal ware
ĠG old
Ġspec ulative
Ġrepos itories
ĠElect ronic
it le
ĠP A
Ġtoler ance
Ġinvari ant
Ġmanip ulating
ĠBI OS
Ġt ends
ur l
ist ically
Ġgreat est
Ġchar ges
A nd
Ġspeak er
os is
Ġfore st
Ġunsu pervised
Ġcont rovers
ES T
ĠPl ayer
Ġimpro per
ĠB rowser
ĠRec ent
Ġnear by
z ing
Ġaccept s
Ġf ont
Ġthreshold s
ste in
ed y
Ġconsec utive
ĠS elect
Ġadv ances
T or
k in
on der
AL L
Ġver tices
Ġcom fort
ĠVPN s
Pro cess
ĠEXP LOIT
z ant
y l
Ġlegis lation
Ġoff ices
Ġ 86
Ġmat ters
Ġchar ged
Ġmitig ating
Ġassoci ate
ĠM A
OR T
Ġvis iting
Ġregular ization
ĠSaf ari
Ġ9 7
Ġpul led
g ue
open jdk
Ġinters ection
0000 0000
Ġreflect s
al ed
ĠInter face
Ġplug ins
Ġdec oding
ĠOper ations
Ġreach able
ĠB et
Ġwe ar
ĠL IN
ĠE ns
in ement
Ġstr ug
Ġbeh ave
Ġrout ines
t able
Ġman ages
ĠSim ple
8 00
Ġm other
ĠOrgan ization
Ġp ark
Ġde gradation
ĠGener ally
ĠH o
ĠJB oss
T Y
Ġal gebra
ut ors
Ġattrib ution
Ġ3 9
hol der
ĠSch ool
Ġhas hing
EN C
Ġcompil ation
Ġiss uing
NN s
in ator
Ġarchitect ural
D T
Ġth wart
ĠJ ames
am m
Ġdep os
ĠC SP
Ġviol ate
Ġf et
Ġd ot
Ġwal let
ĠS ams
tr ain
Ġposs ibilities
Ġp ilot
Ġint uitive
ĠAs ia
Ġnon ce
ĠT ext
Ġfor cing
st at
ra ud
R ec
ĠP H
ĠWi Fi
s ol
Ġal tered
Ġp orn
Ġhar vest
S im
Ġsound s
Ġtermin ate
ind ow
Ġ8 5
W ith
ĠBo olean
c ut
Ġwe ather
Ġcalc ulating
Ġreveal ing
Ġtraject ory
ĠS afe
Ġpract ition
ĠCh all
ĠTh ree
Ġw idth
Ġprincip als
our s
ĠT otal
f ee
ĠAutom ation
ĠFix ed
Ġde em
O r
Ġal arms
Ġupgr aded
Ġg ir
Ġpl acement
Ġf usion
Ġlif etime
Ġaccompl ished
Ġdis gu
ĠInt ro
B u
Ġf als
Ġcor ner
ĠB row
ĠKnow ledge
Ġmis conf
r isk
Ġcol ors
Ġunw anted
l ife
Ġremain der
et he
Ġexecut ions
ĠL TS
ip e
Ġread ily
ĠCont act
Ġpseud o
Ġden ied
Ġdang er
ĠM C
Ġst im
Ġmove ments
in ate
Ġ Ċ
ĠIP s
Ġtransmit ting
ĠS IP
Ġ4 7
ĠSur ve
Ġlight weight
ic o
Ġcomp ly
Ġdesc ent
Ġstream ing
ĠConf iguration
AM E
Ġs leep
ok es
Ġtro uble
ĠSer ies
ĠRem ember
w an
ĠOut look
Ġsho pping
ĠDISC O
Ġconstruct ing
Ġde als
Ġdiscuss ing
Ġs lot
l ang
Ġpublic ations
ar g
ĠD rop
Ġ4 6
ĠOut put
ax is
Ġrebo ot
Ġinc ome
us ers
ber os
Ġmig ration
Ġcor pus
G RO
T CP
us ively
Ġcall back
I ES
ĠM ic
it ics
Ġfl at
Ġcarri er
r ame
ĠAssess ment
per t
-------- --
unct ions
id ay
ĠE q
Ġc hemical
or se
Ġdecl ar
F ig
sc anning
ĠInt uitively
ĠIMP ACT
it z
ut henticated
Ġgen etic
Ġrel ates
omet rics
ĠD OS
Ġ| ------------
f riend
Ġfil ed
ou ter
ĠSu ite
Ġtwe et
D UC
i ative
ĠT rojans
Ġflo or
u id
Ġt ester
lo op
ar p
ĠSol utions
Ġesc ape
Ġb id
ĠMan ufact
ĠWh y
ĠF R
ĠDe vices
Ġarrest ed
ĠRem ed
F P
Ġprogram m
Ġmar gin
K it
od ies
ĠG mail
ĠSm all
HT ML
Ġrol l
ĠIntegr ity
Ġscan ned
Ġextens ively
ĠV alid
D L
t ml
Ġparticip ating
Ġt iny
Ġrep air
Ġh int
Ġapparent ly
Ġfree ly
Ġobserv able
Ġsub scrib
ĠH er
Ġarg ued
ĠEr ror
D es
RE A
Ġclick ed
Ġf uel
Ġemploy ing
ik i
ĠON LY
ĠUkrain e
ĠS yn
Ġout going
ĠM er
ĠJe ff
ack er
Ġsimpl est
Ġbelie ves
ĠSet tings
Ġdiv ision
Ġintention ally
Ġren der
Ġremed iation
Ad v
u ation
ĠAC L
Ġoverflow s
H SA
en ess
ĠP op
Ġpredict ing
Ġdro pping
U ser
Ġrem ained
port ed
ĠTr usted
Ġfall s
ĠS EL
n u
Ġscal ing
an na
% ),
a pped
ĠPh ase
struct ion
ĠSc en
T hat
ĠLink ed
ĠNCC IC
Ġarbit r
ĠPart ic
Ġcontain ers
in er
Ġsignific ance
O pen
Ġinvestig ators
m as
ĠElect ric
ĠQu est
Ġsafegu ard
Ġasym metric
C T
apt ers
ad visory
Ġ velo
li ant
C y
rog ate
ill er
N ote
Ġtel ecommun
lin i
Ġro gue
Ġlength s
Ġrev ocation
ĠCO MP
ĠAr my
Ġanalyz es
ĠPRO VID
Ġc licks
bre ak
le br
Ġob sc
Ġ7 8
Ġuna uthenticated
Ġtransmit ter
Ġle m
b en
che str
ĠCon v
theore tic
ĠP os
ĠAcc uracy
g ency
Ġun encrypted
Ġtell ing
ĠI RC
Ġperson ally
ĠS en
Ġrating s
ten ess
ĠMod ern
ĠL D
Ġ================================ ================================
âĢĻ ,
Ġp ing
Ġobser ver
ell man
and er
or row
W E
le tt
Ġindu ced
ĠMin im
ĠB P
lud ed
re y
Ġtransp arency
Ġcorpor ations
ag ues
b ur
ĠW est
Ġbuild ings
Ġtail ored
b its
Ġexecut ables
Ġ4 9
Ġdisass emb
Ġgrow s
ĠArt ificial
Ġtransl ate
Ġwas te
str ing
ĠEvalu ation
Ġper ipher
v y
T s
irt y
C I
ĠReli ability
omet er
Ġ ri
ĠR P
Ġed iting
ide o
Ġpen alty
Ġal ph
Ġsp an
Ġreview ing
and a
Ġmis use
ĠO K
ĠV o
Ġwrit er
Ġindivid ually
S p
Ġf at
spar c
Ġser ving
a ive
ĠL ee
Ġ ________________________________
I VE
Ġadvertis ements
ar ks
Ġinflu enced
ĠB S
Wh ile
zant ine
ĠExper im
z y
th ird
ĠA L
ab et
al yst
elt down
Ġthous and
ĠFor m
D bg
empor al
Ġvirt ually
Ġagre ements
Ġb lood
Ġsust ain
Ġconfirm ation
ĠHe ad
Ġsubstant ially
Ġ19 98
Ġrein forcement
Ġport al
Ġc able
Ġpe ace
c ard
ĠR ule
ĠEx pos
Ġpick ed
ĠCons idering
S et
f ellow
^ {
l iances
Ġinn oc
Ġ19 80
Ġdoub t
ĠRemed iation
Ġcollect ive
Ġun ified
im p
Ġen emy
s v
ĠVal ue
Y S
ĠCh ang
a j
ĠM aster
Ġrel ating
Ġcomp liant
Ġg old
Ġlook up
ĠL O
il os
fit ting
Ġtrigger ing
ĠBuild ing
as et
v able
ĠAct ion
ec ode
Ġsnap shot
RO P
Ġbind ing
Ġpoint ing
on ed
c ven
cven ame
ĠSaf ety
Ġpost ing
s ets
N ot
com pl
ĠF A
Ġdec ides
FT WARE
im edia
k o
ap ed
re al
Ġwar ned
l ass
w ood
Ġconsider ably
HER E
Ġ5 1
Ġremo ves
Ġc ensors
Ġhypot hes
Ġpre processing
Ġge ograph
ĠSym posium
Ġpre t
Ġlo sing
havi or
Ġpar se
enc oder
Ġfit ness
Ġoffic ers
er os
um my
Ġcolle ge
g ot
Ġsimilar ities
a arch
Ġquant ity
Ġbackup s
ract ion
Ġdecre asing
ĠTr ad
ĠChr is
Ġre vers
A uth
Ġalleged ly
Ġind ication
DN S
Ġk ids
ĠL L
ĠR ate
ĠW ITH
ĠMod ule
Ġorder ing
Ġconf ident
ĠW hether
Ġreli ably
( ).
Ġcon ferences
l iv
ff ff
Ġse es
ential s
Ġexpect ations
Ġd ash
ee k
m atch
id ge
ĠS now
ĠSupp ose
ĠUp grade
IF F
Ġ5 2
Ġdiv ide
Ġp ad
Ġanten na
Ġpro ximity
ĠI O
ĠE L
Ġgrid s
V IE
Ġreser ved
er ial
M T
+ ------------
ĠFin ancial
our ced
ĠPROVID ED
ĠPr inc
effic ients
Ġtrad ing
00 2
Ġrespond ing
ĠISP s
Ġinterpre ter
qu art
ĠFe ature
Ġinvolve ment
Ġinitial ized
com puter
B B
" ).
h op
Ġappro val
ĠC am
Ġgr am
Ġfil tered
Ġfavor ite
ĠEX T
. ).
Ġrad ar
Ġren ew
Ġe igen
ĠGu ide
h i
Ġimp osed
Ġsh orter
av as
Ġconvers ion
ĠS em
ĠS EE
Ġtrans missions
ĠGrad ient
Ġanaly tical
ĠAS CII
pres erving
ĠAlex a
ĠP ers
B ot
Ġcopy ing
ĠF our
ĠCom b
ĠBu ffer
ĠP SI
Ġeng aged
Ġy es
12 6
Ġfuzz y
Ġ5 4
Cont rol
amet er
ĠO ften
Ġsimpl ify
Ġnew sp
Ġsol ver
Ġslow er
ĠRep ublic
Ġt ied
Ġd rones
ot ive
Ġwork station
z i
Ġgu y
ĠM ode
con cept
d epend
Ġsmall est
ont al
GRO UND
Ġslow ly
Ġmiss ed
S O
Ġev ident
Ġbreak s
Ġsent ences
Ġsch ools
VIE W
agr aph
bug zilla
Ġreg istr
verse ly
so ftware
Ġaggreg ated
Ġnot ions
Ġinherent ly
ĠT ex
Ġfam ous
s lackware
Ġretur ning
Ġvot er
ĠS qu
Ġfix ing
Ġwin ning
S G
Ġpol l
r int
Ġmim ic
ĠC ount
ĠR y
Ġcum ulative
E VM
ĠAttack er
ĠD ET
Ġpresent ing
hic le
Ġs aving
Ġpl acing
Ġapplic ability
Ġuniform ly
our cing
Ġdesign ated
Ġincorpor ating
âĢĶâĢĶ âĢĶâĢĶ
P G
Ġ[ /
Ġput s
ĠA UT
Ġtro ub
Ġmisclass ification
Ġaccept ance
Ġh oc
Ġbuff ers
Ġpers ons
Ġeavesdro pping
ĠHom eland
Ġform ation
Ġcontext ual
Ġwork force
Ġsatisf ying
ĠS ony
Ġph rase
Ġmodel ling
Ġ ì
Ġrecur sive
AT URE
Ġs ake
Ġempir ically
C NN
ĠCAP TC
Ġint ensity
ession al
re ference
Ġlicens ed
err or
s qu
ĠC ard
Ġin ev
AR D
v a
Ġvi able
ĠUnder standing
ĠSc ient
Ġserious ly
Ġcou pled
Ġlock ing
G r
Ġexp los
Ġread ings
Ġtot ally
Ġcooper ative
Ġalloc ate
AT IC
Ġmask ing
Ġforward ed
f ol
Ġm utation
ĠB ad
OM ER
Ġtrans lated
Ġinter conn
Ġinvest ments
De pth
Ġf a
Ġdifferent iate
Ġconcept ual
Ġ ?
ĠT ake
Ġm ental
et ration
ĠE ast
Ġsubs ection
Ġexcl usively
ĠP ress
Ġencrypt s
Ġun clear
Ġg ender
Ġatt end
rop ri
Ġcons ol
Ġrespond ed
Ġpow ers
ĠPerson al
Ġunivers ities
ĠPro xy
Ġdef ence
Ġem bed
Ġcl in
Ġfill ed
Ġmanif est
ĠP et
Ġconflic ts
th reat
C rypt
ĠMark et
l ength
ĠJust ice
Ġsuper ior
Ġobt ains
Ġh o
WOR D
p ag
==== =
ĠF ull
z il
Ġdistin ction
fil ter
ĠComp an
Ġc aching
Ġconc aten
Ġb order
Ġundet ected
/ ):
Ġin effective
ĠS ys
Ġcommunic ated
Ġembedd ings
h ome
ĠL ong
Ġpr one
Ġinstall er
Ġmitig ated
t mp
point s
Ġcriter ion
it als
Ġadversarial ly
Ġhol es
Ġpat ent
s k
Ġcolle agues
Ġcaus al
ĠD isco
Ġre nt
ĠD E
ĠEd ition
et erm
ĠA verage
Ġg aming
B O
Ġcorrect ed
ir ation
Ġret ain
on or
am i
i ating
Ġpar ser
% ).
ĠS el
Ġch air
f iles
Ġintegr ating
st art
ĠInst agram
Ġpack ed
g z
ĠPriv ile
ĠFil ter
Ġ5 7
ĠF re
Ġpreser ving
Ġt uple
Ġcomp ressed
Ġconven ience
ĠInterest ingly
Ġinstrument ation
Ġproblem atic
d ated
Ġblack list
Ġinv oke
pl an
rok es
Ġver ifier
ĠV LAN
Ġfor k
Ġout age
Ġcomp act
ĠV arious
Ġattest ation
ĠD OM
Ġtrans ient
ĠC ERT
pe er
ĠCS I
ĠCon c
Ġco efficients
iz on
Ġsupp liers
W ork
Ġcal ib
Ġprompt ed
pass word
aw ay
or ney
SM A
id a
Ġseem ingly
Ġtr ail
ĠBACK GROUND
Ġretrie val
ĠDiff ie
Ġd ense
Ġnot ify
E AR
Ġadopt ing
ĠIP S
Ġcertific ations
Ġ7 2
ĠC UST
Ġprof iling
e as
Ġstead y
ĠMed ium
Ġtack le
Ġtest ers
ain ted
Ġar rive
Ġexerc ises
Ġindu ce
avas cript
ĠPl an
Ġv otes
ĠF ac
ĠFire Eye
ĠDISCO VER
Ġform ulated
Ġsystem atically
Ġinnov ative
ĠW S
Ġmicro architect
Ġskill ed
ĠCertific ate
Ġrank ed
11 258
Ġar row
Ġstop s
ĠWork shop
app er
B F
Ġsub tle
ĠF act
Ġexpos ing
ĠREF ER
ill s
Ġre jected
ĠE ss
ĠPo C
ex ample
Ġunder t
pro file
Ġdram atically
Ġst ar
Ġus eless
ur is
ast ers
Ġsur rogate
Ġweak er
Ġext ending
Ġdevelop ments
ĠU RI
utor ial
B ER
ĠM eltdown
Ġbet a
ĠP O
Ġwor ms
Ġrel ate
itud es
Ġcontrib uted
Ġp entest
ENC ES
s am
ang le
UR ITY
Ġbu ying
AP I
Ġmechan ical
com pass
Ġb ag
pur pose
Ġmag netic
Ġfem ale
Rep ublic
ĠT uring
Ġbroad ly
ĠRob ust
Ġregard s
ke ep
ĠN A
Ġcoordin ates
bound s
er preter
ĠD EP
p ress
ĠH ol
yp ots
Ġrespond s
Ġneg atives
P al
ĠConn ect
ĠAr ab
Ġcalc ulations
Ġconsequ ently
CP U
Ġa f
ĠQu ant
Ġfundam ent
; &
Ġd ub
Ġas ynchronous
ĠPack age
Ġemer ge
d rop
ĠAv ailability
ĠPol ice
Ġimp ly
Ġconsum e
in put
******** ********
Ġexfiltr ation
Ġsupp lement
ĠP L
Ġalong side
ĠEmp loy
Ġepis ode
ĠAdmin istration
ol ec
Ġmulti pl
ĠSams ung
U U
Ġnavig ate
ure au
Ġpropos als
know ledge
Ġcr isis
un ity
ĠM r
Ġvis its
ĠMod er
ĠP P
Ġover la
Ġarbitr arily
ĠExploit ation
ĠGate way
od ers
Ġgran ularity
Ġregard ed
C M
Ġpriorit ize
ĠTex as
ĠA E
y c
b i
ĠP OS
ĠKer beros
Ġp lots
Ġlif ecycle
ĠW HERE
ĠSIGN ATURE
ues day
r uby
ri z
Ġo sc
ĠInd ex
O ur
Ġc ached
Ġexam ination
Ġn map
ĠU nt
W A
Ġpure ly
O ps
ĠT TP
Ġdec ode
Ġco efficient
Ġfold ers
ĠU t
Ġvelo city
F W
ĠUs ually
Ġpoor ly
un ks
Ġper mits
V al
Ġstandard ized
14 6
Ġ________________________________ ________________________________
Ġbl ank
Ġlaw y
Ġcat alog
is ible
G R
Ġsubst itution
ĠSt all
Ġwrit ers
200 5
Ġback end
Ġdeliver ing
ĠP ark
ĠCUST OMER
Ġdepend ence
ĠC at
Ġtamper ing
A fee
ĠCh ange
ul i
ĠMand riva
K D
Ġenc oder
Ġs ides
ag ner
Ġcre ative
Ġdis abling
Ġar ms
Ġcontinu ing
Ġdiscover ing
Ġavoid ed
Ġform ulate
Ġscam mers
Ġident ifiable
ĠSN MP
Ġp ed
ĠAS es
Ġsmoot hing
al ities
ĠOpt im
Ġswit ched
ĠSt ill
pre m
ortun ately
Ġnot ified
ĠF ield
ĠAng el
n ov
t d
Ġgrad ually
A cc
Ġbul k
ĠC IA
" ;
Ġch unk
Ġdiscrimin ator
ĠAuthor ity
ri ke
ĠPro position
HE L
Ġautom ata
h igh
Ġprev alent
Ġbring ing
ĠControl ler
at ile
Ġre ct
paramet er
l at
Ġexchang es
Ġmonth ly
Ġqual itative
Ġrecon f
ĠDec ision
ĠBra zil
ethe less
Ġapp liances
ĠN ET
ĠT P
ĠPer haps
SS AGE
ĠJS ON
Ġjo ined
ĠVers ions
ĠProduct s
ĠDisc losure
Ġpl ants
ĠLinked In
gener ated
D o
Ġpredict able
Ġterror ist
Ġund es
____ __
Ġem ulation
Ġopp onent
Ġdeem ed
A t
Ġlib virt
r am
ĠDef ender
emb les
Ġapp rec
C ry
Ġscr atch
Ġce lebr
L ink
T T
xx xx
Ġadapt ation
f old
ĠSm ith
Ġwas n
ĠRe v
ĠPC s
h y
Ġpar agraph
Ġintern ally
ĠCont inu
Ġsh ip
Ġscal es
ĠSch ne
b ind
Ġfe es
ĠI de
Ġsh uff
u an
. *
ĠUn ivers
Ġb all
Ġlink ing
Ġtri p
Ġover load
Ġperman ent
com plete
Ġc ited
v an
ĠS al
v ance
ig uous
Ġpos ed
Ġ19 95
Ġrecip ients
Ġ1 01
form at
Ġtrans it
Ġasym pt
ĠT es
lis hes
ĠT uesday
ĠBy zantine
or gan
K B
Ġun stable
Ġdes ire
ĠS ession
ĠS and
Ġbi ological
Ġle aking
Ġpuzz le
ber ry
Ġheur istics
ix el
Ġt ips
ĠE arth
ĠREFER ENCES
Ġsearc hed
Ġdestr uction
ib m
n ode
Ġ `
ĠC ur
Ġc as
val ues
END ED
om orphic
V er
ĠA uth
Ġz ones
ac er
Ġsh ot
Ġprem ium
N C
Ġmag ic
lies t
mdv mes
los ed
ĠB ook
Ġtext s
ĠP erm
Ġport able
ĠRun ning
ĠD F
Ġdis j
Ġwhit el
Ġpro jection
Ġkernel s
ch a
Ġschem a
Ġus able
Ġlater al
Ġmin i
Ġs on
C F
ĠPen etration
ĠCompan ies
ĠI SA
Ġlapt ops
ĠL ess
Ġdise ase
ater al
ĠAd am
B ut
Ġh at
ic ate
or ge
1 000
ĠHist ory
ĠJ ac
ĠR A
Ġgl ass
Ġ5 12
Ġimm une
ĠP I
H O
Ġbus y
Ġiniti atives
ev in
uris d
ĠB ill
Ġt or
ĠStall man
Ġer a
c ount
ĠInd ian
ĠW SN
o vers
ĠSolar is
Ġche ap
ĠM iddle
est ic
p i
Ġsort s
l ar
/ .
ĠCh ief
Ġpr inter
Ġph ilos
Ġpl enty
Ġsys call
md k
Ġout bound
ĠC ache
Ġb odies
s a
Ġschedul er
resp onse
d ep
ĠA REA
ĠCom plex
Ġinc red
ĠD iv
Ġun cover
ĠS L
ĠD ou
ĠSh ort
Ġ19 96
Ġaugment ed
ĠIn cident
Ġ 000
Ġh unting
id el
Ġexcl usive
L ist
Ġsupp ose
ĠNorm al
R ead
Ġfl ip
ĠT PM
ĠMat rix
Ġinstall s
t ech
d river
r b
ari an
Ġv ac
15 0
Ġtempor arily
Ġdissem ination
ol a
ĠMonitor ing
ĠSp am
Ġrece ivers
strict ed
Ġt ens
Ġarriv al
loc ated
Ġours elves
Ġharm ful
ĠB est
Ġconst ants
Ġdup licate
ĠMir ai
Ġelse where
ĠLook ing
G I
ĠME SSAGE
ĠP T
im ination
A fter
Ġopin ions
Ġp et
Ġen compass
Ġincent ive
ĠCS C
ĠJP EG
Ġen orm
ĠCh o
Ġpre f
ĠPat tern
ol ation
Ġinter connected
G E
ĠSt reet
r ont
Ġconv ince
Ġeas iest
c ost
Ġdecom position
if fer
Ġwith dr
ĠIN T
ch arge
Ġbund le
Ġpractition ers
Ġmal formed
con str
Ġpublis her
Ġpredic ates
ĠW ide
os c
Ġrece ipt
Ġsp in
ĠSIM ATIC
ĠJ ack
Ġtravers al
Ġbot t
int on
ĠDISCOVER ED
Ġtr icks
Ġun seen
ĠH D
pro of
Ġpropag ate
Ġab ilities
ĠEXT ENDED
ECT ED
Ġconfig uring
Ġacceler ation
view advisory
ĠC ounter
Ġcontact ed
Ġlabor atory
Tr ack
ot ion
il le
ĠInc re
. -
er ry
Ġ5 8
ĠE mer
L ine
ĠV ista
Ġsto pping
Ġsh oot
Ġaltern atives
Ġestablish ment
Ġ ub
Ġn s
ĠF ortunately
ĠW al
ĠL OC
Ġinfer red
Ġmor ning
ur ate
H ellman
Ġcomprom ises
Ġpost er
Ġproportion al
ĠEduc ation
C o
ĠSY STEM
Ġclo sing
Ġ8 8
F TP
ĠUpd ated
ĠCol lect
Ġindirect ly
Ġelect ions
Ġestab lishes
Ġimperson ate
C OM
le ge
Ġaddition ally
T otal
Ġquad r
âĢ ĺ
Ġnor ms
Ġinvent ory
Ġb ed
Ġinstall ations
ĠF ed
ort s
ĠA ward
ch ains
Ġre vision
ĠC E
M F
Ġcomm od
( '
Ġent ers
act iv
f irst
Ġan ch
oc al
Ġab used
ow nt
Ġmount ed
Ġmod ifies
e g
liv ious
Ġfail ing
ĠClass ification
Ġdepict s
ude b
88 8
Ġal igned
Ġsuggest ions
Ġf if
S B
on ing
ri ers
Ġcont rad
ĠH ong
Ġf ly
Ġimp ose
Ġfound ed
ĠInit iative
Ġext ortion
Ġdemonstr ating
ĠOver view
tic le
Ġsynt act
Ġs we
ĠH am
Ġrec urs
Ġsignal ing
ĠCont ract
c rypt
Ġcalc ulus
ĠC irc
al er
Ġorigin ating
ĠCa rol
12 3
Ġdeliber ately
Ġsatisf action
Ġlock s
ĠFranc isco
Ġsk ip
Ġclos est
Ġreason ably
ĠSte ve
Ġm ine
ĠM ass
ĠLib rary
ĠPro b
sc reen
Ġpreser ved
Ġ* /
ap i
Ġdomin ant
Ġtrustworth y
ĠMIT IG
' '
ĠBat man
ĠWhat s
Ġprepar ation
Ġcorrel ations
ĠI ll
ut ils
Ġ/ *
ĠMc Afee
Ġwatch ing
Ġsuff ered
Ġparticip ation
ĠRF ID
ĠK evin
Ġsex ual
t witter
Ġt al
Ġdiff usion
l aw
Ġpos es
Ġpro c
Ġtact ic
ĠC he
ĠCPS s
er ve
Ġaccount ability
Ġj urisd
Ġor ient
th read
Ġsurve ys
ĠW PA
Ġaccommod ate
C ON
Ġcensors hip
ĠD ocker
Ġdisc ret
Ġwe alth
Ġdisc ount
a uth
Ġem it
ĠKore an
Ġtechn ically
ĠSD K
ĠEx ternal
ĠPre vious
Ġcompet itors
I nd
sc an
Ġ6 6
Ġ20 23
Ġsome body
o j
ĠAfric a
Ġbe am
Ġk its
Ġfeder ated
S ome
AN N
Ġfault y
Ġconserv ative
ĠOT HER
Ġaggress ive
Ġv ent
ĠOVER VIEW
ĠAtt rib
ĠR outer
AC E
Ġsit ting
Ġenfor cing
Ġh ous
um ption
Ġviol ating
p ay
t un
Ġdifficult ies
Ġr ul
Ġult imate
ĠRecogn ition
Ġtime out
Ġaccept ing
ĠB ern
Ġgeneral ize
Ġpseud onym
c ache
Ġ __
ow ered
ĠExc el
Ġw oman
Ġmys elf
Ġcommit tee
Ġsurvey ed
Ġcompr ises
Ġass emb
Ġaff ili
Ġ7 4
Ġb g
Ġindistinguish able
ann ounce
ĠW ed
ĠM T
Ġover look
Ġra ises
s at
Ġsuggest ing
Ġk id
Ġaugment ation
t ure
Ġ3 65
AR C
ok ed
Ġdistrib uting
en n
00 01
Ġenh ancing
Ġcomm ission
Ġtim eline
Ġassess ed
ĠWik ipedia
og en
Ġd ummy
ĠExp ress
Ġinterv ention
ĠH aw
Ġadd itive
Ġunav ailable
lo ss
Ġdetect ions
Ġdec oder
Ġbur den
Ġintr ins
ĠCent re
Ġaltern ate
f ly
ic it
Ġ9 4
Ġhot el
AT ED
N ew
Ġte ach
init ial
app ropri
igure d
u ce
Ġdrug s
Ġhard ening
ĠApp ly
Ġge o
Ġver ifies
Ġevalu ates
Ġcount ing
qu ality
Ġbypass ing
ĠW anna
ĠPh il
ĠW ater
cent ric
pect ives
t ons
ĠLi u
ĠU C
ĠU lt
cont ent
ĠS H
e ven
Ġspeed s
Ġax is
Ġextract s
pat ible
Ġphys ics
s ized
apt ive
ĠH ash
Ġlo ose
Ġdemonstr ation
mem ory
Ġcont rary
Ġprior ities
Ġunique ly
ĠSI EM
ĠL in
Ġsee ks
ĠLast ly
Ġprom ise
g re
Ġquery ing
Ġan c
ser vices
Ġsniff ing
z z
Ġrefl ection
ĠLoc ation
Ġintercept ed
Str ing
Ġjoint ly
Ġtick ets
Ġrepl aces
D OS
i en
om p
ast ro
m ys
ĠS ite
ĠAmeric ans
os ing
Ġli ability
Ġfin ish
Ġro ck
Ġw ired
ĠDe bug
Ġdelay ed
Ġinvest ors
EF I
B E
d ing
Ġout dated
ĠProf essional
Ġarr ays
Ġport ions
Ġsome how
Ġ2 50
Ġsubs ets
Ġun pack
Ġperm utation
ĠM us
et te
Ġfunction ing
Ġbus es
Ġprov es
ĠâĪ Ĵ
ot o
ĠGe org
Ġid le
Ġunt argeted
Ġexcess ive
Ġprev iew
ĠCommun ity
Ġdele ting
is ec
ĠStart ing
Ġdisass embly
ĠDR AM
Ġover r
Ġdisplay ing
li ament
Ġdev iations
20 4
Ġmark ing
Ġha ven
ĠM ach
s afe
ĠB al
' ve
Ġor chestr
Ġh ang
-------------------------------------------------------------------- -
Ġun patched
Ġch apters
Ġmig rate
20 21
ĠManufact uring
ĠRequ ire
ĠB ureau
t argeted
Ġenc aps
Ġfeed s
ĠE SP
Ġpract ically
ĠScript ing
D s
-------- ---
ĠN ash
Ġd ownt
Ġclass ifying
Ġautom otive
O F
h onest
Ġlat t
Ġboot str
v ation
G M
Ġless ons
Ġfeature d
Ġneighb oring
Ġse am
Ġrest aur
Ġcontin ually
Ġup stream
Ġb ought
Ġax i
Ġfeel ing
Ġeffic acy
Ġhone ypots
s en
ap l
ink ing
Ġout line
Ġear liest
Ġsh ield
av ed
Ġw el
Ġappropri ately
Ġs lic
Ġconve y
AAAAAAAA AAAAAAAA
Ġencour aged
Ġ8 2
Ġlatt ice
Ġresist ant
b rowser
Ġd rast
Ġemphas is
ĠAustral ian
Ġde gr
Ġabsolute ly
ĠCom plete
Ġlocal ization
ĠL R
Ġrele vance
ĠCh annel
HT TP
ap ore
Ġprob es
ed ge
50 9
Ġconver ge
Ġdelet ion
ĠFl or
ĠTes la
Ġsound ness
Ġreach ability
Ġinv isible
less ly
Ġoptim izing
Ġlack s
Ġset tle
A ss
Ġpartition ing
Ġun ion
opt imal
Ġmisclass ified
ĠMITIG ATION
Ġthe ories
Ġby t
200 60
Ġrepl ies
Ġconst itute
pp ers
Ġ6 8
Ġimplicit ly
Ġb og
Ġrem inds
u ro
Ġjud ge
il der
Ġpre ference
Ġcompet ing
Ġpair ing
Ġactu ator
t ar
b log
ĠF ail
ĠCar lini
m aster
ĠBe yond
Ġout er
c md
Ġapp let
Ġ7 7
Ġ8 3
Ġactiv ate
Ġexceed s
ĠIsra el
un te
Ġ9 3
Ġmag azine
g ithub
Ġcraft ing
g ments
Ġfoot print
am ily
o C
Ġvar ied
Ġenhance ments
Ġoptim izations
st ations
ĠATT ACK
ĠPay Pal
ĠFig ures
Ġassign ing
Ġe ax
Ġs abot
Ġtun ing
sh aring
Ġinte gers
ĠEx isting
Ġsh op
Ġregion al
] )
ĠPLC s
Ġd ict
U pd
chang ed
Ġ1 20
Ġm olec
ĠS ov
Ġescal ate
Ġvers a
Ġbas ics
Ġat oms
b on
Ġhom es
r ating
Ġb unch
ĠA UC
In st
Ġhost name
ad ays
Ġt cp
ĠE ric
c v
Ġar ises
ĠAl low
Ġevic tion
Ġiter atively
Ġcorrect ion
Ġdecre ased
Ġco vari
ĠAS LR
Ġinterview s
Ġmar g
O ut
S EC
ĠW agner
Ġdistill ation
c ision
at ivity
ĠBlock chain
os ec
Ġstat ically
Ġdeleg ation
L ocker
ĠiP od
ĠSnow den
Ġg iant
Ġw ake
M e
sh ow
ĠMart in
il er
ok er
Ġsusp ic
Ġtrick ed
Ġcirc le
loy ment
Ġproceed s
m n
ĠSign al
ĠW atch
ol er
ĠU X
Ġmem or
ĠR SS
ĠB BC
14 14
Ġmys ql
Ġredirect ed
ĠCS RF
Ġsummar izes
ĠAnaly tics
p ages
up al
Ġre ass
Ġhosp itals
ĠB road
ĠL P
Ġm ature
Ġ19 70
onal d
d iv
Ġref erring
Ġsub net
Ġcompos ite
Ġcar ries
Ġproven ance
process or
Ġj boss
Ġor th
Ġ19 97
Ġassign s
ĠM iss
Ġs hed
Ġmet al
ist an
Ġinvari ants
ĠSn ap
Ġfrag ments
ĠWhats App
Ġem b
Ġdeb ate
A gent
2 000
he lp
Ġnot ably
Ġhapp y
Ġun privileged
iqu it
Ġont ology
Man ager
Ġestim ator
s hell
Ġcl one
Ġincons ist
Ġcrypt osystem
Ġfor wards
Ġrigor ous
ĠM i
âĶģâĶģâĶģâĶģ âĶģâĶģâĶģâĶģ
ular ly
Ġhoriz ontal
ious ly
Ġ6 3
ĠWanna Cry
Ġmeet ings
Ġsp okes
Ġ. /
Ġabs or
Ġexp onent
Ġs ing
Ġoverl ay
ĠMet erpreter
Ġ7 6
Ġtransf erring
T H
omb ie
ivid ual
Ġad vis
her n
Ġk m
Ġneut ral
Ġst reet
ĠSing apore
S ince
R B
Ġt ap
in ct
Ġbott len
yp ass
com merce
sc ore
N S
Ġmain stream
Ġneur on
Ġent it
Ġexpl aining
R equ
Ġcomplement ary
brid ge
ĠNOT E
Ġref inement
c raft
Ġtermin ated
Ġt ank
Ġexpand ing
Ġemploy ment
Ġdis put
Ġsu do
Ġemphas ize
I EC
N A
ĠN av
l ay
Ġin verse
m icrosoft
ĠIntern al
ul ators
ĠS ensor
ĠDat aset
pl ane
Ġread able
Ġunc overed
ĠRich ard
ill ing
Ġchar ging
act ively
th underbird
Ġle af
ĠSO FTWARE
ĠIss ue
Ġlabel ing
ĠG A
AS T
ĠS ingle
m ath
Ġdeploy ments
ĠA SP
crib ed
ĠCVE s
to gether
ĠC ategory
ĠMand iant
Ġin acc
Ġconv ention
re v
ĠD HS
Ġrele asing
d ump
Ġexpect ation
ĠE P
Ġaim ing
S ign
dom ains
mer c
ĠS elf
Ġhand lers
Ġhyper parameters
Ġmar ks
Ġapp oint
ĠM echan
ĠCr ime
Ġinsert ion
Ġrep et
ĠC lean
F E
Ġ9 2
z a
ĠIntro duction
ĠJapan ese
Ġl uck
ll ipt
______ _
Ġprint ing
ĠG R
Ġrestart ed
Ġestim ating
Ġc art
rom ag
ri a
ĠWork ing
Ġne arest
T V
ĠOb ama
Ġcommunic ates
" >
ĠConf idential
Ġunp redict
ĠIn fo
ĠJac ob
len ny
Ġvot ers
Ġp ic
N ode
B l
ac r
post gresql
Ġorigin ated
ĠP eter
Ġadj usted
quart ers
Ġin equ
et h
Ġfab ric
N T
ĠC ook
Ġpers pectives
Ġun protected
Ġtroub les
stand ard
Ġfriend ly
ĠSh adow
O f
f acing
Ġincent ives
S ecure
ĠV ir
W r
ĠF PR
Ġenorm ous
Ġp ace
ec om
t or
ĠN um
st ack
Ġbe acon
ent ropy
ĠGr id
A ut
per ty
Ġdec iding
ĠG al
ade qu
Ġs lice
Ġpredict s
Val ue
Ġ5 9
Ġg est
Ġinteroper ability
ĠW estern
ĠAS R
m en
ĠF und
box es
ĠC amp
priv ate
Ġsur prise
Ġdo ors
[. ]
ĠCol lege
a ver
Ġd il
S L
Ġscr ut
s ed
Ġst em
Ġany way
Ġte aching
m ic
ĠBe ing
ĠSIGN ED
ol ar
Ġun used
Ġmoder ate
h ots
ĠEar ly
e u
Ġme ets
ĠF DI
Ġsimultane ous
Ġkill ed
it ter
d y
re ement
Ġkeyst rokes
ĠRec on
lo sing
ĠRec e
FF ECTED
X SS
Ġm ur
ĠLog ic
Ġir relevant
ĠSer vers
pir acy
Ġinsert ing
co ins
Ġexponential ly
Ġprof essor
ĠL os
Ġinf eas
ĠAt l
irm ware
Ġbrid ges
Ġsal t
ĠC row
Ġpl aus
Ġmarket place
SC ADA
ĠS AT
ĠD aily
Ġexhaust ive
Ġsp ir
Ġcomple teness
ĠComput e
r ases
AN T
ĠP ut
Ġencour ages
Ġrepro duce
y ou
Ġassist ant
ĠAud it
Ġappear ing
R R
Ġalign ment
Ġdiscard ed
T hen
Ġconstit utes
m ails
IN E
Ġcloud s
Ġimperson ation
g t
" :
Ġtool kit
ĠAv oid
is ms
Ġcanc er
yp es
ag o
nes day
Ġpurch ases
Ġwhe el
doc s
Ġnon interference
s un
es c
Ġtr ains
ĠRel ated
ĠPh one
Ġtw enty
ob ject
Ġwon der
id ity
Ġprof its
Ġbi ometrics
g ling
Ġcompar isons
ĠThreat s
av irus
pro gram
ĠVol ume
ad ian
Ġpres um
ĠD A
Ġuns igned
Ġb ulletin
Ġbr ands
Ġrel ied
ĠWr ite
llipt ic
ĠW all
ĠR HEL
Ġdis ks
Ġout liers
r ust
ane ous
Ġt utorial
def ense
Ġpro jected
fr ont
Ġjump s
Ġlight s
Ġdrop out
Ġmisle ading
Ġmanif old
i w
Ġexport ed
Ġarch ives
Ġobst acles
ĠClear ly
Ġincorpor ates
in ja
/ #
ĠPr im
Ġmas quer
unt ime
t x
Ġst uck
Ġderiv ation
ĠR ock
re port
Ġb ases
Ġlear ner
W hat
Ġ ic
cy ber
Ġtit led
ĠR OP
ĠP D
ĠN or
Ġsafegu ards
bo ot
Ġbrow se
ist ication
Ġp iv
Ġlic enses
ĠM ond
Ġfuzz er
ch o
Ġgate ways
Ġenumer ation
Ġinter fere
on a
Ġh its
Ġdef ended
Ex ec
Ġgroup ed
UR e
an o
s upp
Ġfollow ers
ĠSecond ly
um n
ad vert
Ġun related
Ġthem e
ĠWh o
om atic
Ġ/ >
Ġcoll isions
Ġdimension ality
Ġs sh
ĠK u
Ġmot or
Ġed ition
KE Y
ig u
Ġshort est
Ġs ought
Ġdist ort
i ates
25 0
Ġm ic
Ġg libc
ĠAr ticle
Ġ6 7
Ġper f
ms g
Ġenumer ate
bo ards
E nd
Ġst abil
ĠS ections
Ġdisc our
Ġf og
Ġdub bed
s ection
Ġhab its
ĠK it
Ġto w
Ġh al
ĠProgram ming
Ġess ence
em u
G s
def ault
ou ch
ress ive
ro ut
ĠThom as
Ġrad ius
y a
ĠK r
Sc an
az e
ĠJ un
ĠGener ation
ĠTechn iques
t cp
In tern
ĠEC U
ĠFIG URe
Ġresol ver
Ġcont ing
M ore
ĠWed nesday
g ame
Ġco ff
ĠD EF
Ġiniti ative
A ccess
Ġ6 2
Ġ8 4
Ġvol unte
t im
Ġdoz ens
ĠPl ug
ĠRef er
h oot
ĠLD AP
ORM ATION
Ġcult ural
Ġshif ted
Ġ8 9
Ġ10 24
Ġm akers
ĠGe orge
Ġconsol id
Ġinter ception
os es
ast e
Ġfl uct
ĠRad io
ĠM ex
Ġsu ited
Ġdom estic
Ġamong st
Ġelimin ating
Ġland ing
ential ly
Ġrisk y
Ġmis be
Ġcharacter ization
Ġadvertis ement
Ġtri als
Ġtimestamp s
Ġelabor ate
ĠRe LU
######## ########
cl usion
Ġdistingu ishing
Ġd ivers
Ġdirect ive
ĠT EE
omet ry
ĠB ox
Ġphilos oph
ĠRequ ired
Ġeng aging
Ġpow ered
ĠSh are
Ġcomp ound
C red
on avirus
gener ation
11 5
Ġosc ill
ĠUn ic
G N
ĠOb t
Ġs ong
ĠAss istant
Ġwalk ed
at o
Ġj our
ĠA ware
ĠK ong
Ġiss u
Ġevery day
ĠG nu
access ible
ĠOW ASP
Ġg un
Ġvalid ating
Ġdecl ass
igh ter
str act
Ġsub graph
Ġavoid ance
par ser
Ġcop e
Ġ8 7
ult i
ang er
ĠS USE
Ġge ographic
Ġstand alone
Ġfall ing
Ġbyt ecode
Ġtheore tically
ĠSt atic
Ġvisual ize
ot a
ĠF IN
oc ks
Ġ6 9
Ġfair ness
B it
Ġsynchron ous
ĠA FFECTED
Ġintegr al
Ġflag ged
on ical
Ġacknow ledge
Ġbo ards
Ġrel ig
ĠDem ocr
Ġacknowled ged
ct l
ĠH MI
Ġrev olution
Ġspeak ers
s ch
ig ma
Ġp ir
Ġem ulator
ĠSt an
ac ity
Ġpol ar
Ġst y
ĠLoc ate
Ġposs ession
Ġuna ware
sp eed
Ġdecom p
agr ams
% \
Ġrel ational
Ġrot ation
Ġany more
ĠGood fellow
Ġqual ified
Ġanaly se
ĠTL B
d ot
Ġun changed
ĠStud io
Ġon ion
20 5
Ġfact ory
Ġtim ed
Ġch unks
Ġsn iffer
Ġre vis
Ġpr icing
Ġste gan
> .
Ġhand y
b lack
s or
ĠS end
Ġup coming
Ġp ending
Ġwould n
iter ia
G C
Ġsur f
Ġinfeas ible
ĠOl ly
k b
ĠBo ard
oc ab
F ool
k er
p ad
Ġtransl ates
ĠSEL ECT
Ġinflu ences
Ġteac her
Ġv ig
ĠDan iel
ĠR uby
Ġsubscrib ers
ccess ful
pro v
Ġh ire
ĠD ut
ĠUn ified
ĠW il
Ġr uby
ĠSw ed
Ġe b
Ġpro duc
Ġbeg un
Ġn aming
L oad
Ġcrow d
r as
d el
Ġf ounder
mys ql
Ġal ias
ĠS U
Ġcons cious
re nce
Ġins urer
ĠComp rom
OR S
Ġsoph istication
Ġfor ged
ĠI OC
Ġgram mar
Ġdist ract
Ġend ing
Ġmat urity
ĠMin istry
Ġh ate
ĠR OC
ĠWhen ever
M essage
Ġtermin ology
S e
ĠMod els
ĠChar acter
Ġo mitted
Ġconsum ing
Ġblog s
Ġill ustration
Ġsnipp et
Ġlem ma
Ġcontrib uting
Ġres ides
u i
Ġwithdr aw
Ġexc lude
ap se
Ġupload ing
ĠSc hem
Ġstrength s
Ġent ert
ĠPl us
Ġsubst it
M E
Ġampl ification
Ġflo ating
Ġlab s
ĠReg istry
asp berry
le te
ĠDiv ision
Ġqu ote
Ġunint ended
I AL
AI LS
ĠMIT RE
og onal
c re
Ġ) ;
Ġske w
Ġsitu ational
iss ions
Ġth umb
Ġredirect ion
ĠM ANET
Ġautomat on
ĠHe w
ĠQ R
ĠSEC URITY
Ġbal anced
bedd ed
r ange
Ġaccident ally
Ġsk in
Ġnumer ic
Ġx i
pos s
ĠVer ification
Ġsur faces
ĠLike wise
Tr ans
constr ained
Ġacc used
Ġgu ilt
sc ope
ĠIC T
ĠT A
ĠP K
Ġviol ence
ĠE AX
Ġrend ered
m ips
ĠS ID
ĠExec utive
Ġover fitting
Ġ6 1
Ġ7 3
Ġimport ed
ĠCl uster
a ro
ĠV ision
Ġear n
Ġconfir ms
ĠS ecur
idel ity
alt ies
g it
Ġshort ly
.* |
Ġb are
Ġca ution
merc ial
lo red
Ġdraw ing
pp ings
Ġgrow n
an onym
Cl ass
Ob ject
Ġoverhead s
Ġhack s
e on
Ġacad em
VPN s
man n
e i
Ġwork place
Ġsuper visor
Ġcol d
romag netic
n as
Ġconclud es
Ġvis ually
Ġbog us
6 00
ĠB ulletins
Ġoblig ations
Ġdut ies
Ġsucceed s
Ġprogram med
bal anced
u a
ĠO V
Ġpress ing
Ġdestroy ed
[ '
ĠAss uming
Ġcre w
Ġint ensive
is her
Ġover written
d ir
Ġr id
ĠS ent
Ġincons istent
Ġex tern
Ġn t
AR PA
Ġcount ers
Ġ9 1
Ġrem ind
ĠHew lett
Ġexp ense
Ġbut tons
h n
ĠD T
ĠGu id
D et
Ġra ising
Ġbuck et
AR Y
Ġperson ality
compl iant
an i
Ġrestrict ing
f requency
Ġres ide
Ġh iring
Ġhttp d
Ġhost ile
Ġhab it
Ġsabot age
ĠC apt
ĠJ ose
Ġ( '
ĠU EFI
Ġ Î
ĠS i
ĠR OM
il st
ĠBack Track
Ġmiss ions
b ul
Ġst amp
tr ack
Ġincrement al
o ft
Ġf le
ĠSt ar
Ġorient ation
Ġt ainted
Ġinv ocation
Ġreported ly
P RO
" ),
Ġaud its
ĠCIS O
Ġv oid
Ġn ond
{ \
t ag
ĠQu ick
Ġtrade off
f m
Ġtre m
F uzz
Ġcoff ee
Ġsub mission
Ġ( ,
ĠG re
Ġbe aut
Ġspot ted
ac cept
ĠAdministr ator
Ġb esides
l ad
ĠLine ar
un ter
ig g
Ġfe et
ĠO k
ĠB inary
ar ith
ĠImpro per
F ace
Ġfin ance
pro pag
Ġab and
200 4
Ġc od
13 0
Ġun bounded
riv al
ĠAc ad
Ġtri ple
Ġpsych ological
add ress
Ġden o
Ġscient ist
ĠA part
Ġ19 94
OR E
it ically
d h
Ġam az
D DoS
Ġtalk ed
ath an
ion e
Ġgre y
it t
ut il
ĠA F
Ġmov ies
Ġconf ront
ĠDisco very
Ġmaxim al
Ġbar riers
Ġtelecommun ications
Ġinterrupt s
Ġanalog ous
Ġoverla pping
ĠI SS
Ġpredict or
ĠSk ype
ĠS l
cl oud
P L
Ġto m
Ġha ir
de vice
M ap
and al
Ġcommod ity
iquit ous
ĠS ar
ĠPRO DUC
Ġimper ative
opens use
Ġhol istic
Ġstrong est
Ġstatist ically
ĠT ensor
ust ic
ĠJo e
irect ional
10 2
ĠW EP
Ġdistingu ished
Ġcrack ed
ĠV ictim
Ġdimension al
Ġrecru it
r ator
Ġpark ing
ĠIn sp
Pro t
Ġe arth
ĠDet erm
it an
Ġdestr uctive
Ġde reference
Ġrep lication
w hen
Ġmill isec
ĠVirus Total
Ġhard ly
wit ch
ĠMethod s
Ġcalc ulates
ĠR PC
Ġt ape
Ġma ppings
B D
Ġback ed
ĠRe levant
ĠSp e
Ġaccess ibility
ain er
be it
end ar
Ġavoid s
ĠN C
ĠPro file
Ġad mitted
Ġ8 1
Ġpass ph
Ġv o
ĠR o
Ġviol ated
j acking
Ġcomfort able
ĠO p
l able
Ġsu ic
Ġ================ ========
Ġopens sl
Ġdro pper
Ġreconstruct ed
rom ium
Ġdec oded
Ġexc luded
Ġob livious
Ġmal e
Ġroom s
g g
Ġmisle ad
Ġcounterpart s
ĠPC A
det erm
gr id
ĠD istr
Ġelimin ated
Ġfor gery
Ġassign ments
int e
ĠSwit ch
m w
Ġd f
F irst
ĠD VD
ĠRec omm
at z
10 3
Ġmac ros
E ng
ud ge
>< /
ĠSov iet
ĠCyber cr
ety a
Ġconce al
ĠF uzz
Ġbl ur
Ġcut ting
ĠFore st
ĠV an
Ġfacilit ates
Ġbypass ed
ĠD rive
B ook
Ġshut down
Ġf its
Ġscreens hots
Ġsanit ised
Ġn aive
Ġmicro phone
C ustom
D is
G L
T F
le b
ĠCan adian
bu ilt
ĠCAPTC HA
ĠM AT
G et
C urrent
Ġn ested
m and
Ġapp end
b or
LE ASE
Ġnormal ization
Ġw aves
Ġsurpr ised
Ġthorough ly
Ġansw ered
Ġoff sets
Ġw ires
Ġrecover ing
Ġgener ations
Ġcrypt analysis
Ġencl aves
c m
ĠFirst ly
Ġsuff ers
Ġalter ing
Ġoffic ially
Requ est
Ġspread she
r ative
Ġim aging
Ġint ra
---------------- ------------
Ġcamp us
am ai
Qu ery
Ġst d
Ġlocal ized
ĠV i
Ġdel ivers
f ocus
Ġgover ned
Ġnecess ity
CE SS
ant ly
Ġst ub
Ġbal ancing
ak a
Ġsynchron ized
Ġprol ifer
Ġprot est
Ġsoc iet
Ġbr ight
Ġselect ive
Ġres ort
ĠKn uth
Ġsh arp
Ġbar rier
Ġcon vic
ĠV ideo
Ġo mit
ĠSo ft
Ġmiss es
ind ependent
ile vel
ĠD ie
f all
Ġindic es
ĠGr ant
Ġsudden ly
Ġh ired
Ġpro ver
ĠY ear
ĠRead er
R M
Ġnewsp aper
Ġgre w
ĠD MA
ĠOffic er
ĠOb viously
Ġbur st
ĠL ead
Ġfor got
ĠElect rical
ĠStud y
ĠT ai
gr icult
Ġerr one
gener ic
at ility
Ġovers ight
ver ted
sp onsored
read able
Ġbi ases
Ġsav ings
Ġ6 00
Ġ12 7
D ec
her lands
ĠI o
appropri ate
ĠL apl
ĠImplement ation
Ġelect ronics
F ree
ĠT TL
Ġcl ub
R AT
ĠJ IT
go ogle
ĠDLL s
B L
P P
Ġtr unc
Ġprotect ive
Ġpus hing
ĠPrivile ge
h r
qu ery
Ġcontract ors
Ġobst acle
Ġnom inal
Ġair port
Ġperman ently
Ġstation ary
ĠDistr ict
Ġmerch ant
m m
Ġdis patch
IZ ATION
ĠJ on
ĠMond ay
w ares
Ġint entional
pro fit
ĠUs ed
vari ant
requ is
ĠC are
Ġperform ances
p ing
Ġang les
st ers
ĠRegard less
Ġgr ants
" );
p ly
Ġin adequ
if ul
Ġw ishes
label ed
Ġcor poration
Ġun limited
Ġhaz ard
Ġbird s
ĠSet ting
M on
Ġb ulletins
Ġspect ral
Ġin qu
empor ary
Ġerr ata
Ġoccasion ally
Ġpurch asing
ĠO Auth
Ġmicro code
uct or
Ġfund ed
ĠPer l
ol f
Ġs id
v asive
n ic
Ġlinear ly
t iv
EE P
Ġarriv ed
1 20
Ġminim ization
Ġcons piracy
D LL
add r
Ġintent ions
Ġc os
Ġdam aging
Ex p
Ġmir ror
ĠN Y
Ġ________________________________________________________________ _______
Ġr ain
Ġfor b
Ġport fol
N I
cons uming
Ġdem ocr
Ġsum mer
ĠTrans form
Ġtraject ories
struct ured
Ġ> >
pect or
ĠS ET
Ġint end
ĠH R
Ġ7 9
12 5
Ġcorrespond ence
ĠA Es
ĠR NN
ĠFr iday
Ġp od
aus es
Ġspec ulation
Ġsock ets
Ġre training
gr ap
ĠNet herlands
ĠM ap
Ġc oded
q t
ĠSign ature
Ġtim er
ĠWeb Kit
Ġmom ents
ĠSc ott
is er
Ġcorrel ate
Ġwork stations
Ġrestrict ive
ĠT al
ĠEu cl
Ġs aves
C onn
ĠSim ulation
ick ing
Pro gram
up les
Ġhar ass
ĠCon st
A ct
ĠP ac
Ġun defined
ĠH ave
c urrent
Ġconsum ed
Ġoverwhel ming
Ġc md
Ġban ner
ĠL arge
ĠAl ong
Ġinvok ing
ĠFree BSD
ĠINF ORMATION
Ġciphertext s
Ġver b
Ġcontrib utes
as i
ĠOver flow
Ġuncert ain
Ġroot kits
Ġref ined
architect ures
B ay
ĠPen Test
ĠSub ject
FF FF
Ġdis ag
ĠPre vention
EN CE
erc ase
Ġt alent
Ġtable ts
Ġclin ical
F s
ĠI F
Ġstat istic
ĠEst ab
ĠDET AILS
Ġde grade
ost on
Ġtrack er
R em
Ġcle ver
ĠQu ery
Tech Republic
ĠG Hz
ell er
Ġpersonal ized
ĠE s
Ġreg ime
12 7
ĠL oss
Ġimpl ant
o op
Ġform ing
M y
ĠIdent ification
Ġpip e
Ġs rc
Ġmon etary
ĠSP EC
Ġv ib
Ġcarri ers
id en
Ġdash board
Ġf ired
ic he
Ġannot ations
friend ly
ĠM ary
te am
Ġtermin ates
n umber
Ġdiagn osis
Ġal leg
Lab s
s igned
Ġintrud ers
15 2
ĠFor mat
Ġeth ics
amp ered
Ġfire fox
p id
Ġch a
Ġbas elines
Ġt ip
Ġlog ins
ĠL TE
Ġur l
pl it
Ġinject ions
p lot
v ector
Ġsam ba
istrib ution
Ġhard coded
Ġcl ause
Ġadvertis ers
ĠG reat
pert ies
Ġjour ney
ĠN OP
Ġdat ing
ĠIt aly
ĠP V
ĠK al
ĠEC D
ĠK im
Ġad mit
oc ols
Ġexhib its
ĠH ACK
Ġco al
Ġpers u
Ġjo ining
g as
cal c
ord ers
ĠQuest ion
ĠIran ian
Ġinitial ize
S ub
F l
aud i
20 22
Ġcou pling
ĠR DP
c am
Ġobser ves
Ġmon ot
play er
U p
17 4
Ġhist ogram
i ang
ĠD SS
own ed
Ġlist ener
Ġcybercr iminal
ĠMa jor
ĠAnd rew
Ġpublis hers
Ġcritic ized
Ġem ulate
ĠS ant
us ually
Ġcomple ting
ĠTh anks
S ION
ĠCred it
Ġrece ption
Ġworkload s
Ġwhere by
S Y
Ġcryptoc urrencies
ĠFr ank
ĠM uch
ĠL and
Ġend ors
Ġmix ture
Ġsplit ting
Ġinvestig ator
load ed
O K
ĠEd it
Ġgeograph ical
Ġwalk ing
Ġnot or
ĠIP sec
ator ies
Ġintrins ic
Ġtrad em
ĠMinim ize
ss h
ĠFe atures
Ġlog o
b oth
Ġbackdo ored
8 203
Ġext r
c odes
ĠCh at
pp a
Com p
ĠChall enge
om aly
ĠF ROM
open office
Ġin advert
sec ond
Ġapp liance
Cl ient
ĠK E
n ote
Ġal together
gi ene
Ġther mal
Ġquestion na
Ġconf used
Ġtrad itionally
Ġinform al
ect ive
Ġassert ion
ĠMag azine
Ġorth ogonal
Ġcre ators
ĠP OP
ĠSub sequ
Ġdisadvant age
Ġtrem end
ĠCal c
SS H
ĠN LP
ĠHe art
IP AA
Ġdis pos
Ġadequ ately
ĠSt age
Ġco ins
Ġindex ed
ĠEcon omic
j ust
bre v
ĠX en
Ġfundament ally
Ġche at
Ġelev ated
Ġsp ars
Ġpo ols
ĠWe ak
poof ing
ĠT ry
Ġaccur acies
ĠCont ext
ad ec
Ġconsult ing
AP T
ĠApp s
ĠB in
ĠStr ucture
S R
Ġh unt
Ġsol ves
Ġprom oting
Ġfool ing
ĠForens ics
Ġcomm its
ĠGP G
ĠReg ister
Ġ+ --------------------------------
Ġoccurre nces
ĠT aking
ĠT er
ĠCrypt ography
ĠR oy
z en
af a
ĠPr int
er al
Ġin line
Ġ( %)
m ine
Ġsa fer
r ick
Ġ( $
Ġbe ar
ĠExperim ental
Ġc d
Ġquant ities
Ġtrans mits
im um
N R
Ġcompil ers
ĠR aspberry
ĠE H
Ġf ellow
ĠAk amai
D en
Ġweak est
Ġac o
h ash
ĠStrateg y
Ġglob e
h o
ĠCol or
ig ger
Ġmultic ast
ĠM att
pl atform
C ar
ĠTr ade
ost er
Ġn m
Ġliter ally
Ġdisc rep
ĠControl s
ĠCon cept
ide an
ĠMet a
Ġsent iment
N etwork
Ġinteract s
E B
Ġbound ing
ĠSchne ider
ou l
ĠR oad
Ġno ises
Ġpurs ue
Ġhoriz on
Ġm d
look ing
Ġadmin s
Ġs lots
Ġwr apper
Im age
2 24
ĠM ix
ĠNA SA
Ġprogramm able
ĠT s
ĠC CP
Ġre form
Ġaccom p
ĠAct ivity
Ġpro actively
Ġs ight
Ġpay off
ract ical
aby tes
ĠCr iteria
ĠGnu PG
Ġhas hed
ĠJoh ns
Ġexpos es
Ġal t
en able
Ġoper and
it a
mal icious
ĠObt aining
v s
Ġcre ator
ĠB U
Ġc ul
IS O
sp e
l ong
ĠTai wan
D roid
Ġmer ge
Ġth in
Ġdisj oint
ĠST L
Ġenfor ces
K L
ĠL ED
Ġguilt y
ĠN iger
Ġcor onavirus
ĠIns ight
r ations
Ġre trans
Ġtag ged
Ġdescript or
j o
Ġv ocab
ĠN TP
Ġem br
Ġvig il
Ġhighlight ing
Ġep id
S W
ri ze
ĠNort on
Ġev il
Ġqu iet
Ġn u
ĠCre ating
pro xy
S ite
k ins
Ġre used
Ġar med
ĠCom ments
ke ys
ĠCl inton
ĠRep resent
Ġimpl ied
ul ary
ile y
Ġdemand ing
Ġdisapp ear
Ġbehaviour s
ell s
ĠValid ation
S pec
Ġevolution ary
Ġmer ged
Ġdevelop s
P o
( $
Ġres ume
k aspersky
Ġseed s
ĠMed ical
Ġformal ize
Ġrep licate
Ġb old
Ġad ult
ĠS ep
ser ve
Ġle x
ĠN eed
person al
Ġow ns
ĠInd ividual
Ġbro ke
ĠC ort
ĠHE AD
Ġbelie fs
L ock
ever se
ent oo
St art
Ġinc urs
ĠN FS
Ġsh r
ĠE D
Al though
Ġd ad
app lication
G T
Ġc am
ĠNat ural
ĠAutom ated
ĠSurve y
Ġplaus ible
Ġmod ulation
Ġcomple tes
rol ling
ĠIm ag
Ġstri ke
20 9
ĠRest rict
ĠIn v
Ġanaly tic
S m
Ġf iction
Ġauto encoder
st ore
ĠOther s
Ġbal lot
red iction
sh tml
Ġdigit ally
ĠF C
Ġphenomen a
Ġpool ing
Ġinf ring
ent ry
ĠThe ory
ĠConfidential ity
Ġgr and
Ġmoment um
Ġthough ts
Ġm erg
: /
load ing
Ġlog istic
Ġ7 1
M NIST
Ġcur sor
ort ium
ĠHy brid
Ġsubsystem s
Ġoptim izer
Ġsoft max
re pre
Ġexpect s
B lock
11 1
Ġmat h
Ġvis itor
cent er
sp ot
11 2
ĠGuard ian
ĠEn h
ĠVo IP
ĠB ound
ĠPo ly
Ġtransform s
Ġelect romagnetic
iz ers
ĠM PC
Ġmaxim izing
Ġhealth y
V ulner
Ġp k
asp x
ĠPro ced
Ġph arm
Ġmult imedia
Ġquadr atic
oll ary
Ġdi pl
ĠCNN s
ĠV P
p x
Ġ( (
Ġsurprising ly
Ġattract ed
R AS
ĠPart ners
Ġbill ions
Ġdev oted
u ced
install ed
ĠBack up
ĠSt ream
N E
f ed
Ġevery where
H el
Ġgot ten
ar n
aut hent
log in
5 12
Ġt ie
Ġcompl aint
Ġli qu
Ġscen es
ĠCom pl
ogene ity
ĠW AR
ĠD est
Ġposter ior
Ġreal ization
load er
fe it
run ner
cept ibility
ĠMe asure
D irect
Ġh oney
ap y
Ġtable t
Ġi pt
ĠEd itor
ĠPre viously
Ġdeep ly
Ġtun ed
ĠC ipher
ĠAc cept
Ġub iquitous
Ġacqu iring
ĠU ber
.*| .*|
E nc
repre ne
S u
ĠRec overy
Ġlett ing
ili ency
g em
Ġtrans ist
b one
Ġanten nas
Ġt aught
ult y
ĠAct iv
Ġconv inc
Ġpen alties
ĠFlor ida
TION S
ĠQ oS
Ġemerg ence
for ge
Ġgre edy
Cy ber
Ġp c
Ġatt itude
Ġsp ons
ect able
at ches
ĠF raud
ĠSever ity
ĠB C
Ġregul ators
11 8
Ġhom omorphic
ĠF ake
ĠAg ents
Ġimp ed
ĠAb stract
AL U
Ġcompr ised
ĠIm m
Ġf ell
igur ations
Ġtra its
virt ual
Ġanticip ate
20 2
Ġintegr ates
O U
R a
ĠFP GA
ir med
ĠWilli ams
Ġshif ting
ul um
Ġexplos ion
an ish
Ġb orrow
Ġterminal s
m achine
ir y
Ġlik es
ĠL isp
ĠIn nov
St ack
Ġins iders
Ġprepar ing
acr ific
Ġsusp ended
Ġtr aced
Ġlaws uit
ab el
Ġrest ored
Ġhor se
G en
11 9
Ġcomprehen s
Ġemot ional
ĠD river
IR T
as tern
ĠT X
Ġpart ly
Ġrad iation
uc ing
Ph ysical
Ġge ometric
ĠESX i
adec imal
C ol
j ava
ĠW ay
Add ress
h oc
ip al
Ġtrack ers
Ġf lying
ĠJ ul
ì Ŀ
Ġunpredict able
s i
ĠVir gin
Ġdist rict
erm an
with out
Ġ19 60
Ġgir l
v alu
ĠPre cision
Ġconsist ed
Ġwat ched
Ġset t
Ġapart ment
de velop
ĠM DP
Ġ( .
ĠN ex
Ġwhere in
ĠZ oom
Ġguid ed
ĠGP Us
Ġhijack ed
Ġcontrovers ial
B s
ĠB ypass
ĠTh ink
lud es
Ġguess es
enter prise
T ext
Ġshif ts
ul se
Ġhead s
engine ering
ĠT ree
Ġadv ent
Ġterror ism
ur a
Ġprefix es
ĠM ig
Ġlaun ches
Ġemploy er
Ġunsu ccessful
ec e
ĠR en
vel ength
ĠAC E
Ġalph abet
IC ATION
ĠMc C
Ġdrast ically
Ġconstruct ions
C heck
ĠN VD
Ġprev al
Ġarriv es
b ow
Ġp ocket
ĠF ox
iv ari
ĠSc iences
Ġe ap
Ġcontrad ict
Upd ate
ĠSub sc
Ġst ood
r ank
Ġco herent
Ġsubst ation
Ġw ife
ĠEC Us
rep resent
ĠT emporal
est ab
ĠH or
Ġstand ing
Ġj ack
Ġk il
olic ies
16 0
ĠU E
sec ret
ĠFIG URE
Ġsuspic ion
---- --
re lation
ĠInit ially
Ġhand ful
M o
ĠBrow n
Ġ|------------ +----------------
ĠS ky
Ġnotice able
ĠSh ow
Ġl ure
Ġg ift
Ġminim izes
Lib rary
in ent
ĠEm ot
Ġin bound
Ġinc l
Ġquant ization
Ġdev ast
Ġannot ated
d ocument
ĠIT RC
l an
Ġlaun dering
Ġimp ractical
ili pp
) ]
b usiness
ĠF ocus
Ġretail ers
Ġ19 93
ĠSe qu
ĠCert ain
Ġt ies
m ond
ĠL ife
12 1
ĠS ANS
Ġthem es
. .
ĠP otential
Ġbi ased
Ġprint ers
Ġcan onical
ĠF ar
craft ed
x i
Ġremov able
G ener
ĠWorld wide
Ġjud gment
ĠUnt il
t rivial
l ie
Ġindepend ence
ĠInt elligent
ĠOlly Dbg
ĠâĢ ¢
eng ers
Ġequ als
Ġm m
ĠB oston
id able
Ġled ger
Ġwa its
ff ected
Ġdr ag
Ġsubt ract
Ġkeyst roke
ĠV oice
Ġrout ed
ĠK re
ĠE IP
Ġgu ards
ĠS enior
Ġ1 40
Ġunre li
Ġl es
V C
ĠI A
Ġent r
ic ian
Ġsort ed
ĠScen ario
ut ations
Ġclean ing
Ġimper ceptible
ĠS ecuring
Ġenhance ment
Ġi Cloud
Ġreal m
ĠO w
Ġdetect able
ĠS F
ul s
ĠActive X
i ot
pr ising
Ġ2 55
Ġclar ity
Ġf an
ĠR og
Ġst ret
o ys
Ġst ole
Ġed itors
here nce
ĠB a
Ġfif th
Ġg am
ĠM arc
ĠF F
Ġforecast ing
Ġw id
M s
Ġblock chains
ĠThreat post
b es
ĠRes il
ĠExpos ures
it ations
Ġinnoc ent
ĠGeorg ia
P ar
ĠS aaS
o or
ĠR ay
group s
Ġhouse hold
Ġcovari ance
ent ions
ĠA ST
Ġv et
ĠR ules
Ġredirect s
> ,
ic ine
Ġin efficient
ĠSp y
Ġanalys ed
++ ++
lo p
Ġlearn ers
t uning
Ġsw ap
Ġaco ustic
Ġdam aged
ĠEst im
Ġcred ibility
ĠSecret ary
S py
ĠI an
Ġover ly
Ġaccom pan
Ġderiv ative
r ors
S VM
ĠFind ing
ĠNon etheless
ĠCo oper
Ġdownt ime
ĠConn ection
Ã Ĺ
ĠQ ue
ĠWilli am
p olicy
f i
Ġmention ing
Ġlog arith
Ġgraph ic
W in
Ġpreval ence
ĠComp onent
ĠAngel es
pass wd
Ġex empl
Ġsurv ive
Ġdec line
ĠI re
inc lude
ĠComplex ity
O O
ĠB ing
() ;
Ġas ide
Ġdiscipl ines
Ġencour aging
ĠMem bers
Ġt uples
Ġdynam ical
T I
Con f
Ġfast est
Acc ording
Ġacceler ate
Ġlegis l
ik es
Ġexplan ations
r us
Ġ" /
Ġcasc ading
ĠI X
Ġs acrific
10 6
ad b
ĠD RL
ĠRegard ing
ĠB etween
Ġpr uning
J S
ĠDo es
Ġpur su
ĠT ri
So ftware
ĠF D
ĠP on
techn ical
Ġformal ism
Ġcustom ize
ĠR Q
Ġsyn c
olic ited
it tle
Ġentit led
r ack
end ers
Ġfil ms
d est
Ġautonom y
P ort
om in
Ġanticip ated
ĠAdd ing
Ġorgan ize
Ġinject s
Ġris ing
Ġworkflow s
Ġdiscipl ine
ĠD AG
Ġass ure
Ġpres idential
ĠEucl idean
Ġn est
ĠP ID
F urther
Ġed ited
un nel
ĠK ar
ph ic
Ġmillisec onds
Ġgener ality
ocum ents
d ra
W P
ĠJ ones
p ng
per l
Ġvirtual ized
Ġclos ure
Ġappe al
ĠS und
ĠMad ry
Ġhe ro
Ġpul se
Ġ3 60
ĠTarget ed
Ġapp ended
me an
Ġspir it
Ġdis par
Ġth ick
Ġb low
ĠG h
Ġassert ions
Ġdisc ont
Ġprec ond
ĠT w
Ġanalyz er
ĠWh ich
dem and
Ġ4 43
Ġd imin
ĠP ur
Ġdeterm in
Ġcritic ism
ĠI IS
Ġdead line
g ree
ĠS UM
Ġsp onsored
ĠNAT O
r v
Ġprec a
su pervised
ou rier
Ġneed ing
Ġfight ing
Ġsty les
Ġfa ith
ur able
Ġpred ecess
Ġvehic ular
ĠR untime
ĠM ob
Ġsp l
Ġaver aged
Ġsub domains
pect ing
Ġcur ric
ia o
O nce
N e
S ee
Ġhol der
Ġlib re
ĠB und
Ġconflic ting
Ġjournal ists
av or
mark et
Ġextern ally
Ġportfol io
ĠA U
Ġpenet rate
Ġdest inations
Ġ ia
ĠG host
Ġun pre
ĠJ ob
ĠCh a
Ġhe aring
Ġupgr ading
s ql
ĠHist or
en et
ic ol
Ġcivil ian
M R
ĠC old
mit t
ĠM iller
Ġrol ling
ce an
ĠB E
Ġrest oration
Ġconver ting
Ġst ays
Ġun common
Ġabstr actions
Ġcanc el
Ġad apter
ĠHP C
Ġinfect ing
ĠS audi
Ġpun ish
un es
Ġsyntact ic
ĠA G
Ġipt ables
Ġlog on
Ġincred ibly
sh adow
Pack ard
ĠC over
U SS
ind ing
ĠJ oint
Ġsevere ly
ĠBe gin
aaaa aaaa
Ġt een
Ġen rich
ĠD ave
ĠOR AM
Ġto ur
pt ive
a T
ĠAP K
Ġref ine
Ġinvest ing
w ik
Ġt c
ĠC amer
Ġcl ip
c hen
ĠE asy
T IP
Ġhead quarters
Ġs un
ĠU l
r ain
ĠDu qu
bre aking
Ġver ifiable
T argeted
Ġscam mer
Ġjust ify
Ġtroubles hoot
Ġsh apes
Ġinequ ality
F V
ĠWeb site
Ġt une
ĠB ru
fusc ation
Ġm yst
ĠRight s
det ail
ĠD WORD
orig in
T URE
ĠCH AP
Ġincur red
C ode
ĠY u
Ġdown stream
ĠRem ark
struct ions
d ed
s end
Ġsh ipping
Ġundes irable
ĠN ets
Ġinv ented
ĠT ay
Ġprohib ited
ĠIre land
) }
ic ians
Ġreg ulated
Ġbudget s
Ġleg it
int ensive
Ġt ang
ĠIde ally
it ate
Ġdeclar ation
Ġdece ive
St ream
ĠInt ent
Ġp ane
Ġsp ray
ĠSy nt
ĠM OD
ĠBe havior
ĠAPT s
ĠThrough out
ĠQual ity
ĠUnivers al
= '
ĠN ov
hel f
30 8
ĠCert ified
Ġv ir
Ġfr ustr
Ġon board
Ġin ability
ch ip
Ġdig est
Ġtit les
Ġav en
Ġalgebra ic
Ġdec ay
by tes
Ġcompl aints
ĠRout ing
Ġspars ity
Ġ1 80
are r
Ġkeylog ger
Ġ1 60
ok ing
v ia
at us
Ġqu otes
14 7
R ed
ĠM Hz
sh are
Ġsl iding
Ġrobot ic
ĠS ir
Ġorigin ate
11 7
ĠAnn ual
ĠP AT
Ġquer ied
g ement
Ġiniti ator
ĠL y
sec ured
act ed
ĠTel net
Ġbeh aves
Ġdisturb ance
ĠW indow
sh ots
ĠIT S
Ġdoct or
Ġansw ering
ĠSet up
ĠAutom atic
ivari ate
Ġli able
Ġmathemat ics
ĠProf essor
Ġm il
14 0
mon th
p owered
Ġc ust
EAR CH
ĠMod bus
Ġweek end
ĠI ter
Ġformal ized
valid ation
i per
Ġo k
Ġd pk
ĠN FC
Ġsh ipped
Ġmut ually
W are
Ġphot ograph
Ġcitiz en
Ġv on
ĠAss ume
Ġconsult ant
3 01
initial ized
Ġill icit
ĠEns ure
T B
pp y
Ġimpact ing
Ġla id
f ont
ĠB IM
Ġun fortunately
st atic
ĠAl ert
M et
Ġad verse
Ġscal ed
com ings
ĠFr ont
ĠIS BN
ĠL ou
Ġinadequ ate
ĠH idden
ĠT ow
Ġr ac
ĠNetwork ing
Ġp lott
7 00
Ġtact ical
Ġb oss
ĠCo in
EM U
Ġapp endix
ĠN AS
ĠModer ate
it ch
Ġuseful ness
Ġexfiltr ate
C ert
A m
Ġinher it
hip s
ĠH ill
keep ing
ĠSp anish
ĠR everse
Ġsubmit ting
Ġin appropriate
Ġfigure d
gu ard
Ġaction able
Ġcl imate
tr ace
ĠTerm inal
Ġalgorithm ic
Ġintercept ing
t wo
AN CE
Ġhop ing
n an
ĠEx pl
ĠIDS s
ĠAfric an
Ġcollabor ate
M ail
Ġcompet e
Ġres erv
or acle
Ġsp ying
Ġb ands
Ġsuic ide
Ġsim ulating
;& #
Ġf ing
Ġu pt
F O
o cc
ĠG ro
Ġur ban
D ES
ĠPar liament
k es
AC L
ĠT E
Ġself ish
ĠMIT M
Ġpropos ition
Ġprom oted
ĠRES EARCH
Ġd ream
ĠGr ay
Ġp ione
Ġaff il
ĠDirect ive
EC TION
feren cing
ist ered
ĠE le
Ġvocab ulary
Ġexam ines
Ġpar sed
1 32
Ġund ers
ĠCor porate
Ġbottlen eck
a uthor
ĠC it
Ġann oy
amb da
Ġw alls
Ġsp ring
Ġelimin ates
e in
Ġ ë
Ġm iles
Ġm i
Ġcentr ality
Ġgarb age
ab it
Ġp y
s ur
ĠTrad itional
Ġinstrum ents
lang pack
Ġmotiv ate
ĠR PM
Ġl en
ĠM FA
R un
Ġsubs id
vel l
Ġconver ges
Ġbuy er
ather ing
Ġlight ing
Ġconcurrent ly
ĠDeep Fool
ke ley
control ler
ĠD EEP
Ġwa velength
ĠO h
Ġi i
14 1
onom ous
Ġcompens ation
Ġn inja
Ġ ith
Ġign oring
agn ostic
alle ts
Ġspam mers
Ġrev oked
supp lied
Ġen vision
P riv
b ash
Ġw ip
Ġemploy ers
ĠModel ing
ĠM im
ĠSam ple
ag onal
ĠD ARPA
Ġlab elled
Th read
Ġoverlook ed
ĠT itle
driv ing
Ġengine ered
overn ment
reg ard
IS K
Ġin version
ĠSim ply
det ection
Ġdisconn ected
ve hicle
cont ract
Ġth ro
ĠR i
Ġha w
Le aks
ĠOS I
ĠEN ISA
ĠMay be
s is
ĠInvestig ation
gress ion
s ym
ĠG i
Ġpr on
Ġres iliency
Ġprint f
c opy
al pha
Ġwork shop
h ou
TER S
Ġab brev
Ġre writing
Ġalle v
Ġtend ency
r ons
ĠAl most
ĠAccording ly
ĠAl pha
P GD
Ġcont ention
R AM
ĠVer izon
ĠEvent ually
Ġout lier
ĠS up
Ġtr uck
Ġactiv ations
Ġuns olicited
empl ate
Ġin accessible
Ġcomp ress
ol ved
c py
Ġtop ological
l arge
ĠI L
e ap
Ġshort comings
omet hing
Ġelect ro
ĠRE LEASE
IS P
ĠArch ive
lear n
b ad
18 0
Ġa uction
Ġpass port
Ġconvinc ing
i ability
ur ious
ĠL td
Ġmotiv ations
ĠAss umption
ĠY e
Ġpat ents
ĠPartic ip
wh o
Ġp aint
Ġpre requis
ĠS K
ar us
ch at
ĠM el
lic ates
E m
Ġrep orter
Re g
Ġelect ron
Ġanch or
Ġcheck er
n P
ĠRy an
ĠA LL
ze ged
+ --------------------------------
Ġal ive
Ġsched ules
ĠReg ulation
ad vers
ĠPh ilipp
ĠDr upal
24 2
iz ard
m akers
Ġfe at
lo om
kr b
Ġworkaround s
ĠLL VM
] [
b ank
aut om
Ġear ned
Ġhex adecimal
conn ect
t i
Ġ0 8
ĠStr ong
ĠMo ore
ĠR ow
r m
Ġb ol
Ġre write
Ġli ber
mod ified
ĠD a
D om
ĠOP ER
ĠAppro ach
ĠG E
Ġdef ects
Ġleg ally
ĠAuth ors
j ax
ĠH IPAA
E r
perform ance
ill ed
ĠUn less
There fore
Ġg ig
Ġdo g
ĠSp ain
Ġmicroarchitect ural
ER S
ĠZh u
Ġfill ing
Ġaccount ed
Ġsanit ization
Ġsym pt
Ġse ized
ĠCarol ina
Ġlibre office
ĠCh ain
Ġcategor ize
âĢĻ .
Ġthreat ening
ed om
ĠCo ord
Ġmas ks
Ġdut y
t ask
in ating
Ġsu pers
db g
s ome
Ġshe et
ĠAC C
Ġk ick
zeged y
Ġste ering
Ġterm ed
Ġsatell ites
TL M
Ġb ars
O B
Ġmes h
neg ative
Ġdrawback s
Ġn ss
Ġsuccess ive
Ġbuy ers
Ġthreat ened
astro phic
) "
ĠSh ared
ock ing
Ġpossess es
Ġ19 92
Ġdoz en
h our
pro c
um s
Ġn ont
W T
Ġco arse
ĠAl liance
Ġsell er
) /
Ġstr ange
P ath
ĠJohns on
Ġcontract or
patch ing
ĠN IDS
Ġpost gresql
Ġp il
Intern et
ĠT C
ĠStud ies
01 0
ĠJ im
Ġwear able
Ġbo olean
U ID
Ġfol ks
ul runner
im port
ĠCO UN
Ġpop ulations
i encies
Ġms f
ld er
Ġstri p
ĠS ER
Ġph rases
ĠEnc rypt
Ġprint s
5 14
ĠCam bridge
Ġinc on
tr ue
Ġpoly m
Ġno body
Ġf ines
SS EC
Ġwe aken
ind ust
Ġpers ist
Ġe lliptic
ĠWhere as
Ġhypothes es
p ol
Ġlicens ing
ĠPr ime
ĠAware ness
let ter
ĠPo ison
s ince
Ġres c
Ġwatermark ing
Ġl ect
ĠP ir
ĠAd aptive
Ġprovision ing
ĠR a
Ġconv in
ĠScan ner
Ġf t
Ġsol ar
2 13
l anguage
Ġreli ance
Ġret ention
Ġobfusc ate
m essage
11 4
V s
all ing
riv en
Ġear ning
Ġaward ed
Ġ 0000
ugh t
ĠQuant um
ed ing
us p
Ġded uce
Ġâ Ĩ
ĠEmot et
Ġdest ro
Ġprior i
Ġret ained
ĠMc D
ou fl
M al
ĠB EC
Ġt one
ĠWik i
O ver
Ġpassph rase
ĠG ames
ĠSP I
ĠT iny
ad y
Ġfi ber
ĠN ames
pr act
Ġasympt otic
pl aces
ĠMess enger
Ġent reprene
Ġassoci ations
H ost
Ġt ier
ĠExper iment
ic her
ro t
Ġguess ed
Ġout lines
In fo
Ġpert aining
ĠAn omaly
Ġq emu
ock ets
C isco
Ġneg atively
Ġpul ses
e vent
Ġrep licated
Ġuncertaint ies
W AN
ĠM IL
ĠD ell
Ġphilosoph y
ĠD ist
14 4
F ix
h us
Ġerrone ous
re le
Ġbreakpoint s
u f
Ġvol unt
m id
ĠP ent
ĠUS D
it ably
Ġperipher al
P er
ĠD ish
n amed
Ġdisturb ances
en u
ĠUkrain ian
Ġt ensor
al ian
10 8
Ġconver ts
pp ler
w atch
00 4
me ans
Ġdeterm ination
system s
ĠF S
ex cept
Ġb is
W inds
vert ising
Ġdomin ated
Ġstate ful
reg ular
l inks
ĠF ive
Ġunreli able
Ġp ins
Ġle an
p arent
ĠD ATA
ĠE ll
St ate
+------------ -
Ġt ampered
w ave
ser ies
Ġstrug gle
ĠLi ber
ĠStep hen
ĠCOM M
Ġsubject ive
ĠStr ing
Ġr ail
Ġg ear
Ġentert ainment
N B
Ġsucceed ed
head ers
ĠEst on
ĠSpec ific
ĠCert ification
Ġtel net
Ġscal ar
Go ogle
Ġind ict
iss on
ĠUlt imately
ĠQ KD
32 7
ĠEqu ipment
S ource
ĠB rian
Ġl acking
ĠF I
ĠM ur
Ġdescript ors
ĠUnic ode
ĠP rom
Ġconcent ration
Ġad ults
ĠDrop box
ĠZ IP
0 80
O UR
Ġtab s
ĠTay lor
Ġresp onder
ĠBack ground
Ġreg ret
Ġgrad uate
Ġpreser ves
comp rom
Ġprov isions
Ġinvok es
ĠD SA
ĠVII I
Ġpan ic
it atively
ĠE VM
ĠOrig inal
Ġscrut iny
Ġsemant ically
ĠIn ception
ou ther
' ]
ĠR ing
Ġ um
Ġsupp lier
af ety
Ġt empt
Ġ==== =
Ġsupp lies
Ġresol ving
Ġad ware
Ġsequential ly
sh ared
u ent
el d
ĠF E
tx z
ĠM is
Ġcollect ively
in n
ĠRec ord
ĠBack door
Ġtop ologies
Ġout ages
ĠIdent ifying
ick er
Ġinstant iated
ĠEng land
Ġdis miss
Ġpropag ated
Ġred es
Ġexpress ive
Ġdil ig
Ġfluct u
Ġmod em
ĠD EC
Custom ers
T AC
n ight
Ġshould n
Ġhy giene
ĠMex ico
Ġdevast ating
un iverse
ĠE cho
Ġse at
st one
ĠPl anning
R HSA
V S
ĠD OC
ĠHealth care
Th us
ĠPe er
hed ul
Ġauthentic ating
Ġcrow ds
Ġren amed
Ġequ ality
Ġback bone
ĠG entoo
c ar
ĠRe le
Ġtext ual
p op
des ign
ĠSpr ing
Ġor iented
ĠN ear
20 8
Ġmerg ing
Ġphot on
ĠS ide
ĠAc qu
ĠG S
ĠV lad
Ġt ion
Tr ust
Ġre vised
Ġv ault
ĠC e
or andom
Ġinfiltr ate
es pecially
Ġrestaur ant
ol ars
Ġw allets
ĠPRODUC TS
ĠIdent ify
ĠPos itive
la unch
ĠPrinc i
Ġpreser vation
outher n
ĠX eon
Ġ10 4
ĠFail ure
ĠUpd ates
ĠB LE
com ments
Ġpresum ably
ĠI MD
Ġprob able
Ġimport s
Ġtal ks
ĠT ables
B ack
Ġdisrupt ive
24 0
op her
Ġar ising
Ġdisadvant ages
Ġg a
c pp
an ium
ct or
Ġz eros
Ġspecial ists
( ,
d ays
Ġcompr ise
Ġpropos ing
ĠP ixel
ific ant
f ish
Ġz ip
ĠFore ign
Ġadvert ised
ĠTrans actions
ĠV ice
ĠC le
M em
s helf
ĠF TC
ĠCh ic
Ġpair wise
Ġche aper
Ġconf using
for cing
ĠR HSA
St ep
Ġar c
Ġind uction
Ġun ob
amet ers
ic ity
ĠR B
Ġsynthes ized
ĠT M
ĠS a
Ġl ane
Ġanim als
Ġbroadcast s
Ġtrustworth iness
Ġ19 91
AD I
Ġterror ists
ĠDo D
Z E
Ġinform ative
ĠProgram s
Ġmis match
Ġpick ing
ĠOffic ial
Ġaccident al
Ġaccount able
resp ons
ĠInc or
ĠC B
d ue
inger print
per f
Ġge ometry
Ġsubsc riber
ol es
t oler
ĠQ EMU
ĠSolar Winds
al a
ĠCon sole
Ġviol ates
amb ling
i u
Ġw are
12 2
ĠPac ific
ĠSubsc riber
ĠBas ically
al and
Ġpar am
ĠF M
L AB
l am
ĠMet rics
Ġinstant ly
Ġdi agrams
Ġmarg inal
Ġf o
Ġf ax
Ġi T
Ġinacc urate
pos itive
ĠS ector
ĠPaper not
Ġtr act
ĠP KI
igg ered
ĠMan ual
D H
ĠT ab
ĠC ob
ble ed
Ġe g
ĠSen ate
ĠBi ometric
Ġdecrypt ing
Ġdecrypt s
Ġaccompan ied
S H
dig it
Ġcontact ing
Ġhint s
Ġsh ips
Ġpl astic
Ġgo ogle
ĠCF G
ĠS ong
omet ers
Ġporn ography
Ġinadvert ently
In formation
ĠColl abor
ROP ER
g ood
Ġfoot hold
Ġd u
ĠCom merce
Ġpol itic
AN Y
bl ue
Ġqu arant
ĠIMP ROPER
Ġmem ories
Ġeditor ial
Ġexperiment ally
ĠS AM
ĠPort al
Ġdem o
ĠDISC USS
Ġde vised
In ter
cr imin
ĠCons umer
Ġsepar ating
ĠP ak
ĠSh aring
ĠGet ting
Ġclock s
ĠFunction al
ist ical
Ġsp orts
Ġstack s
Ġtremend ous
20 6
ĠZe us
, '
ĠU TC
ĠCons ult
ony ms
ĠDevelop ers
Ġforgot ten
Ġc m
b ol
F LO
ĠC BC
art y
Ġampl itude
z o
ĠB ro
ĠTh urs
V A
Ġal pha
H ack
Ġtext ure
da emon
am ples
Ġy ellow
ell ite
Ġiniti ates
C ore
pat ches
D O
ĠE T
Ġimp ression
Ġprof itable
w p
m ade
Ġ1 18
al though
Ġclar ify
ĠG ra
E nt
Ġcompr ising
Ġde bit
ĠLOC ATION
yn c
onor able
ur ies
Ġcount ed
Ġbill ing
32 3
Ġsubsc ript
ĠB irth
fact ory
Ġmix ing
hers elf
Ġcl ues
v o
ĠEss entially
P r
ĠDet ecting
L OC
Ġcour ts
Ġretrie ving
Ġto uc
in em
ĠY ang
ĠTyp ical
ĠCom mercial
Ġmanip ulations
Ġdiscont inu
ĠC ivil
Ġphot ons
70 7
wr ites
gricult ure
Ġl s
hod an
Ġundet ectable
Ġlay ered
h ack
Ġslic es
tr uth
Ġselect ively
d ifferent
r aries
H and
le e
ĠEnt ry
Ġd ots
Ġbit coins
Ad min
i ber
Ġcentr if
ns el
UC TURE
ĠP redict
Ġcat astrophic
we et
Ġmanufact ured
ĠO ptions
ĠDef ault
ĠF requency
Ġp ot
Ġlo an
ĠI r
Ġexp ired
ĠD ATE
ST R
Ġpartic les
ĠMark eting
Ġrelax ed
w ater
Ġass ault
Ġhel per
Ġp ays
ĠP oS
ĠOr der
Ġbrok er
ens ing
Ġwarrant ies
9 00
pro ject
ĠDev Ops
ĠSpr inger
Ġatt orney
bal ance
U E
V P
n am
ĠS lackware
ex isting
Ġcould n
to ol
ow ers
Ġcent ered
Ġminim ized
ĠCh ild
Ġop code
l aim
Ġgovernment al
ĠM IM
ĠE AP
Ġoptim um
end ment
ĠSM T
28 2
Ġsp ike
Ġexperiment ation
ĠIM AP
ĠCon versely
ĠBer keley
Ġmult ilevel
Ġout lets
Ġd ies
ĠL en
ĠEmer gency
new s
Ġsum m
ĠProv ider
Ġcooper ate
Ġsqu ee
Ġsupposed ly
Ġmerch ants
Ġfeed ing
Ġdece ptive
Ġadjust ing
Ġtravel ing
or atory
miss ible
ĠA NN
ig e
ĠF eed
Ġl ag
Ġb on
Ġauthor itative
U sers
Ġprom ises
ĠR oman
ĠDou ble
ĠZ ig
99 9
Ġcalib ration
i ro
Ġrepresent atives
ĠBru ce
Ġsan ct
ĠV A
ĠC Y
ĠC MS
Ġcont am
CS I
ĠTe ams
Ġdisrupt ions
ec raft
Ġb read
ĠP ict
P ay
LO Y
Ġsub rout
Ġprompt s
Ġwh ilst
im ilar
Ġdeal t
10 9
S earch
Ġmind set
Ġexplo res
s el
Ġsur ge
ter ror
Ġz ombie
m ount
Ġconfigur able
ĠOpen V
Ġdec imal
ĠPM U
Ġres idents
Ġamb igu
ĠM R
op ol
. '
ĠImag ine
B U
er k
propag ation
anc ies
Ġtheore ms
Ġshould er
ĠAss embly
ĠElect ronics
Ġlawy er
Ġun iverse
C WE
Ġhaz ards
Ġweb server
Ġmask ed
Ġspokes person
ĠB SD
ĠAgain st
ĠÂ £
ĠBr and
Ġsupp ress
Ġinter depend
ĠLeg al
ĠM aking
ĠThurs day
Ġwar n
Ġgarb led
Ġult r
u w
Ĥ ¬
om ed
ĠMin ister
ĠK ee
ulo us
ĠC ounty
ĠW u
Ġdisc losing
t z
Ġsu ites
\ \
Ġun man
art ner
ĠChic ago
ĠD V
ĠHel lo
ĠPh ot
o en
L D
ĠM ilitary
ĠContinu ous
ĠIt alian
ĠZe aland
a que
ĠWSN s
ĠM AS
Ar ch
Ġensure d
Ġconv entions
O ffice
Ġdiver gence
sole te
Ġprolifer ation
K C
Ġp aging
ĠX u
35 8
ach able
ĠExt ended
Ġlist ings
Ġamaz ing
ex per
valu ed
ĠF eder
ĠG T
Ġb il
Ġover se
ĠChrist ian
ĠEL F
ĠN avig
n i
ĠF unctions
Ġexperi encing
ĠForens ic
Ġnon ces
ĠNET WOR
ĠPak istan
ĠGAN s
he ld
an aly
st ud
11 3
m b
ant om
Ġobserv ability
Ġproduct ive
ĠB O
ĠD ense
Ġblack box
Ġth inks
Ġbroadcast ing
P I
Ġg it
ĠLab el
Ġcl auses
Ġd b
Ġto wn
F rame
p redict
ly mp
re lease
enc oded
Ġspo ke
ĠCT F
Ġyou n
O ther
ĠI KE
hib it
loc ate
P D
ĠAnt ivirus
gram s
ĠP in
EN TS
ĠP II
p in
ar ming
C V
ĠB B
Ġacc idents
Ġe Bay
Ġsub space
Ġc urrencies
gre SQL
Ġaccomp any
Y PT
om y
opt im
Ġobser vers
Ġdepos it
Ġprem ise
Ġview point
Ġped est
e ither
Ġcounter feit
Ġposition ing
p n
Ġorig ins
ĠRESEARCH ER
Ġhas n
Ġmor al
he tical
av ity
Ġout standing
D rive
Ġmod ulo
ĠCon str
Ġannounce ments
Cred entials
u ke
cc m
Ġill um
' :
22 9
Ġtransform ing
Ġpseud orandom
ĠSh ould
Ġnot ices
ĠTyp es
ĠF irmware
Ġassoci ates
ĠRequire ments
Ġcommerc ially
ml cs
Ġupload s
Ġcategor ical
ig her
zer land
wh ite
ĠA h
ET F
Ġstandard ization
Ġreal izing
Ġminor ity
ir a
Ġclass ifies
ĠIntegr ated
ĠRec ords
ĠLog in
TR UCTURE
RAS TRUCTURE
umer ic
Ġspecial ist
Ġor bit
Ġc ab
Ġv acc
riv ing
Ġexp iration
ĠF ab
Ġhur t
Ġover writing
ĠE astern
ex istent
Ġin exp
ĠC RC
Ġsp anning
Ġ19 88
ĠINF RASTRUCTURE
ĠF ashion
In it
o ch
Ġbill s
ĠT AC
Ġstegan ography
Ġh ides
w alk
ĠP TR
Ġquestionna ire
13 5
Ġdang ers
ĠPass words
G ET
sh own
Ġsnap shots
Ġcoll apse
ag ger
ĠG ar
Ġinev itably
Ġstand point
ĠCon clusion
ws us
I ns
ĠEth ical
N ow
Ġgrant ing
Ġt f
Ġdisgu ise
oc ations
m osp
Ġdecl are
Int el
ĠF ood
ĠDut ch
/ )
Ġloc ating
ĠAUT OM
Ġh ops
Ġg n
Ġgroup ing
an et
Ġto y
Ġacceler ometer
Ġinv ited
Ġjurisd iction
Ġgl ance
cont act
Ġspreadshe et
ĠL uck
ĠB log
char acter
ĠC GI
ĠB IND
an es
Ġhyper parameter
s mp
Ġsp aw
ĠS ITE
Ġal beit
ĠTele gram
ĠLat in
Ġgu ides
110 9
X iv
Ġv en
ro c
t ree
: [
Ġmaxim izes
19 0
w al
ĠM ember
sp an
Ġcompar ative
ĠOb serv
cons cious
ĠMach ines
ĠConv olution
ĠMe as
ĠD IFF
Ġf idelity
ĠRES T
ĠSyn ops
rec ogn
ĠP ear
Ġderiv atives
t l
Ġair ports
ĠT ax
Ġsent enced
Ġun not
Ġnow adays
ic ator
Ġannot ation
ĠSem antic
s ample
Ġ ----
Ġs v
ĠN TLM
ad i
Ġheter ogeneity
12 4
Ġconcent rated
Ġfor ge
Ġinvest ed
ĠComm ons
Ġal ike
Ġcompet itor
Ġunre stricted
function al
Ġcoin cid
Ġinev itable
Ġ======== ==
v as
Ġexchang ing
Ġformat ted
r ang
ĠSwit zerland
ĠBob by
Ġhere in
ĠM u
Ġf ans
class ified
ĠSubsequ ently
ĠW H
Ġ19 89
cf m
ĠN a
ĠO lymp
up load
en ames
Ġl ingu
Ġdiscret ion
Ġsal iency
ĠA MI
Ġfe els
Ġrecord ings
Ġpros pect
Ġact ed
ilt on
Ġmeter preter
p ic
Ġcred its
inte gr
ĠT en
Ġtransfer able
Ġconfirm ing
Ġwor ried
ced ented
Ġ0 2
200 3
ĠDef enses
ĠSupp lement
gent oo
ĠB ang
ĠEnd point
ig ation
im it
Ġdisconn ect
Wr ite
Ġsl ave
Ġre build
Ġcirc les
c i
def in
ĠIns urance
f ound
Ġlo y
Ġcoll ateral
rol led
ĠPre m
Ġtight ly
ĠPop ularity
EN G
C AN
ĠMS E
Ġroutine ly
Ġprom otion
ĠBr idge
Ġdownload er
Den ial
Ġest ate
pl us
ĠDis charge
ĠVirgin ia
ĠAr g
un ic
Ġdeclass ification
ĠCHAP TER
Ġp ause
ĠN IC
Ġpentest ing
ag le
Ġblack lists
Ġvan illa
Ġa st
23 8
ĠR apid
ful l
br and
Ġal i
Ġworld s
ĠL ay
Ġref use
ĠPh ys
ĠCritical ity
Ġaver aging
B ase
Ġfuzz ers
man agement
Ġrecip e
Ġover t
Ġexpect ing
ĠStan ford
Ġthreat en
Ġr amp
onom ic
Ġdiscrimin ative
cv ss
AR K
Ġretrie ves
Ġr u
let on
Ġoffer ings
Ġclass ifications
hem eral
ĠPo isson
ĠN ations
Ġadapt ing
Ġsp ite
res olution
Ġfragment ation
ĠCOUN TR
ĠW R
Ġprem ises
ĠN G
ĠN O
ĠM ike
i ological
Ġmodel led
Ġc ables
ĠL uc
Ġcontrib utors
Ġinstant iation
Ġf ish
Ġactiv ists
ĠT EC
Ġdis honest
Ġinflu ential
ĠDav is
ben ch
Ġide ally
c u
ol ent
Ġfl ips
ANN ING
Ġroot ed
AS H
Ġrec urrent
b ec
am av
ĠPat rick
Ġmiddle ware
os a
t ags
ĠMat hemat
H at
Q N
ax y
if ax
Ġsk etch
Ġconcent rate
Ġreg ulate
Ġdef ic
ĠA FL
Ġacadem ia
Ġpin point
Tor rent
ocum ented
Ġdiagn ostic
ĠIns ider
ĠJ SMA
Ġir is
ĠKnow ing
Ġ0 3
Ġspecific s
C reate
Ġ herself
V irus
x b
ond uctor
li ents
Ġke yp
Ġgir ls
ann on
Ġnet cat
ph ony
Ġroot s
Ġunpre cedented
ĠM BR
Ġpol itics
ĠAff airs
Ġref used
Ġinform s
E U
Ġshort cut
Ġbreak down
d og
download s
Ġmist aken
ĠSh ield
ent r
am iliar
Ġprom ised
check ing
Ġallev iate
ĠL M
back ground
Ġ1 10
-------- -
Ġhack tiv
ĠSC ANNING
ĠM M
M any
Ġhead ed
qu ant
row s
v ille
Ġrat ios
Ġunp acking
Ġst ars
Ġenc odes
ĠW AN
focus ed
us pecting
Ġaccum ulated
De vice
Ġweek ly
ĠTrans mission
Ġn ick
m ask
Ġpositive ly
rob ust
Ġdram atic
Ġsk im
Ġabs ent
s ccm
Ġreview ers
ĠNS F
Ġmon et
ĠMon te
aps ed
ĠM AN
75 4
ĠOper a
ĠCor p
ĠJose ph
Ġp ill
ĠPost greSQL
ĠS hodan
ĠCOMP ANY
ĠDEP LOY
Ġtag ging
ĠSEC T
o z
ĠL ar
be at
ĠCompar ing
ĠProt ocols
ĠEm bedded
ĠA ur
Ġanalog y
Ġsk y
ĠB and
as m
Ġrecogn izes
ĠRet urn
Ġem ulated
Ġemot ion
ĠProt ected
Ġsuspect s
Ġfr uit
ra q
R ank
Ġdis allow
Ġint act
Ġwe aring
ĠTr u
13 8
ĠContract s
gin x
ĠSUM M
Ġodd s
5 01
ĠM oh
IC UL
nb sp
Ġexpress ing
Ġconstruct or
ĠTransport ation
Ġvari ability
Ġment ions
ĠZ one
bot tom
yn et
ick et
ĠRecomm end
ĠG C
h uman
S pace
ĠR ST
ĠHacker One
Ġbund led
t k
w ire
Ġdep rec
al con
ĠECD SA
sim ilar
13 6
cl uster
il ly
ĠIdent ifier
Ġlong est
Ġhook s
m t
gr y
Ġalloc ates
ĠIss ues
ĠOpen BSD
Ġem bar
Ġsub domain
Ġ0 6
Ġconf use
ĠBas eline
b ots
ĠLe on
az y
ĠRes ources
Ġsat is
ĠWr iting
ĠStat istics
Ġran ks
E ach
B G
Ġinter change
M ost
Ġtra verse
Ġre load
prising ly
Ġharass ment
ĠC As
Ġt riv
Ġcle ared
Ġaxi oms
ĠIn form
Ġcal endar
ĠH MAC
Ġextract or
as ions
ĠW at
Ġref resh
ĠMot iv
Ġind uctive
d its
ĠAn alyst
( (
C ount
Ġa str
ĠSw iss
11 6
Ġbl ame
QU AR
g ate
r ison
g row
Ġimp ressive
ĠL E
ĠV ery
Ġj e
Ġtheore tic
he nd
4 86
ĠNorm ally
Ġnegot iation
Ġvigil ant
Ġag ile
ĠK ur
14 5
us n
typ ically
Ġob solete
ĠJ en
Ġsys log
Ġs ql
Ġbro ther
in ery
Ġdest ined
Ġinf erring
An other
Ġk rb
Ġcas ual
Ġcasc ade
h u
do ors
Ð µ
Ġsw arm
/ ).
Be gin
ĠMo ving
av en
Ġworm hole
A ny
Ġel ig
ĠK L
ĠG L
Ġadopt s
âĢ ĳ
------------ ---
ĠB us
ĠDEPLOY ED
O G
enc oders
ĠAss istance
Ġrol led
v in
ip se
ĠH en
ARE AS
ĠEmploy ees
Ġyield ing
C all
ĠCOUNTR IES
man ager
Ġdescript ive
ĠVER SION
50 4
ĠE R
Ġdev ise
ĠOptim ization
ĠM all
Ġen velop
Ġobsc ure
Ġn ons
ol i
iss ue
Ġwin ner
ĠCIS Os
E xt
ĠCol umb
Ġp s
H ere
ĠResil ience
Ġeaves drop
r ication
Ġhold ers
Ġs outh
ou p
ble ms
ĠAppro ve
ĠRe gression
ĠWork around
w x
it ious
Ġw ond
Ġd ashed
ĠR RE
T e
ĠConf idence
Ġm aker
Y es
prem ises
b as
ĠMan ip
ĠApp lying
ĠDis k
ace ut
ĠHEAD QUAR
ĠHEADQUAR TERS
ep ad
CS P
ĠProt ect
Ġre actions
Ġab und
CS C
ĠAtt orney
ĠAUTOM ATED
Ġl iveness
ĠIns pector
ĠTel ecommun
er ies
Ġto ugh
Ġsp ots
ĠPat ches
ipl inary
am ous
ĠL A
3 60
ĠLIN KS
Ġapprec iate
ict or
ĠSc anning
Ġchecksum s
ĠJacob ian
Ġconvin ced
col or
Ġpred omin
ĠDB MS
ĠTH IS
Ġun install
ier ra
Ġfalse ly
ĠF og
ĠH ub
ĠTh underbird
tr ust
: "
ĠCD N
Ġvent ure
c oll
Ġval ve
ĠApp lied
ul z
Ġcl im
ĠRE AD
ber net
ĠBrit ain
Ġcrash ing
Ġunre al
Ġpriv ately
ĠComput ational
Ġless er
t w
f in
Ġn orth
Ġcategor ization
Ġeavesdro pper
Ġres emble
Ġachie vable
Ġdi agonal
ve x
Ġn ets
Ġgran ular
Ġdisrupt ing
Ġpass enger
D AR
ĠAP P
poss ibly
end a
bernet es
ĠRe ading
* ]
Ġtrust s
Ġdisc overs
ester day
E d
f ounder
ĠI EC
Ġuns uspecting
Ġappe aling
orph ism
p ret
c reate
ĠChang es
Ġimp oses
Ġdoll ar
ĠC op
Ġcompens ate
Ġresol ves
ĠA RC
Ġint uitively
IF T
Ġdirect ors
B usiness
Ġdeb t
Ġappro ached
Ġwr ap
us hing
Ġpublis hes
Ġfool ed
ĠDish onorable
typ es
ound s
ĠX X
ĠSer ial
Ġconsum es
Ġann ually
Ġmitig ates
Ġeconom ics
I J
sen al
ĠSECT ORS
Ġaut oc
Ġprov ably
Ġpress ed
* .
Ġb ullet
ere x
requ est
m ind
ss l
Ġfals ification
2 64
aceut ical
Ġindex es
Ġsing ular
ĠComput ers
s iemens
Ġeduc ate
} .
ĠâĨ Ĵ
Ġ19 86
ĠJ avascript
ary ing
Ġl p
âĢĶâĢĶâĢĶâĢĶ âĢĶâĢĶâĢĶâĢĶ
Ġcre ativity
ĠTer ms
h acking
el ve
ĠEd ward
Ġconting ency
ĠiT unes
is hers
ĠM il
ĠK h
ĠCrow d
B ee
Ġsub jected
Ġur gency
opens sl
Ġnond eterm
Ġhand ed
Ġcontrovers y
Ġm ort
22 2
Ġcapt cha
Ġb orn
Ġwar m
bu ffer
Ġsanct ions
Ġt ed
re nd
ID E
ĠE sc
ĠSil ver
ro ck
Ġbe at
ĠD am
Ġsend ers
Ġpl ate
Ġcam oufl
Ġh p
Ġdeno ising
ĠF lex
ld ap
Ġlawy ers
ak in
Ġpass engers
Ġin active
Ġperipher als
Ġ1 15
ĠSh am
T RO
c ape
Ġint ense
24 3
ĠII oT
olog ists
anc er
Ġst ems
Ġperce ive
ĠResp ons
ĠG ay
ĠTr ack
ĠH um
ht m
inf ected
ĠD er
Ġsil ently
Ġcur ious
d iff
om es
ire ment
Ġjust ified
ID s
S ch
ident ified
Ġc p
l r
Ġmechan ics
Ġinstrum ented
Ġwel come
Ġconc ert
Ġlegit im
ĠSar ah
ĠEV ALU
alk er
ĠCort ex
r ators
re ce
ĠPro perty
ĠF T
et a
Ġent ang
13 3
ĠP AN
ord on
Ġinspect ing
ĠM ount
ĠFor ward
in ner
Ġfeat uring
M ain
Ġjust ice
ĠG od
eli very
Ġsus ceptibility
Ġhar ness
Ġpolynomial s
ĠS ix
ĠCL I
Ġsuper visory
Work s
ĠTh read
plug in
Ġs lo
op es
14 3
C enter
Ġlater ally
pc ap
Ġr ub
Ġstay ing
Ġrelig ious
ch as
r ants
oun cing
ĠExt ension
Ġyoun ger
Ġqu oted
Ġcar bon
ĠAnaly zing
Ġrecurs ively
ĠMITIGATION S
ĠG CN
uc le
ĠKal man
ĠAl an
Ġpast e
Ġthro tt
Ġhead lines
ĠAr m
IT RC
Ġent ails
syn c
ent h
tr acking
Ġparticip ated
A FT
ĠCrypt ographic
ĠSt ation
ĠD al
ĠRes olution
Ġcryptograph ically
Ġarrang ed
ĠComp onents
ĠSUMM ARY
m i
Ġhop es
oh n
Ġ==== ===
ĠAlgorith ms
Ġtele metry
Ġstr and
Ġchart s
Ġfore ver
Ġhypot hetical
Ġteac hers
pt r
ĠEs pecially
Ġarrow s
ur i
Ġpod cast
k vm
olog ically
Ġcraw ler
40 4
add ed
Ġinj ury
meas ure
ĠBre ach
tr usted
ĠO SS
Ġinvestig ative
Ġindex ing
H y
Ġunc ond
ĠEn forcement
Ġsimpl ifies
Ġa ka
ĠN X
16 9
Ġ* .
Ġkeylog gers
ĠF ault
ĠF air
ĠL TL
ĠInte ger
L T
ist ers
Ġsort ing
low er
ĠM aint
ĠG artner
Ġrobot ics
13 1
Ġformal ization
D ATE
Ġconc ise
36 5
st orage
Ġguest s
Ġcollect ions
K e
Ġcompil ing
ĠNav y
u h
Ġoper ands
Ġb ond
Ġreplic as
Ġsust ained
Ġthrow n
Ġflow ing
AR M
Ġlog ically
Ġdes erial
ĠR ust
Ġrend ers
f lo
w indows
Ġcomment ed
ĠGP L
Ġd augh
ĠG M
Ġ10 5
ĠO TP
ĠExploit s
Ġb io
m ac
Ġauthor izations
Ġmult itude
p a
im g
ĠM ove
ut ers
sh ops
m ag
ĠBY OD
Ġ ice
Ġ1 11
} ,
er ver
Ġroad s
00 3
Ġ rom
ĠM IME
B r
g overnment
Ġpip elines
Ġignore s
Ġind ef
id ia
Ġpen al
Ġhead ing
Ġpartition ed
Ġre ar
sp am
Ġfet ched
ie ves
ĠKE Y
bur g
ic an
/ +
ig ms
ĠR GB
elt a
Ġt rojans
ĠH all
ĠN ik
Ġdem ographic
em an
ĠG l
att ered
S ize
F e
Ġtriv ially
Ġur gent
Ġsynthes ize
ĠW OR
ĠN ative
il ter
ĠS ierra
Ġre jection
ĠR ISK
Ġhom ogeneous
ĠPay load
c ale
Ġalloc ations
ros so
aw a
Ġnames pace
g ar
at on
Ġdefault s
Ġwe igh
co ok
P e
ĠCh uck
Ġhit ting
Ġhy dro
Ġnew est
Ġun initialized
Ġoverr ide
http d
M ax
Ġdis asters
vis ors
ĠRel ations
igm oid
Ġdec ou
ĠIn side
Ġper vasive
17 0
Ġafter wards
D ownload
ĠCr iminal
Ġauthentic ator
Ġcont est
Ġem issions
pro b
ĠOn ion
Ġoccup ied
ft pd
Ġfl ipped
Ġsubred dits
ĠSybil s
fe ature
s ki
ba it
ll a
U A
Ġp al
Ġshell s
Ġrestrict s
Ġ19 84
ĠAss et
ĠN IS
Ġrepe ating
Ġhistor ically
ph ase
P UT
Re lease
Ġencompass es
et ed
ĠKee Pass
Ġpro ceedings
13 4
H OST
Z one
oun g
Ġdisrupt ed
k le
Ġun secured
ĠV iet
Ġatt ain
Ġ* *
pack age
ĠExper ts
check ed
Ġg i
ĠCre ative
ĠAny one
rem ote
oen ix
Ġ ion
b el
Ġunderstand s
Ġsil icon
Ġcomp ose
0000 1
L ocal
Ġrelax ation
2 20
ategor ies
Ġdialog ue
Ġpit ch
Ġrepro duc
Ġinnov ations
ĠI ND
ry ing
ĠT F
Ġtask ed
Ġexc iting
et ies
Ġthe sis
ĠSep ar
ass isted
ĠReport ing
Ġoff ense
Ġsettle ment
L ast
Ġnever theless
Ġinterrupt ed
F inally
Ġarg u
ĠZ im
ourn als
3 50
rib ute
ynam ics
comp onent
UM ENT
Ġent hus
il ation
Ġen roll
ĠB loom
Ġmult il
Ġany body
ĠDep ot
Ġd ied
pd ump
ĠC AS
ĠRoy al
Ġplug ged
ĠSup reme
Ġd ive
Ġalert ing
ĠS low
Ġanalys ing
es k
Ġouts ourcing
ĠR osen
34 5
Ġincom patible
b ig
v ard
the y
ĠNe g
ĠLear n
ĠA cknow
Ġvalid ates
Ġdeleg ate
ĠGr and
t une
Ġse a
Ġhard ened
Ġremed iate
Ġfl ipping
ĠH A
ĠStrateg ic
s ession
Ġcont emporary
RE AD
Ġcollect or
ev alu
Ġres embles
N O
Ġrational e
ĠC SA
ĠCompl iance
re verse
ĠBr anch
ĠW ired
Ġexc luding
v ec
for ced
eng es
ĠP RE
ĠD onald
ug es
Ġass ured
ĠR am
ĠAlex ander
Ġ= >
] :
ĠRobust ness
. âĢĻ
ig ration
Ġmolec ules
Ġg pg
ĠAnd re
ĠCT O
Ġprevent ive
B ecause
ĠNot ably
Ġresol vers
Ġprot ests
Ġdev iate
ĠCT I
ĠLim ited
l isting
W W
Ġdis p
aid u
ĠR M
ĠR afa
Ġweb pages
Ġkill ing
Ġcontain ment
ĠAcad emy
iz z
ĠST R
Ġexhaust ion
ĠSP F
grad uate
EX E
ĠBel g
ĠSupp ly
ĠSynops is
Ġel ected
ĠOper ational
Ġparameter ized
Ġar my
Ġarg ues
as ks
op ard
Ġfac ulty
ĠDef ine
Ġterr itory
ĠSt rike
For ce
Ġw ins
14 8
x ing
n ick
ĠS SA
Ġun structured
estab lished
Ġsympt oms
res istant
spec ified
Ġimperson ating
ĠP RF
authent ication
c n
Ġcon ject
Ġselect ions
Ġdeliber ate
ĠRock well
Ġcertain ty
ail ing
def ine
Ġde activ
Ġst orm
cor rect
Ġcoal ition
Ġtreat s
Ġlog it
Ġbroad band
Ġout break
al c
Ġres idential
Ġtradem ark
Ġto x
Ġl ens
ad ows
Ġdis regard
Ġsustain able
ĠIncre asing
act or
Ġam d
Ġdemand ed
Ġrebo oted
ĠProcess es
ĠEqu ifax
re stricted
ĠR EL
ĠAut onomous
Ġsh ock
] ;
ĠAl ways
ĠAss urance
M ac
r ass
Ġback wards
ĠM IA
Ġport ray
Ġshort age
23 9
ĠHel p
ass er
Ġut ter
ig an
Ġtemper atures
Ġmur der
Ġoptim ality
ĠTr ace
ĠT an
ĠS poofing
L et
sm all
Ġun modified
Ġdisgu ised
f ake
Ġbad ge
Ġcurric ulum
Ġh all
ĠI raq
ĠIP C
ĠIs lam
p rior
Ġth irty
Ġclear ance
ard en
Ġpa ired
ĠTom cat
Ġfacilit ating
Ġaffil iate
Ġb ash
lic t
accept able
Sh ield
ĠM O
ip h
up id
st ar
ĠMic hel
ĠLapl ace
Ġindef inite
Ġsubst ations
ab s
Ġcommit ments
ĠT i
Ġalleg ations
Ġbootstr apping
ĠM ant
Ġdirect ives
Ġlook ups
Ġcoordin ator
ĠImpro ve
ĠE CC
Ġsoc io
Ġd w
ĠEVALU ATION
Ġinter mitt
ĠMan aging
l ected
Ġpresent ations
Ġunderstand able
ict ions
Ġunder mine
Ġfit ting
Ġless on
ĠSW aT
ĠInnov ation
13 9
Ġiter ate
ĠExt ract
Ġluck y
E vent
o ften
Ġand roid
2 11
Ġtrick y
ĠIntegr ation
Ġas cert
P DF
Ġmal function
ud er
ĠAg reement
OM E
ĠSwed en
j am
vic ed
17 2
ĠComp et
ĠPar ameter
MS E
ĠV R
op ic
ĠL as
Ġund erest
alle y
F ire
ĠP resent
ĠDN SSEC
Ġiniti ating
ĠAdv ances
Ġb gi
G ood
Ġtrick ing
ĠF usion
Ġimp lication
Ġval ued
f ast
el berg
Ġre name
threat s
Ġcapt chas
ĠL ack
A v
ĠAN Y
ost ics
j ar
S V
plug ins
Ġpercept ual
Ġseam less
Ġpos ing
ĠCap ital
Ġautom ating
ĠNe ighb
ĠTEC HN
Ġdiscr imination
v ity
Ġfil enames
Ġif rame
class ification
Ġif f
ĠLi DAR
Ġth r
00 5
Ġencount ers
err ata
Ġd ns
op ter
Ġ17 2
ĠN uclear
ĠAs h
Ġart ist
ĠTo gether
im er
Ġl oud
Ġpass ion
dis k
ĠTal os
Ġf ro
} \
ĠML P
ĠConf irmed
process ors
Ġintercept s
ĠAnd erson
lu ence
ĠLo Ra
300 46
Ġcharacter izing
Ġinter dependent
Ġep hemeral
Ġdecl ined
19 3
Ġsil ent
Ġsub version
Ġseg reg
ĠD GA
ĠB ash
Ġsp r
ĠP B
l ast
ĠR at
chang ing
ig ue
debug source
Ġunlock ed
Ġoblig ation
ĠIsra eli
XX XX
ĠWiki Leaks
N VD
Ġflaw ed
Ġsnipp ets
15 4
ĠPRO T
s ided
Ġar Xiv
Ġlog its
H D
sc r
ĠFre edom
in ational
Ġapp lets
ĠG SM
20 7
host s
Ch apter
Ġpert inent
E ven
ĠIm ages
V ICE
Ġ0 4
M IT
Ġcontrol lable
Ġab using
ĠGo al
ven ue
Ġcou nsel
N ext
Ġregister ing
ĠHeart bleed
K G
f alse
Ġwhere ver
ĠS IN
Ġret aining
ĠPract ice
P re
ĠSt orm
Ġref res
ĠT ik
ĠEn umer
ĠTr acking
Ġt ill
Ġprov able
des ktop
str ong
Ġ12 5
Ġarriv ing
Ġc ouncil
Ġh alt
ĠAct ually
ĠFor mal
Ġaud itor
B o
min ing
Ġmind s
ĠMary land
Ġb ins
25 4
Ġinexp ensive
ĠR IP
2 12
St ation
Ġepid emic
s ites
Ġm ips
Ã ¶
Ġdivid ing
Ġmisbe h
Ġliqu id
war p
ĠExpos ure
Ġaffili ates
ĠL F
Ġinsert s
rosso ver
P H
ĠV B
Ġs ne
on aut
ĠP ossible
Ġj u
Ġin ferences
Ġacknowled ges
Ġpredecess or
Ġsomet ime
ĠK i
AT ING
in tern
Ġrank ings
v arying
Ġjam mer
f w
Ġelev ate
Ġenh ances
com patible
ĠS it
Ġcomb inator
ins urance
out e
Ġbr ack
Ġen de
Ġ5 000
Ġmark er
Ġformat ting
Ġc ave
1 86
hol es
ĠG TS
c ell
Ġs urre
Ġissu er
ĠJ ason
Ġsett led
Ġsch olars
inc re
ac ons
Le vel
ĠIR S
Ġcol on
Ġsuggest ion
entr ancy
Ġbeaut iful
ĠDM Z
ĠAD D
Ġic ons
C AP
ĠM aterial
ĠU r
Ġco ast
eros pace
ĠP AC
15 5
Ġ18 00
ĠW F
min ute
Ġdoct ors
Ġmultipl ied
U sing
ĠL agr
Ġlog ics
================ ========
Ġemot ions
t ail
Ġp icks
fer ing
Ġw ise
ĠConvolution al
comm and
ĠM ill
ĠP olicies
ĠMin i
advers arial
D i
ĠD ead
ĠAr bit
Z Z
Ġqu bits
ĠS ure
Ġdifferent ially
ĠDe veloper
ĠG NN
Ġshuff ling
ĠE US
ĠBot net
ĠEar lier
g reen
ant a
o in
Ġparad igms
Ġstr ain
ĠDemocr atic
um in
Ġj unk
Ġ í
ĠHu ang
@ @
ĠL ake
orth y
ĠInd ependent
us et
T ok
c ases
Ġbelie ving
ĠAs k
Th ings
ĠPh ish
Ġtw elve
Ġ================================================================ =====
ĠX S
Ġsp oken
ĠP N
Ġincon ven
ĠPre vent
Ġcustom ization
Ġprom ot
Ġdisput e
Ġfil ing
tur n
Ġcount erex
14 9
Ġinf r
Ġsal ary
P ER
ĠChar les
ĠNo ise
ps on
C or
Ġdelet es
Def ense
MF SA
Ġh inder
Ġbot her
Ġcritical ity
v c
Ġ( -
Ġarch ived
L STM
ub a
Ġpl at
ĠDO I
Ġboot loader
Ġtre ating
st op
Ġlib c
ĠK DD
Ġi o
Ġ" .
- ,
ĠAvoid ing
] ).
Ġque ues
k ali
Ġr pm
ĠH as
Ġprepared ness
Ġpl t
Ġreal time
M obile
Ġexport s
Ġarrang ement
d l
Ġb ip
ĠExploit ing
x p
Ġviol ent
ĠEX EC
ĠExploit ability
Ġinter le
Ġsuccess or
Ġadvoc ate
Ġmotiv ates
pack ages
Ġpsych ology
Ġpriorit ized
Ġdifferent iable
Ġfragment ed
ĠN I
ĠAcknow led
Ġre us
Ġremark able
Ġinflu encing
Ġhope fully
Ġd irty
Ġhe ating
ĠE ither
ĠCob alt
Ġsupplement ary
ĠP AD
ud iation
Ġtrans cript
r im
ign ment
ĠKe ys
Ġinv asion
Ġsur pass
Ġfin anc
d ns
Ġinconsist encies
Ġexhib ited
B Y
Ġa erial
ĠKu bernetes
e z
ĠB aidu
sim ulation
ĠTool kit
Ġlog istics
Ġdiffer ing
Hel lo
ĠMess ages
ĠEv olution
ino is
Ġpol ling
ĠSat ellite
Ġsu ffic
ĠB A
F orm
U DP
ĠR R
Ġund ec
fl ix
Dom ain
D HS
Ġat om
ĠUs age
gment ation
ern ame
Ġquant ified
ĠL ength
Ġo ught
Ġperturb ing
Ġguid eline
bul lying
ĠA SA
Ġted ious
ĠParticip ants
Ġf s
Ġcol our
ĠACL s
Ġres emb
Ġexc ited
Ġpercept ions
n is
ĠV en
Ġstrateg ically
Ġemp ower
ĠL ion
ĠRecon naissance
Ġcomp elling
ĠG EN
b ecause
ĠOb serve
ĠMot or
cond ition
Ġre install
Ġdiscrep ancy
re r
ie ve
Ġhook ing
ĠChar lott
Ġgang s
ĠR and
li k
Ġcraw l
Ġwr apped
Ġbre ath
z one
Ġco lored
2 16
en h
ĠO u
ou b
con sole
Ġgr asp
Ġembar rass
ĠNets cape
Ġ1 30
Ġad here
G Hz
ado op
Ġreven ues
rok en
r id
des igned
j ump
Ġhook ed
Ġelev ation
l ining
at able
Ġun labeled
Ġargu ably
Ġinfr ared
ĠNex us
Ġ rival
Ġprom otes
b est
is ks
ĠSe attle
ĠEX IST
Ġmed icine
ĠNiger ia
ĠS zegedy
ĠS ame
Ġan imal
N ets
Ġindic ative
Ġgover ning
Ġdispos al
Ġob j
Ġpuzz les
par se
G roup
Ġor g
Ġcyber war
Ġfound ational
Ġel imination
)- (
Ġ1 86
IG HT
ĠPro perties
process ed
Ġimproper ly
Ġpred ators
Ġwere n
ĠS ales
ĠNort hern
cle an
ĠColl ection
Ġsl ip
ĠPartic ularly
Ġtroubleshoot ing
ĠDo ing
ĠMon ero
ios ity
an ching
ĠTur k
at ar
cr ack
P O
l n
ĠF el
ĠM aps
Ġder ives
Ġdi ameter
Ġswe ep
s id
17 3
Ġl ived
Ġlocal host
Ġrespons ive
Ġadvert ise
Ġjournal ist
ight s
rob at
f uzz
Ġtraffic king
Ġd B
Ġbo y
Ġj mp
Ġundert aken
Ġproc ure
Ġshe l
Ġcomplex ities
Ġanonym ized
ĠSchem e
ĠB AS
ĠL if
ĠG am
od ings
Ġpack aging
Ġwh ist
Comm and
Ġgr ade
Ġdaugh ter
Ġfoot ball
Ġexp enses
h ar
Ġ19 85
Ġev id
AR A
ĠIn structions
Ġfav our
Ġint ens
Ġpoll ution
Ġaband oned
Ġsetup s
ĠRob ot
ĠChall enges
Ġj ournals
RC E
ell i
ĠVe hicle
es p
Ġpolym orphic
launch pad
ĠO cc
lo v
Ġsub scribe
cl aim
Bl ue
Ġunivers ally
im a
res pective
ĠO x
Ġreflect ing
c er
Ġdisassemb ler
Ġfluctu ations
ĠW ood
Ġch amp
Ġwhitel ist
ul atively
Ġamb ient
Ġview ers
ĠX HTML
ĠMeasure ment
ĠF CC
15 6
C ache
ĠH osp
Ġens embles
W all
Ġalert ed
Ġhub s
ĠSupplement ary
a ired
Ġt i
ole v
Ġadvance ment
ĠL ot
Ġsem ic
ĠF inal
ach uset
er ved
Ġharm less
Ġsell ers
ĠExper t
link ed
Ġb orders
a uthorized
Ġcomm erce
Ġqu ot
amp ol
Ġadd itions
Ġmult ivariate
Ġreport ers
ĠTow ards
Ġa wards
ree k
23 7
h ppa
r h
Ġinform ing
Ġpriorit ization
lat est
i at
Ġ10 3
Ġharvest ing
23 6
Ġv ess
ch an
Ġmod est
ipping Point
Ġsurv ival
Ġmisconf igurations
duct ions
Ġapproach ing
ed a
ĠA le
w ing
AD E
OT E
ĠPar is
alk ing
Ġlo ses
ĠG ordon
ĠC ra
Ġro wh
Ġres ident
Ġrecommend er
ĠNet cat
Ġtrap door
Ġpursu ing
ER N
Ġat mosp
ĠInstall ing
Ġoppos ition
achuset ts
ĠDig i
LO AD
ĠStack elberg
ĠFour th
Ġis land
Ġg lit
ĠD own
cap able
ĠHe ap
â Ħ
ort ed
Ġmut ex
EP T
Ġilleg ally
Ġwal ks
Ġrevers ed
Ġapproxim ated
Ġinstant iate
ĠL FS
2 18
Ġoption ally
Ġfound ations
ĠUS E
ĠOr ange
sm art
ĠSam ba
Ġshoot ing
ĠSt o
mand riva
Ġmarket places
g d
Ġe at
Ġprogram me
ĠAttack ing
ĠB ERT
IT S
Ġview er
Ġsn oop
ound ing
ul in
ĠR n
Ġ7 00
Ġdistinct ive
ĠH oney
ĠSe a
S te
ĠC ru
Ġpartic le
ĠAdvers ary
u j
Ġf ires
en a
im ulation
Ġ1 70
Ġfraud sters
ĠBund le
Ġloose ly
ĠAs ide
Ġmount ing
ĠW HO
2 10
ell ers
Ġin box
ich t
Ġunder go
ĠCh urch
Ġreplic a
ĠDOC UMENT
Ġh ref
Ġpass code
per tur
ĠEvery thing
ĠInstall ation
m ember
ĠT D
Ġc rop
Ġc af
ĠCl ark
W R
ĠExt ensions
] (
im plement
els on
Ġwarrant y
23 5
ĠTensor Flow
Ġsub missions
be ing
Ġm n
Ġear ns
Ġplott ed
n um
ĠCapt ure
ra id
Ġpr a
Ġste pping
ĠFor um
ĠBre ak
ĠM atch
95 7
ĠR EC
ĠSQL ite
Ġunus able
Ġexpl oratory
ĠEx cept
istrib uted
Ġan x
w a
00 6
Ġele g
ĠC CS
j son
ĠH a
ĠExperim ents
Ġgest ure
Ġsurf ing
l ate
app s
ĠHead er
Ġwork ings
ĠMe ga
Ġearth qu
ĠM F
Ġpartnership s
ov a
ĠB rief
art ext
Ġambigu ity
ĠO wn
Ġsy nd
K M
ĠA i
ĠIn strum
ic ast
ĠNet flix
ĠEvery one
Ġspl its
ĠE MC
Ġeigen values
ĠAd a
re fer
ov al
Ġind oor
ĠSpec ification
ore s
Ġnot ations
ari adb
ĠI ETF
Ġ1 12
cl amav
Ġre vel
ĠV C
ĠMAT LAB
80 4
ĠDis play
tr iggered
Ġemit ted
Ġrul ed
ĠForm ally
ri k
ĠAuthor ization
Ġp d
3 84
Ġg ar
Ġunf air
f eed
ĠU V
olog ist
Ġevol ves
Ġor acles
ĠAUT H
ĠCont rib
ac ements
ĠCon vention
ĠCont ents
Ġcontrib utor
Ġcool ing
Ġvolunte ers
âĦ ¢
ation ally
ĠA jax
Ġmeas urable
Ġcent re
Ġmail box
b at
OD V
Ġdump s
iqu eness
ij ing
Ġconvic ted
T O
ĠC OP
Ġsuper vision
ay a
yst al
ĠIll inois
it arian
Ġwe ird
spec ial
ĠM OV
Ġsh aping
ĠN odes
ĠH adoop
ĠJ T
ĠC i
ĠH F
De bian
ĠEnc rypted
ĠTTP s
ĠD ash
Ġstat eless
Ġunreal istic
serv able
Ġpiv ot
Ġpre empt
Ġmathemat ically
Ġproduc ers
ĠA BS
Ġfl u
MS I
fl are
14 2
ĠG ab
ĠO ld
Ġmicro grid
ĠSnap chat
l c
Ġy esterday
ĠVERSION S
Ġtrust ing
Ġper l
yp ing
Ġshe er
Ġalloc ating
ĠPower Point
Ġtoler ate
ain e
ĠB ul
Ġsecret ly
in el
Ġex its
Ġdraw s
ri pp
M ad
prov ided
ĠGal axy
Ġlow ercase
Ġaffili ated
z h
Ġold est
Ġalt itude
Ġcle aring
Ġart ists
ĠAl to
ograph ics
hen g
ĠCont ainer
Ġpar ses
Ġend orse
ĠR ank
ult ure
K A
ĠKre bs
Ġmark up
Ġoverse as
Ġfirst ly
ĠQu ad
24 6
oll ar
Ġres iding
ĠMass achusetts
ĠA W
Ġc iting
n ostic
ĠM oney
ĠCar lo
t iff
Ġadjust ment
Ġatt itudes
Ġpil ots
ĠA A
Ġunint entional
Ġsp ac
Ġdr ift
ĠSh annon
44 4
Ġelement ary
Ġb es
Ġresearc hed
24 4
FI LE
ĠV alley
Ġh over
ĠVe gas
Ġexplore r
ĠRet rie
ĠH ex
ĠMethod ology
s afety
ĠK ill
Ġprosec ution
19 5
ĠT OR
Ġenc odings
ĠBr ute
Ġtake over
Ġder iving
I Q
Ġcalc ulator
gy pt
ĠGay le
S y
b olic
ĠP ert
ĠTur key
Ġpack aged
Ġ10 2
f unctions
Ġ[ *]
Pro file
ĠB ush
Ġdown side
Ġmot ives
j boss
s lack
Ġin ert
Ġ0 7
15 1
idd ing
Ġdestro ying
ĠS ensitive
ĠCh oice
ul atory
ĠSt op
Ġ================================================================ ====
Ġpass ively
d am
ine ar
Ġaltern atively
M ag
e ption
Ġindu ces
ĠAdministr ators
ĠPay ment
T op
Ġsp ies
+---------------- ------------
ĠColumb ia
Ġinsp ected
Ġrenew able
L ED
ter y
ĠO nt
Ġtermin ating
Ġmanual s
Ġl unch
Ġcaus ality
Ġjust ification
Ġman eu
Ġkeyst ream
ĠF lo
aby te
ĠD uck
lic ating
ĠS print
ĠRes erve
N SA
Ġapproxim ations
add le
ĠFort une
Ġmisclass ify
ĠH one
ĠM ik
ĠD K
ĠB ear
Ġcross ing
RF E
Er ror
Ġh tml
ĠP ER
Ġbefore hand
25 9
Ġfre el
ĠSO AP
Ġclos es
Ġv ic
ass embly
AT T
ĠC ould
Ġr d
Ġsim ulates
h l
Ġkn ock
ention ally
32 5
respond ing
Ġop aque
ĠCY BER
ĠD ER
ĠCor ollary
ulti ple
/ >
Ġh onor
ĠIN PUT
Ġeth nic
Ġs ized
Ġnotor ious
j sp
Ġrowh ammer
Ġo s
se y
ĠGuid elines
Ġwond ered
Ġl uc
Ġcompan ion
Ġinfring ement
ar on
Ġc hem
Ġsoc ially
ĠLou is
ĠSc hedul
ĠZig Bee
ĠD EL
Ġmand ate
d istribution
ĠVirtual Box
ĠCompute Node
ch ost
ĠCond ition
Ġun acceptable
ens ed
attack er
w est
ĠJ ud
ĠM ask
ĠID E
Ġinfect s
Ġp ear
ident ification
Ġjurisd ictions
Ġslow down
Ġformer ly
Direct ory
ĠP AM
ĠD G
ĠK VM
Ġhigh way
Ġ19 50
Ġfinanc ially
ĠF all
ĠP ool
Ġne uro
Ġaggreg ates
arm a
ĠPal o
dem o
Ġw ipe
Ġf asc
es is
Ġres on
Ġinsp iration
alu able
ĠSim on
s f
Ġprotot ypes
et t
u um
AC HE
Ġinterp olation
Ġh yp
ast s
ĠApp liance
Ġ19 87
Ġprefer able
if ting
ĠF ingerprint
Ġreconf iguration
ĠTrans action
E AP
Ġsatis factory
Ġc ues
ant age
Ġconc urrency
Ġc rossover
13 7
inc l
Ġpolitic ians
Ġdis pers
ĠV ictor
ĠSund ay
Ġfing ers
Ġvir al
Ġstr uck
Ġ0 5
disc losure
Ġpret ending
So ft
ad er
Ġsynchron ize
o ffic
Ġsqu ares
gorith m
Ġsc atter
Ġmonot onic
Ġcr ashed
Ġprohib itive
S top
ĠUP nP
ĠT unnel
16 5
de gree
x d
Ġf ence
are a
ĠReport s
Ġfl ush
Ġsqu ared
get s
ĠDis able
ĠFor bes
ĠBit Torrent
Ġaccompany ing
l on
Ġg y
ĠH z
oc s
Ġinsurer s
ĠEston ia
ĠR ecur
Ġquick er
pat tern
Ġgr ace
h aus
ĠAV s
Ġcoordin ating
P ORT
ĠA ge
Ġinst ability
Ġinv ite
Ġunnot iced
n ull
Ġincent iv
Ġa ster
Ġinterconn ection
ĠAs ian
ĠCl ub
Ġrest oring
Ġcompet itions
us cript
Ġsubrout ine
t een
- (
M IN
Ġscreen ing
Ġescal ated
Ġv ague
bu f
ĠY OUR
Ġdesktop s
empt y
d istance
cs v
More over
aw s
ĠFound ations
Ġpredict ability
On ly
sam ba
17 8
ĠKn own
Ġinstruct ed
uck er
Ġexception al
Ġtunnel ing
17 1
ADI US
15 9
ĠC ogn
x f
Ġc aut
Mem ory
Ġsat uration
Al ert
Ġvol atile
Ġms g
on line
Ġtw in
ĠHP E
Pro c
ĠATM s
Ġnote book
S HA
t ies
tr l
30 4
Ġfet ches
ĠIP Sec
Log ic
Ġassemb led
Ġmicro services
Ġparamet ric
an z
15 3
Ġs ecur
Ġhous es
Ġar senal
Ġinfiltr ation
t ier
ĠD istance
Ġ0 9
ĠPro c
Ġacc red
Ġwar ns
Ġ& &
Ġgive away
mips el
ron ets
Ġadvance ments
) '
N ING
17 6
S U
ĠSM A
ĠFA Q
Ġsociet ies
Ġ==== ==
Ġbur n
ĠVirtual ization
Ġâ Ĥ¬
N F
W orld
k t
ir l
Ġpack er
Ġdistingu ishes
ĠPerm ission
Ġeven ing
Ġtransform er
rele ased
an iel
ĠBe EF
Ġconform ance
Ġgrab bed
ĠCybercr iminals
ac her
Ġr um
itution al
30 6
Ġre cept
ĠG F
Ġx or
ĠVer ify
Ġsuff ering
Ġrepet itive
Ġdispar ate
ĠD ub
Ġr ide
Ġresult ant
Ġconduct s
16 3
Ġpre trained
IC T
exec ution
y our
ĠL ever
at um
ul ink
Ġfacilit ated
Ġgre p
ĠDR M
Ġd d
Ġposition ed
ĠReg ular
Ġe go
AM P
T IA
Ġalloc ator
t hem
ac s
19 4
Ġimm ense
ĠG reg
ĠPU F
he alth
ĠY oung
int erest
Ġext rem
t ailed
ĠAttrib ution
c irc
Ġsign er
Ġbr anching
t imes
Ġcl oning
b ag
ĠIm per
ĠComb ining
M X
W G
Ã ¡
Ġresearch ing
ĠEffect ive
ĠDie go
M ark
f ind
ig uring
ĠD ual
av ailable
Ġpred ator
I o
Ġseam lessly
P OS
exploit ation
Ġste als
ĠJ ess
Ġdise ases
ĠAc robat
Ġdomin ate
i y
re tt
ĠCharlott e
F r
Ġdefin itive
P etya
ĠF N
Ġmisconf igured
ĠB arb
L ength
00 401
c ustom
Ġwitness ed
ĠG bps
Ġreser ve
ĠArab ia
ĠIn secure
ĠH V
Ġtransl ating
ĠMat the
ĠM id
inter active
ĠAb s
ro cess
Ġgeo location
in vest
Ġdefe ated
Ġs ad
Ġsu ffice
ĠE RP
ĠMal ays
d ict
echn ical
the ning
ĠE gypt
Ġsubs ections
Ġmean while
69 3
mem bers
D r
ĠL S
Ġbid irectional
Ġtransist ors
Ġflo ppy
ĠLock Bit
Ġprohib it
s ocial
it ime
Ġtransmit ters
ĠC n
ĠDifferent ial
Ġmiss ile
Ġunpack ed
Ġlegitim acy
Ġelig ible
Ġa ro
Ġo ct
ab a
Ġdist ant
ĠRob in
meas ures
Ġint ends
! "
Ġsum s
ĠSel ection
Ġst ere
ĠCl ar
Ġintermed iary
ĠPub lication
riv es
Ġconstr ain
P ower
ĠI ron
Ġdr ain
Ġstart ups
Ġassist ed
Ġtrad ed
test ing
Ġn ur
Ġag nostic
ĠPir ate
Ġadvoc ates
f x
Ġcr itically
Ġexceed ed
Ġbare ly
ĠEx hibit
ĠFranc is
ĠM osc
Ġemphas ized
appro xim
Ġinconsist ency
Ġg host
Ġplan es
Ġbal ances
ĠT ib
res il
Ġdef ences
ĠD olev
est ine
Ġsp elling
in ch
st orm
f ail
Ġfab rication
Ġlayout s
ri ad
Ġt ar
Ġ --
Ġpseudonym isation
Ġed itions
ĠJ DK
Ġtelecommun ication
Ġfact o
ĠB ren
ĠWe ek
Ġpreca utions
ĠR ound
Ġp rize
com fort
ab e
ĠM ining
Ġgen ome
pat cher
Ġopen ly
conf igured
Ġaggreg ator
Ġwrit able
Ġnot ew
Ġsh allow
ount ies
ĠH unt
Ġf ant
ĠEv ents
Ġm orph
ĠD OP
app y
it o
av y
Ġinstruct or
Ġauthentic ates
Ġdipl omatic
V ault
Ġsc iences
int osh
worth y
Ġproduc er
ĠAd vant
ĠPract ical
emb ered
acc ount
ĠProt ecting
Ġbootstr ap
st ates
ĠO UT
Ġdef ect
Ġsu cc
Ġbal lots
ens ys
Ġ1 75
Ġpul ling
x c
ĠW el
ent ation
upp et
1 64
Ġb ait
prot ection
W ave
ĠEstab lish
ment ed
Ġrel uct
ĠSc reen
Ġsol vers
ĠBet ter
ĠB R
ĠReport ed
prot ocol
ĠK A
Ġrel ief
ĠD yn
ĠC hemical
t hes
Ġpropag ating
gress ive
us ername
Ġet her
ĠIs land
44 3
Ġnotew orthy
Ġd ens
Ġop codes
s witch
Ġlist ens
ĠF ellow
j b
ĠDep loy
ĠNe o
er pt
ĠM Q
ĠJ ay
add y
K DD
Ġpros pective
i A
Ġdis ables
Ġn ort
ĠM bps
cont ext
ĠTerm inator
Ġsp rint
ĠStat istical
Ġequilibri a
Ġquant ification
ep h
Ġsuff ix
D uring
Ġim balance
Ġfeel ings
TL P
Ġmicro processor
b etween
Ġpropag anda
Ġpack ing
Ġste pped
ĠOpen Stack
Ġrespond ers
ĠC er
Ġprof ound
ĠT ippingPoint
ur k
Ġcred ible
ĠR ISC
ĠK on
ĠSc al
ĠSp eed
ĠFl ame
con v
H R
form er
OS I
Ġtrace back
ĠGR U
ĠPub lishing
Ġdisclos ures
ĠS EO
ĠProcess or
ĠFilter ing
Ġmult is
16 7
Ġsupp lying
Ġinv ocations
Ġ10 8
Ġing red
Ġvolunt ary
2 32
iz ability
ĠU ID
ĠE t
ĠAg greg
Ġpharm aceutical
om a
Ġcare ers
met hod
Ġexfiltr ated
Rem ote
l ived
est ion
Ġer ase
Ġc ow
ĠF W
Ġsink hole
Ġun ve
Ġlingu istic
ĠT U
ĠL ulz
Ġbu ilder
Ġh ind
ĠE FF
Ġresearc hes
Ġlength y
ĠStep s
Ġsanit ized
ĠD I
Ġexcl usion
ĠCook ie
ĠH ur
cy cle
) ?
ĠAll en
US H
Ġacknowled gment
Ġdead lock
Ġd h
ĠX i
Ġcut s
Ġclust ered
Ġs i
Ġâ ī
ĠJ osh
Ġimm un
ol ving
Ġrem arks
Ġaf raid
Ġth ieves
ĠW ild
Ġm ined
Ġtr ampol
ĠCred ential
Ġocc asions
oper ative
Ġmaxim ization
all ery
ev olution
Ġcentrif uges
Ġcontract ed
ĠBen ch
Ġunf amiliar
Ġdef er
enc er
ĠP SP
Ġacceler ated
B T
bre lla
acer b
rob or
Ġanc ient
Ġsure ly
ĠAud io
ri ble
Ġsepar ates
Ġ19 83
ĠDisc uss
Ġwilling ness
ĠFac ilities
ĠGener ator
ĠFin ance
ĠSp ot
ĠOpen SSH
Ġme g
st d
aw ei
Ġparagraph s
Ġproced ural
Ġpump s
ĠJ am
Ġstring ent
Ġrul ing
ĠPh D
ere r
as ons
ĠH al
ĠO pp
Ġtri age
Ġanonym ously
Ġbattle field
Ġcelebr ities
Ġm outh
y er
ĠH an
ĠNat urally
ĠMag Net
ĠConc er
Ġnot ifying
Ġpan els
Ġtunnel s
Ġmark ers
f arious
Ġne farious
ĠCh air
ro le
ĠJ r
15 7
im ages
wr iter
Ġro se
ĠNum bers
Ġsh ops
Ġk g
ĠBe ijing
ĠGTS RB
C hat
h acker
ĠH MM
ĠIn ference
ĠPrem ium
c uts
i aries
ob y
ĠP W
ĠTra vel
K F
O per
Ġtutorial s
Ġh ob
Ġcapac ities
or st
J ava
Ġret ired
uts ch
am ation
Ġweb cam
v ectors
Ġcommit ting
ĠPan el
ĠTrust Zone
od al
ĠP s
Ġanim ation
or ry
Ġtr illion
Further more
Ġconf ined
ĠQ U
Ġhist ories
Ġfoot age
ot ically
Ġafford able
S k
Ġpurs uit
Ġredes ign
gr ids
Al so
j ail
11 11
80 5
ĠHar vard
Ġpret end
b atch
ĠS ave
Ġilleg itimate
Ġmisconf iguration
ĠC ell
Ġground s
ĠT I
ĠAn sw
Ġover writes
Ġske leton
aps is
Ġcirc ular
ĠPhilipp ines
r ules
ĠS ound
Ġel astic
Ġdec ipher
Ġaltern ating
ĠAnaly zer
======================== ===
ag ements
con vex
3 64
ĠR oom
ser vers
Ġpop ulated
c lose
ĠR EP
ĠComput ation
ĠP DP
ĠPers istent
âĶģâĶģâĶģâĶģâĶģâĶģâĶģâĶģ âĶģâĶģâĶģâĶģâĶģâĶģâĶģâĶģ
Ġdeath s
Ġsim ulators
Ġ 00000000
Y ao
ul f
ĠF it
Ġev ading
Ġtang ible
n ss
Ġbe aring
Ġapp ends
ĠCor rect
ĠOpen Flow
ĠCH AR
ĠC os
ĠP rices
ĠG athering
Ġeduc ated
Ġcraw ling
ĠW A
ĠIm aging
ĠF IPS
ĠT iger
ĠMax imum
Ġe q
Ġmagn itudes
Ġchalleng ed
Ġcondition ing
ath y
Ġmanip ulates
ĠMall ory
ot ype
Ġbe ings
un ov
Ġpar ity
fe atures
Ġmultip ly
Ġinter ruption
Ġrem embered
Ġb ub
Ġcon gr
ĠEn able
Ġsc roll
qu es
el iness
ĠRep e
ĠWeb GL
Ġplan et
Ġw iki
ĠUn iform
Ġperm utations
ĠES ET
Ġeg gs
w orm
Ġwave form
Ġb aby
Ġcent roid
ĠDebug ger
Ġappoint ed
ĠC orn
ĠOrig inally
al ph
St rike
ĠSO A
Ġgrad u
Ġcompet ent
ĠPract ices
ĠF ul
Ġsub nets
Ġbank rupt
Ġquant ifying
T ag
Ġin vert
Ġassist ants
Ġretail er
ĠH igher
ĠN ob
ĠVe hic
ĠJon athan
Ġinher ited
ĠE ye
OT A
Ġspec ulatively
Ġblack mail
Ġacknowled gments
Ġcheck list
De bug
Ġ================ =
Ġse vent
F D
22 6
Ġlik ed
ĠLuck ily
e ared
ĠK ol
Ġbel t
Ġquestion able
Ġvalu ation
Ġopt ed
Ġredirect ing
Ġsub class
cr ime
Ġ1 35
con st
Ġinterpre ting
ĠM ah
ĠH i
ĠE B
ĠMosc ow
ver ting
ĠN icol
RO DUC
ĠT oll
ĠGroup s
ha o
Ġunf old
ĠS UP
ĠSqu are
ab bit
ass oci
ĠPh oenix
ĠBet a
ĠPhil ips
ĠSV HN
per iod
Ġun disc
ĠDep loyment
Ġstake holder
ex c
ĠAm endment
Ġreal izes
ĠNe ut
ĠM ell
w eek
Ġfin ishes
Ġw ood
comput ed
Ġto ys
00 8
Ġdark net
Ġsp ark
Ġtransl ations
ap ol
Ġmod ulus
ver ts
in v
ĠM om
comprom ised
ol ith
Ġcard inal
Ġesc row
ĠInsp ired
ad s
print f
ĠC ALL
ĠCollect ions
re search
Ġex acerb
C ons
ĠS ites
Ġdilig ence
Ġir r
Ġvolt ages
Ġactu ation
Ġag enda
Ġmult id
17 5
ĠEngine er
Ġadjac ency
plan ation
ĠT PR
Ġ19 82
Ġab road
Ġd ocker
Ġmach inery
Ġprerequis ite
Ġcoll usion
Ġnon zero
N K
ĠCont i
t age
Ġclean ed
W H
Ġjump ing
toler ant
) #
ĠWin CC
d ist
j u
Ġpropag ates
VID IA
ĠW AF
m ay
Ġfem ales
Ġd ir
Ġh un
Ġcyber physical
AR S
s elect
Ġpercent ages
ĠH ans
ĠMar sh
ĠTr ick
f lu
we ets
Ġtrunc ated
ĠL ines
g b
X C
Ġdeserial ization
Ġdown link
Ġdocument ing
w iki
Ġorgan ic
Ġopp onents
AAAAAAAAAAAAAAAA AAAAAAAAAAAAAAAA
Ġtc pdump
ĠA x
Ġcharacter izes
Ġmag net
fr ames
Ġwr apping
elf are
ĠL ew
ĠCheck ing
F R
and as
18 4
Ġhp ux
ĠP it
ĠLe ak
ut ter
ĠAcqu isition
Ġlear nt
Ġrem inder
ĠI G
Ġevic t
port al
ĠMac intosh
Ġaud iences
Ġhpux ws
Ġfulfill ed
Bu ffer
ĠSim ulink
Ġbehaviour al
ĠM isc
Ġoff sh
Ġsupport ers
Ġtool bar
ĠO C
! )
c red
Eng ine
Ġinter ven
s bin
ĠH IST
08 70
ĠA uthorized
Ġv ict
Ġinformation al
enc rypt
Ġwhite box
th s
Ġel ite
22 3
list ed
Ġdivid es
> >
ID F
develop ed
RODUC TION
h ift
Ġknowledge able
Ġcle artext
Ġsw apping
ĠKeep ing
ĠV T
ĠMer kle
ĠSp ear
im ated
p resent
01 4
vulner able
f ault
Ġtem p
Ġ" [
it rc
ĠImplement ing
er a
Vulner ability
30 9
ĠMS R
n l
n ational
lic ative
30 2
Ġtor rent
med ia
Ġopportun istic
calc ulus
Ġisol ating
ham mer
ĠDense Net
b nb
Ġparam ount
art s
ĠN aive
Ġdecom posed
ĠEmp ir
Ġdegr aded
m nb
ĠG CC
log s
block ing
ed it
ĠD id
Ġorchestr ation
' d
H ttp
Ð °
ĠFe b
Arch ive
EN S
tun ed
ut ls
Ġoptim ally
Ġpredict ors
s ay
Ġimp lying
Ġwater ing
Ġdistinguish able
grad ient
Ġun iqueness
MD P
Ġbackground s
Ġperpet rators
Ġse al
Ġcol luding
Ġv m
Ġpred eterm
ik atz
app le
ogen ous
ĠDet ailed
Ġpower pc
Ġorigin ates
ĠName ly
ĠPro posed
read ing
Ġpur ported
Ġg ross
Ġv antage
ĠPIN s
vm ware
set up
ĠB N
ĠL az
ĠVal ues
ĠT oken
ud d
ĠRe in
Ġcur iosity
Ġepis odes
terror ism
ĠCra ig
ĠP etya
15 8
ĠPan ama
UU UU
ĠF ine
Ġhard en
x a
id irectional
Ġmet am
cont inu
Ġsuffic es
Ġg if
Ġinv aluable
Ġamb iguous
Ġp ig
f alls
Ġn ucle
Ġexp end
35 4
ĠPar ameters
ĠLoad Library
Ġluc rative
Ġfat al
ĠVis a
Ġint ric
ĠHy dra
Ġ lying
ant e
Ġsurv iv
Ġdeprec ated
Ġph ishers
Ġindistinguish ability
2 19
23 4
c ups
+---------------- -----------
enc ryption
Ġhol iday
S ys
Ġcons ortium
OD E
c ipher
ĠR od
Ġbypass es
ĠSch mid
Ġir respective
Ġinterconn ect
Ġt all
comm un
ĠZ K
j av
ĠB T
Pack age
Ġdisassemb led
l ance
Ġworth while
Ġga uge
ĠD ar
Ġtravel s
Ġouts ourced
at i
ĠProv iders
appro x
D c
Ġ Ï
t oken
ĠMult ip
Ġpriorit izing
ĠHIST ORY
Ġneg lect
ag ers
Ġcyc lic
Ġc ro
ĠS lack
Ġver ifi
Ġaud itors
p aces
Ġforb idden
ĠF amily
Ġr ings
ĠCloud flare
ĠP ip
ĠR ange
23 1
Ġsp urious
Ġfactor ization
ĠPort ug
Ġrecurs ion
Ġb le
ĠO PC
Ġ10 6
AT CH
ĠWar ning
Ġdat ed
Ġscore d
w ill
ĠR ole
um ar
Ġdown grade
Ġs and
ĠM as
w i
se q
Ġfresh ness
ĠN t
Ġgeograph ically
Ġcount less
Ġsociet al
engine er
**************** ****************
Ġre vert
Ġk ing
Ġdi et
M W
ĠR DF
des cribed
Ġsm ells
BI OS
Ġwon dering
Ġcrypto grap
j pg
Ġgr ate
Ġback ing
Ġauthor ize
import ant
graph ics
Ġindic ations
Ġin h
Ġa i
pt ic
ĠV U
ĠAur ora
Ġh on
lib x
Ġim balanced
Ġret ains
S uch
com mit
ĠScient ific
step s
ind d
Ġplay back
35 2
Ġun amb
Ġcrack er
Ġsp here
Ġcr itics
ĠCur ve
ĠRes ult
ĠFed ora
Ġinherit ance
SS E
Ġaggreg ating
Ġmy riad
US ER
Ġgen omic
lat ency
ĠE E
App s
Ent ry
Ġaff ine
Ġobserv ational
xx x
Ġacquire r
ICUL TY
ĠR CE
Ġem an
Ġresc ue
Ġr am
Ġrev oke
- )
Ġj itter
dh s
ĠF AA
O UT
Ġbrow n
Ġany time
Ġaff airs
ĠSo C
ĠMichel le
ĠP ing
ĠS her
Ġstack ed
Ġvol atility
Ġ======== ===
ĠR iver
Ġcha os
Ġfl uid
ĠDef ensive
Ġintr anet
ab b
Ġpo pped
top ic
}} }
ĠC RL
Ġentr ance
ĠHand book
hes es
URL URL
Ġinnoc uous
Ġch romium
ĠK el
ĠT act
Ġb ounties
ĠSo on
ile m
Ġunre achable
4 10
Ġasym metry
ob s
Ġdeter ior
form ing
ĠAl t
ĠCh romium
ĠLe ague
Ġimper fect
Ġtur b
ĠRe uters
Ġsubsid iary
ad el
ĠW ire
22 8
aked own
ĠT reat
Ġir regular
run ning
ĠWh atever
ĠPer cent
den oted
ĠCirc uit
App le
op ing
ĠJ u
ĠMc G
Ġbread th
F B
ĠC RE
Ġcul pr
Ġb a
Ġhe s
in ar
Ġweak ly
S afe
ang ers
xy gen
Ġdiss imilar
ĠExc ell
ĠS B
Ġne at
ĠX ia
hand ler
ict itious
Ġport ability
Ġguid ing
Ġhome page
ĠG reek
Ġag es
b t
ĠAnt on
ĠEl astic
Ġnar rative
ĠRele ases
ason ic
n m
R oot
se ver
ĠM ET
ĠK at
ĠGo ing
Ġbuck ets
Ġmicroarchitect ure
ĠIN C
Ġconcaten ation
Ġz u
ĠDownload s
Ġadjust ments
Ġconject ure
ĠPM Us
ĠProced ure
Ġbatter ies
Ġevent ual
S ense
Ġinf amous
ĠEmp ire
Ġf ading
ĠN VIDIA
Ġrecru ited
ĠPK CS
Ġmarket ers
dat ab
Ġap ache
ĠCit rix
OS E
Ġshut ting
Ġrecur ring
Ġn iche
Ġextra ord
ĠT B
27 9
Ġcos ine
l ive
ĠEx erc
mod els
Ġspread s
Ġphotograph s
defin itions
ĠS ud
ĠMechan ical
Ġpron ounced
ĠStud ents
ĠC ov
FF ER
S AT
ĠPro s
Ġpus hes
ĠZ DI
86 2
ĠBr un
network s
Ġunint entionally
Ġst re
Ġexceed ing
Ġtravers ing
Ġtr ash
RP C
Ġprompt ly
Ġdup licated
man y
um ed
50 5
ĠP rediction
ĠSt ock
Ġwant ing
ades h
Ġsubscript ions
h as
Ġc ub
ĠWar fare
Ġden ying
0000 00
ĠTib et
iction aries
ĠS ect
Ġoptim istic
ĠHol ly
ĠN ation
ĠRem ove
r l
Ġh amm
ĠM ut
Ġmotiv ating
D NN
Ġincl usive
ĠS alt
Ġbe acons
ĠC yp
Ġe in
ĠN D
ĠD ump
ĠO EM
Ġsl ide
ĠLa unch
f ollow
ĠIN TER
ĠSurve illance
Ġwrong ly
ĠiPh ones
Ġrepro duced
Ġco ined
wik ipedia
ĠN L
ĠComb ined
j i
ĠN SS
Ġch aining
Ġche ating
Ġpredeterm ined
Ġtwe ak
Bu ild
ĠT ok
vent ions
ĠCI O
Ġnegot iate
A MD
Ġnewsp apers
Ġbad ly
C ross
Ġbr ake
Ġanc est
Ġc iv
ress ions
Ġread ability
f und
m obile
ĠF IT
Ġdistrib utes
ĠNow adays
F ilter
empl ates
A ES
appro ved
Ġpolar ization
AD ES
ĠPart ial
ĠManip ulation
Ġexp ands
ason able
Ġcatch ing
Ġdup licates
ĠComprom ise
ch itz
Ġ1 64
60 2
Ġyield ed
G EN
Ġart ific
Ġcolle ague
ĠSE H
Ġf oster
Ġret ro
Ġboot ing
c we
he t
Ġexperiment ed
Ġnovel ty
Ġtestbed s
ĠSir i
18 8
Ġtail or
Ġasympt otically
X T
19 9
ĠEC G
ĠChar lie
Ġorgan izing
Ġincred ible
ĠP apers
Ġvic inity
A ction
Ġl as
ĠE c
s q
ĠT a
Ġsupp ression
h ang
w c
Ġsal ient
ĠChang ing
Ġ20 48
ĠSS E
ĠPrinc ipal
ĠHu awei
ĠS plit
Ġok ay
Ġregistr ar
F usion
ins ky
Ġguarantee ing
Ġfle et
Ġd ry
ĠD if
ell ation
ĠK am
Ġinv ention
ĠL ittle
AL ANCE
P ad
ĠT ouch
Ġ+ ----------------------------
rec ord
A meric
J AX
Ġcorrect ive
acer oute
ĠDIFF ICULTY
AC TER
Ġdump ed
aus ed
Ġsub mits
Ġintr usive
ĠTrad itionally
priv acy
G O
Ġcaut ious
ĠV NC
et ching
ĠDe lete
Ġdpk g
Ġenvelop e
o e
Ġnot ifies
Ġdump ing
Mod ule
Ġw estern
Ġfall en
Ġentreprene urs
ĠMan age
r ates
Ġv eter
ĠB h
Ġer asure
ĠN v
Ġev al
Ð ¾
Ġjo ins
ĠS outhern
Ġsp are
ĠIns ert
ition ing
Ġc ripp
ad ic
22 1
Ġembr ace
Ġaven ues
o ly
Ġcombinator ial
B erry
ĠR isks
18 5
C at
Ġexpos ures
ĠDocument ation
Ġre written
ĠSIG INT
and ex
Ġuna ffected
Ġdot ted
Ġc c
Ġal arming
ĠEXIST ENCE
ok ia
Ġperpet rator
E v
e ach
Ġec x
ruby gem
Ġs le
ĠH ierarch
ĠDest ination
ec a
om ics
ĠPrint ing
Ġac ron
fusc ated
Ġelectron ically
ĠJ VM
it ure
50 2
40 5
Ġg ene
i ology
ĠH ad
ĠEn igma
en ch
ang ular
Ġpe aks
Ġstick ers
ol lo
ĠSc ot
Ġspam ming
ĠMa pping
ĠTR ANS
ĠIncor rect
cl usive
48 5
ĠGener ic
ĠIn ject
Ġre location
Ġwith stand
ĠSwed ish
A IN
D ep
r ine
ĠAfter wards
mon itor
B AS
ips chitz
25 2
ter min
no ise
Ġcont iguous
Ġcl ones
Ġinvestig ates
Ġachieve ment
ĠWork s
ĠConf icker
ĠExper ience
ĠA AA
Ġmal vertising
f our
ĠIn struction
as per
Ġblacklist ed
Ġsens ed
II I
xxxx xxxx
Ġtom orrow
27 4
ĠCHAR ACTER
Ġ" -
ĠCS V
Ã ¼
Ġst upid
Ġyour s
Ġincrement ally
itud inal
Ġmicro processors
gu est
ĠF DA
ĠTrend s
Ġm ock
Ġins ulin
Ġs in
Ġm unic
f igure
ĠC itiz
Ġcl ue
t oll
act ivity
ĠTelecommun ications
LA SS
ĠRe gin
ĠE ER
Ġrebo ots
ĠTECHN ICAL
ĠNot Petya
Ġweight ing
Ġquiet ly
Ġmim icking
ĠHam ilton
Ġunder graduate
Ġont ologies
79 8
ĠD roid
80 8
ĠPack ages
ĠPert urb
ĠSt aff
EN TION
ĠConn ected
Ġdiscrimin ate
ĠD elivery
th an
ri ends
ĠMich igan
ĠQuest ions
Ġmean ings
Ġundes ired
ĠO s
Ġinter ior
ĠInter cept
ĠPoint s
Inst all
Ġconcaten ated
16 1
Ġq t
D ig
back s
ĠEv il
ens ible
Ġqual ities
Ġbl end
ĠOx ford
30 7
Ġas c
Ġdomin ance
th ink
ass emb
Ġeng agements
ĠDef ence
w b
us hed
Ġ( #
em ies
L a
ĠS AS
Ġlast ing
Ġadv ancing
comp onents
Ġneighb our
Ġref und
ĠLulz Sec
f ac
Ġb atches
hest er
ĠAdvers aries
Ġrec omp
Ġremed y
M ENT
Ġopen ness
Ġmaintain ers
t ables
Ġv ill
se par
oper ation
Ġmis information
n ative
db c
Ġst ale
ĠC art
def ender
ĠBren nan
34 6
Ġfun ny
ĠGener ative
CC CC
ĠSE V
S n
end or
yl van
Ġgy ro
re view
Ġinter rog
17 7
MA X
Ġcryptosystem s
ĠDe an
ĠLiber ty
or un
Ġquestion ed
ĠMiss ing
Ġt rib
ĠBound ary
ĠH old
w er
ĠR os
Ġqu it
** *
ĠLe ft
m ad
isc uous
ĠSN R
Ġvac uum
Ġexpress es
ĠExec utable
Ġfavor able
ĠModer ately
m ult
ĠUN C
ĠFI LE
ĠH S
ĠHam ming
ec onomic
se ed
Ġint ract
32 4
h ist
Ġh i
Ġsc andal
ins p
ĠDN P
ĠDevelop ing
qu al
ĠAdministr ative
Ġprocure ment
Ġre ductions
rop ol
ear ing
ĠNot ification
18 1
28 4
ĠNe ither
back ed
m or
ats on
Ġs inks
Ġreg imes
Ġpres cribed
ĠAnt h
ĠFlash back
Ġstay ed
ĠDR AFT
ĠMor ris
ĠAssoci ated
ĠB ird
ok u
Ġemphas izes
Ġrestaur ants
oj i
ĠBang l
Ġconstruct ive
Ġartific ially
M ay
P ublic
Ġha v
et ers
ĠE BP
Ġtax es
ĠManag ed
ĠM ission
ĠO ak
34 4
ë ĭ
ns ylvan
ĠStud ent
ĠCount ry
Ġsemic onductor
il lo
ĠF red
ser ved
Ġfoot er
Ġ_ {
ĠLock y
Ġexp ed
ĠEnh anced
Ġdetail ing
b ell
t emporal
ens ored
Ġsandbox ing
Ġunob servable
ĠH Y
k de
Ġindefinite ly
and roid
ĠCo hen
Ġp ent
bers ome
P res
Ġ ÃĹ
Ġexc erpt
Ġreg ener
ĠMatthe w
m able
ĠJ ew
ĠOpenV MS
3 70
ĠB ol
Ġser v
ĠViet nam
ĠN elson
ĠEXPLOIT ABILITY
am pling
Ġmod ularity
Ġrepro duction
Ġport als
P y
ort ing
ĠProject s
if est
dig ital
ĠC and
/ (
Ġexploit ability
Ġrequ ester
Ġaud ited
Ġe gress
Ġam ate
Ġdeleg ated
ĠUn known
ĠSV G
Ġf urn
Ġvisual izations
ĠAir bnb
C lick
in ism
Ġspeak s
Ġ1 85
Ġtools et
bi ased
ĠPict ures
Ġagre es
Ġrecru iting
Ġenjoy ed
Ġhel lo
CS RF
ĠT emplate
ĠL aser
Ġpr imes
Ġz oom
cook ie
P LC
Ġd orm
Ġclip board
Ġclean up
OW N
ĠBer lin
ĠINT RODUCTION
ĠUP DATE
ĠC DF
ang o
Ġult ra
ĠR W
Ġdecent ral
ram id
ĠInfo Sec
Ġst ip
Ġph on
[ ]
on ce
27 5
ival ent
ĠDr agon
ĠAS V
Ġlaws uits
Ġb acter
Ġcert ify
ĠProb ability
p otential
en v
AC H
Ġmasquer ading
ĠUS N
Ġquant itatively
es h
Ġf ut
Ġaxi om
Ġir on
ĠE fficient
Ġtrad ition
Ġg osh
ov o
Ġsub str
ĠCN S
P F
Ġpop up
30 3
ĠInst ant
ĠP ier
Ġinterpret ations
ĠH ook
ĠInd ic
IG N
ri vers
Ġn uts
ĠTr ain
Ġav iation
Ġmis under
pre hen
ĠPage Rank
, .
ĠExec ute
Ġpunish ment
64 2
k an
17 9
ĠG a
r ace
ĠT y
Ġrevers ing
Ġe ager
Ġfar m
Ġv oted
ĠM IC
our ne
Ġsm oke
ĠPen nsylvan
H ead
f ive
irect ed
Ġdep loys
ĠPass ive
ĠTik Tok
ĠPCI e
19 8
Ġconsult ants
ĠChrist opher
ĠL ID
Ġcum bersome
ĠCamp aign
Ġauto encoders
Ġhur d
Ġlegisl ative
Ġup link
am os
AP E
Ġintr ig
Ġstrug g
ĠCAPTC H
format ics
Ġvers atile
40 8
Ġ9 00
be fore
W IND
ĠRout e
Ġlex ical
M AN
ĠAccount ability
Ġmal wares
Ġadmin ister
ĠSequ ence
s pr
Ġse iz
Ġsub vert
uss ed
requ ently
f etch
ĠA H
ĠP ART
Ġbreak through
ĠClass ifier
as ury
ĠPon zi
ĠProv ide
O WS
f re
ĠLagr ang
ST L
, âĢĻ
Ġstim uli
E u
a ad
an umeric
erv ous
Ġsm ell
f its
Ġspec ulate
Ġfore see
01 7
Sim ilar
Ġce ase
ĠT rip
Ġatt ended
ĠS GD
Ġpat rol
ick ed
ĠSOC KS
Ġprol ong
ĠNear ly
Ġnon etheless
) \
Ġla ugh
b inary
he v
Ġs its
ĠH it
l ag
ĠGraph ics
Ġplat oon
ff f
Ġtom cat
D OC
Ġ+ ----------------
Ġgest ures
f amily
up y
Aut om
Ġreserv ation
in variant
Ġc f
ĠN B
Ġx p
Ġspray ing
c ategory
ĠChrist mas
Mal ware
ĠK le
ser viced
Ġcyber bullying
in jection
ON E
ĠV ert
Ġhop ed
ri ors
p ixel
ĠBusiness es
Ġchair man
ĠG lass
ĠPennsylvan ia
Ġeven ly
ĠM V
ge x
Ġinter fering
Ġfin er
OW ER
Load er
Ġdefend ants
Ġrec v
H F
ĠU AC
du ino
ĠC lose
hem atic
Ġplant ed
Ġsil ver
ĠAttrib ute
gu ess
Ġbenchmark ing
Ġtouc hed
Ġe ating
reg ion
Ġstri kes
ĠWAR R
a ire
Ġp unct
Ġob ey
am ber
Ġclass room
Ġtract able
u er
Ġmis used
ĠAng ler
ĠNETWOR KS
ĠUt il
Ġre order
Ġman uscript
Ġtel ecom
Ġlabor atories
ĠPer iod
Ġgather s
Ġhonest ly
ĠW LAN
ĠLu a
Ġf ictitious
Ġfont s
20 23
Ġrepro gram
E nergy
19 1
Ġsustain ability
Ġmasquer ade
ĠS andbox
Ġdefend ant
Ġdepos its
Ġch rom
Pass word
y o
at ting
S am
Ġrecogn izable
Ġdisc ern
ont o
Ġer ased
Ġin et
RE SS
Ġlif t
Ġmut ated
Ġappro ve
AT H
Ġimp rison
sp y
ĠAtl anta
N otes
ĠM ong
Ġp oker
TRO L
x e
19 6
Ġ================================ ===========================
Ġenthus i
Ġint ents
Ġmultipl ier
S K
Ġint ellig
vic tim
Ġfr aming
Ġ> =
Ġprecond ition
ĠR ating
Ġent ail
Tr ue
XX X
ut y
Ġmal es
ĠRuss ell
ĠN est
Ġre using
Ġdata flow
Ġfig uring
Ġroad map
01 5
ĠGener ating
Ġinstitution al
Ġw elfare
Ġr ush
Ġmarg ins
Ġmisbeh aving
ĠR ails
W indow
Ġinqu iry
Ġacqu ires
ĠMess aging
al ation
Ġcogn ition
ĠUP X
SG X
V R
t itle
Ġmeant ime
OC K
Ġing ress
C ard
ĠR oss
ord ered
Ġax es
Ġrestart s
ĠATT ENTION
Ġs s
Ġi D
ĠAp ollo
disc iplinary
g age
ĠEx planation
ĠInter action
Ġmicro controller
Ġsanit ize
T erm
ĠI CC
ĠMcD aniel
b is
Ġdisapp oint
Ġhaw ks
Ġint im
Ġkey boards
A c
Ġair line
Ġvast ly
serviced esk
ac re
Ġt iers
18 7
Ġrecruit ment
n map
ls a
ĠWeak ness
ĠT ier
Ġpro ud
ur ve
all ine
b m
ĠKey words
ste aling
T wo
p al
Ġstrug gling
ĠPlay Station
ĠMor gan
Ġpractical ity
Ġplaintext s
ro ute
Ġmal loc
IS M
ĠSte am
ĠFix es
ĠRel ay
C FI
Ġr icher
ĠB art
aly e
78 9
Ġpand as
Ġfundament als
ĠCorn ell
ĠB an
ĠE ternal
th alye
M c
ĠF ourier
ĠM SS
typ ed
ĠT urn
30 5
Ġskew ed
################ ################
ĠL ists
Ġoccup ants
h abil
Ġb er
ĠH ay
ĠPl ace
Ġsp ends
ĠImm unity
Ġb lob
Ġsc attered
Ġx ml
ĠFr ame
thread ed
i X
log y
Ġje opard
IM A
ĠFl ip
Ġstreng thening
ĠPo W
am ar
ĠR D
ĠU ML
h ub
Ġapp ending
Ġn a
ĠCISA servicedesk
ps i
g lobal
ĠMit nick
rep udiation
an alyst
log ical
Ġrepl ied
Ġimag ery
Ġfl ux
ĠS omething
ĠPol and
ĠP u
ĠSP ARC
Ġw er
Ġdegr ades
inter face
R SA
ple tion
Ġend less
Ġreact or
Ġp our
ang les
Ġconclud ing
ĠBroad cast
ĠL inks
r f
est yle
Ġtra pped
Ġd ictionaries
Ġtw itter
ĠSt ory
d m
01 1
av ors
Ġmir rors
ĠD D
Ġpseud onyms
ĠSub st
vuln Id
bor ne
k m
Ġmicro sc
pe ople
Ġmanufact ure
ĠInter active
Ġmistaken ly
Ġun att
reg ister
ĠSC A
Ġprompt ing
J ECT
S un
ĠColor ado
ĠIter ative
App lication
2 99
Ġmot ive
C ipher
ĠNT FS
w ind
Ġunexpected ly
Ġextens ible
US ION
Ġ ^
cond itions
ad or
Ġam ort
ĠB ag
th ora
s ocket
g ical
sch ool
ud p
gn ome
Ġunman ned
ĠN okia
00 7
Ġtra it
Ġencrypt ions
Ġecosystem s
R NN
S um
ch ild
Ġassoci ative
od d
Ġparallel ism
om er
Ġun e
Ġoccasion al
cond uct
ĠB ed
Ġrepe ats
is crimin
Ġpass ports
16 6
ĠN aked
gu ided
He alth
í ķ
Ġr ack
Ġbi ology
g db
ch osen
ĠTim ing
V e
Ġfit ted
un iform
---------------- --
ĠCons ortium
oc ode
i ere
ĠR ub
Ġqu asi
Ġpip es
ag ment
ĠSS ID
Ġcl ipping
Ġprec ious
ĠB ooth
Ġhot els
Ġliter al
Ġwhitel isting
ĠV O
ss on
Ġexpress iveness
Ġsc ar
ĠK o
Ġc Dc
Ġab uses
Ġsm arter
55 5
s ky
ak i
conf iguration
at ics
uk in
Ġcallback s
respons ive
he ast
Ġur ged
Mod el
Ġsu ed
ĠV ent
h ave
M ode
Ġscr aping
Ġslo pe
By te
ĠBangl adesh
ĠV AE
Ġref r
ĠS us
ĠB uff
Gr aph
ĠCHARACTER IZATION
ĠBlack Berry
And roid
ĠU nd
40 6
ĠDec eption
Ġqual ify
Ġbip art
ac em
Ġret irement
Ġfals ified
ĠG il
Ġb ic
ĠSt one
Ġprof ic
ik ov
ĠCr ash
Ġdead lines
Ġla zy
Mad ry
ĠH ung
Ġow ing
Ġed its
Ġreus able
ĠC ou
Ġal b
ĠP urch
ĠM N
es ar
Ġn ervous
ell a
ĠAr c
ĠM oss
p ared
50 6
Ġslow ing
ĠFirewall s
s hip
ĠF ew
ĠB uzz
ĠJ G
44 7
Ġlike wise
Ġestim ators
it ers
Ġtr aps
Ġ>> >
2 15
Ġk Hz
Ġj Query
ian a
ĠLew is
ou red
ĠK ot
Ġdel ta
abel le
p am
ĠC ry
gener al
s ometimes
18 9
it em
lab s
Ġascert ain
ĠMain tenance
Ġs igmoid
g mail
ĠNo vell
Ġe licit
ĠO B
Ġsoon er
ĠCar l
arch ive
ĠNS L
ĠNeg ative
Ġexp ire
EC H
en berg
Ġk ios
Ġfr ustration
Ġback ported
RF C
Ġimp osing
Ġj b
ĠHar ris
Ġbre vity
Ġplan ner
Ġ" \
ĠWin Dbg
ĠG ithub
Ġinitial izes
R G
Ġmod alities
Ġdepend ability
Ġwer den
ĠS ensors
int o
ĠEstim ation
A g
ĠEngine ers
sam pling
Ġgosh aw
ĠCON F
Ġt ension
Ġsw ift
h ook
elect ric
ĠMad off
v or
ĠBr utsch
sol utions
ar ity
ĠF O
av is
Ġthrow ing
id ate
Ġch urn
Ġd ilem
H L
ĠM en
Ġpack s
Ġsens ory
Ġalter ation
ĠF ord
Ġout let
Good fellow
Ġsne ak
ur istic
ĠDet ect
ĠCom ment
ĠA CS
Sh ift
um ns
ap unov
vis ing
Ġgeneral izes
Ġare na
Ġwork shops
Ġ======== ====
Ġa erospace
ĠA ODV
P ost
s em
Ġsp arc
plex ity
dat abase
Ġdiscretion ary
ĠJ ean
techn iques
Adv anced
Ġeconom ies
ĠD og
RO ID
ik it
Ġdoub led
iA rc
Ġsecret ary
Ġreal world
ĠObject s
un ed
Ġur ge
Ġcult ures
Ġstri pped
ag ain
Ġded uction
Ġmic row
Ġbr aking
Ġfamiliar ity
oom la
ĠMIL P
l ection
u o
sm b
ĠM ov
Ġhard ness
ĠMob ility
ĠT em
ĠP sych
Ġdel im
ĠSS O
neg ie
D uke
Ġcol oring
Ġvo ices
in ternal
Ġtrans ce
ĠCho ose
m atic
ĠOpen ID
Ġple thora
Ġ' '
ift een
Ġdisapp eared
Ġwas ted
Ġarrang ements
or al
ĠH orn
not es
ĠRev olution
ĠSchmid t
Ġphys iological
Ġten ants
Ġcompos itional
host ed
ph i
text style
Ġ1 84
ĠN ick
ĠGu est
! !
ĠGener ate
re ach
AS LR
Ġd rew
ĠH ttp
str ateg
Ġthere of
pr one
Ġindict ment
Ġbrack ets
. :
ĠAtt empt
Ġtrade offs
ĠRy uk
X ML
G ate
U se
Ġthere after
ĠAP s
Res p
Ġw get
Ġcopyright ed
ĠL ipschitz
ĠMalays ia
0 888
ĠS ab
Ġannoy ing
= -
ĠW atson
ĠM illion
Ġattend ees
C are
Current Version
Ġeleg ant
b orn
CP A
im ation
Ġdat agram
Ġdis pro
Ġval ves
Ġperson a
------------ -
Ġtransparent ly
i ator
Ġdef ective
gl ass
urer s
Ġvac ation
F ore
19 7
or ne
Ġp ec
Ġcre ep
Ġthere in
ĠB on
Ġsh aped
ĠSP L
Ġc s
Ġm it
H V
Ġa kin
ric ane
li ver
Ġund ocumented
pos ing
ĠCar negie
Ġbis imulation
18 3
F unction
R ad
Ġtri ps
direct ory
click ing
ĠNav al
ĠCybercr ime
conn ection
ĠEnt ity
Ġab rupt
Ġhost names
Ġconnect or
Ġtyp os
Ġloc ality
Ġspons ors
ĠR ADIUS
IS S
ĠSh ut
Ġincrement ed
offic ial
Ġproceed ing
A ug
determ inistic
ins on
ĠG ig
Ġoff ending
prem ise
r age
00 9
ĠSQL i
ĠJB EAP
ĠD ir
Ġ1 88
Ġu a
ĠFin land
ĠCol on
Ġtool box
Ġsong s
Ġinf inity
ĠBench mark
ĠI l
ĠO D
ĠPub lis
ĠWOR K
Ġtow er
ĠD ong
ord inate
ĠCn C
A p
S he
ĠRepublic an
Ver if
ig i
ĠG IF
z ed
Ġbeaut y
ĠSte aling
N AME
ut ational
ĠUS ER
fore ns
Ġstim ulus
Ġlack ed
Ġag ility
int r
Ġsens ible
Ġcollabor ating
++++ ++++
J SMA
Ġnavig ating
Ġli bert
Ġmanage able
ĠCrowd Strike
Ġrev ol
Ġstat ech
ĠLy apunov
d sc
m bs
O ct
ar ray
ĠSMB s
quant um
W ord
ĠIntr uder
ĠVend ors
Ġimp air
ĠSt yle
Ġre per
Ġmeaning less
Ġfall back
Ġshort cuts
im ag
ĠR OS
O ff
Ġslic ing
Ġlo ans
Ġimm unity
Ġdec oys
Ġrec overs
ĠUlt imate
Ġt issue
40 2
Ġdistort ions
( [
Ġa ids
ĠA round
32 8
29 4
Ġconve ys
qu ot
wit ting
ĠAt ari
ĠBr ad
art ial
Ġcur l
Ġprecond itions
Y Y
Ġe lder
0 24
ers ey
Ġk in
ĠR ot
Ġinfinite ly
p rediction
urs or
ĠC um
Ġpack ers
Ġvolunte er
IS H
Ġpop ulate
ĠSC ALANCE
Ġjail break
K T
ĠA IC
Ġbetween ness
Ġprogress ion
Ġpl ag
Ġsk ipped
ĠKer as
ĠB eng
ĠB ody
Ġproject ions
Ġrad ical
Ġcust ody
C re
Ġm bs
Ġunav oid
Ġlo b
Ġarg uing
il a
ĠB atch
ĠHand ling
ĠEv idence
L ID
Ġo mn
ĠG DP
Ġinf osec
Ġinform ally
R ES
ly n
ĠW ales
ĠE RR
Ġcle arer
Cont ent
ĠJ D
Ġut most
for th
privile ge
ad ium
Ġrec re
urre nce
ĠUN ION
olith ic
Ġsimpl ifying
ĠFort inet
cy c
Ġur anium
Ġl ad
ĠG W
ĠLog s
med iate
ĠPre par
Ġl ux
res ult
Ġel apsed
Ġillustr ative
Ġcap s
200 2
Ġfabric ated
I EEE
ĠC ast
ĠResp ond
ĠD ream
Ġdro ve
Ġt anks
ĠN oS
Ġsp ikes
Ġsub group
ĠCode QL
ĠBrazil ian
ĠM ind
sh ort
port ion
ĠPort able
m ir
ĠInsp ection
S ocket
Ġf oo
ĠZ ukin
IN S
represent ed
Ġwire t
G U
Ġres ets
Ġa arch
ol ly
Ġdebug gers
stat us
ĠConst itution
ex it
E MS
ĠD ere
Ġadapt ively
Ġhous ing
Ġuncond itional
Ġir re
Ġf f
leg acy
rim ental
em ons
ens itivity
str a
Ġor ange
act ing
effic acy
Ġlot tery
ĠMac Book
80 2
Ġoccup y
sn mp
jump id
Ġoffsh ore
led ged
Ġbre at
ĠAr duino
ĠCe leb
Ġt on
m ates
Ġdeter rence
Ġ ions
ĠH KEY
Ġcode base
Q C
ĠE MS
ĠLagrang ian
Ġmin us
ĠMont iArc
Ġtr unk
U AV
ĠRe vision
ĠST M
h ire
Ġc ensor
Ġsp ell
ĠUp load
ĠTo y
Ġtel esc
ĠProv iding
ĠG ib
Ġexperiment ing
H igh
M ed
ag ios
Ġover run
arent ly
77 7
Ġinters ections
Ġho ax
Ġbrok ers
ĠPent agon
ĠG row
Ġintermitt ent
r ays
Ġbe ll
Ġlib xml
Ġnumer ically
g el
def ended
ĠObject ive
ĠSil icon
h idden
ĠH Q
Ġblind ing
V irtual
Ġnegot iations
ĠVari ant
ĠAnth ony
Ġcan ary
Ġins ecurity
Ġautonom ously
L ear
Ġn atively
Ġ2 24
Ġund irected
g ements
Ġst ocks
Ġprot ein
co operative
6 96
Ġconcept ually
hand ling
Ġmand ated
Ġco erc
ĠEx ception
ĠWh it
Ġreg ulator
Ġspac ecraft
al igned
Ġtechn icians
Ġenroll ment
i ac
d n
ĠD ot
ĠN EC
az a
ĠPR NG
j an
ĠJ udge
Ġp up
block s
Ġun law
ĠAr med
aud io
Ġm ild
ĠSur face
Ġblind ly
Ġtest im
P at
ĠOn apsis
Ġstri king
Ġ19 81
ĠAS IC
Ġf iring
The ore
ĠCred entials
ĠBelg ium
B ull
x ec
Ġrep utable
comm ons
ĠJT AG
g un
at ural
ĠSy ria
UL T
D isc
ĠG RO
ing e
ĠCap abilities
ĠK a
ĠH M
'' ''
Ġfe ars
ĠNicol as
Ġwatch dog
Ġflight s
ĠSat ur
ed s
ĠRe ason
ĠT error
ĠV ANET
MS EC
reng th
ĠNum erous
Ġv andal
Ġgold en
r ule
ĠG ates
Ġdet rimental
Ġloy alty
Ġ12 3
osh i
our se
Ġtele phony
L ow
part ic
Ġmicro phones
Ġpip el
ĠCI s
Ġem ission
70 4
sv g
C W
G e
ĠPoison ing
Ġar ts
Ġweb mail
Ġ======== =====
Ġdistort ed
V ol
ĠA griculture
ĠN FV
int he
te es
pe g
ĠCl aim
ĠMus ic
ĠAtl antic
Ġflood s
T arget
Ġl b
ĠF B
Ġstuff ing
M AP
ĠPar allel
Ġun controlled
Ġlegitimate ly
Ġs ick
Ġword list
Ġkit chen
habil itation
Ġthre w
ĠB ow
" "
at isf
ĠAr ray
ere gr
Ġoppos ing
Ġst rive
ĠVari able
Ġrain bow
ĠR om
S ym
Ġreferen cing
ĠUn ique
32 6
ĠAct ions
GN U
ĠSte ven
ĠLot us
compl iance
former ly
Ġd inner
Ġsp ans
Ġrig id
S IM
Ġat h
48 4
ĠSA ML
control lable
ĠT ag
ĠR ET
Ġwip ed
ri el
ĠDr ug
Ġcorrupt ions
um ble
RE AT
ĠSw ig
ilt ers
ĠDiff icult
Conn ect
ĠMembers hip
Ġmisbe havior
Ġspons or
ĠTim eline
Ġexponent iation
2 30
ak is
Ġ15 00
g io
Ġarr ange
eck er
ĠPon emon
Ġwar s
ĠM X
ass uming
Ġbug gy
Met hod
50 3
ver ter
inc ent
Ġlogarith m
b n
Ġun know
28 5
b ee
Ġshow case
Ġboot kit
Ġmoder ators
Exp loit
ĠR ain
Ġunlock ing
Ġelabor ated
ĠOPER ATING
Ġres idence
Ġse q
ĠFact ors
Ġsquee zing
ĠE DR
ĠL ik
Ġper miss
Ġoptim isation
t ope
ĠW MI
Ġinstant aneous
ĠIOC TL
ĠT err
Ġpir acy
ER C
ĠTech Republic
Ġclo thes
ĠPl ans
ĠSol idity
ĠP seud
ĠLe Net
ĠSM E
Ġst ressed
OD S
ĠThom pson
Ġliber al
Ġp g
Ġ3 000
Ġnon compliant
pec ific
IF IC
ĠStat ement
Sm art
Ġdefic iencies
H unter
ĠLog istic
Ġ( [
ĠRT T
lp ia
Ġf ot
ĠCost a
Ġacc us
Ġback propagation
Ġz er
ĠCl am
2 60
ĠC IP
Ġ| ----------
01 6
ĠR N
ĠP IR
ĠN ak
Ġg cc
GP T
Ġfat igue
Ġ ê
U F
ĠYe ah
Ġ2 40
ĠSh op
ro oms
ĠLog ging
Ġoverl aps
Ġpass age
Ġboost ing
ferent ial
D Net
Ġwhe els
ĠUt ility
Ġde put
ĠAnaly tic
ĠMit M
Ġb ump
ere nt
Ġwa ited
L I
P II
our c
Ġimp rec
ang h
Ġdown gr
ĠTrans formation
Ġnort hern
ĠS Us
Ġsm ile
Ġsn ow
Ġdeclar ations
Ġpec uli
ĠR ansom
Ġout door
Ġclo aking
Ġcondition ed
upport ed
Ġd ur
Ġall ies
70 8
ĠRB AC
Ġmn emon
ĠEC X
ĠLaw rence
ĠVictim s
A ud
F ORM
OP C
aaaaaaaa aaaaaaaa
al located
ĠW ast
Ġincre ments
Ġconscious ness
2 86
Ġc ere
te fact
C an
ec d
Ġpercent ile
ĠSP E
ĠClass ic
ĠUn its
Ġcou p
ĠCond uct
Ġ100 00
ĠR u
Ġupp ercase
pro ced
Ġmus cle
ĠA st
Ġcount y
ĠO cean
ĠB rok
ĠJ ama
Q R
Ġpar liament
28 7
Ġparent heses
ord an
Ġpredomin antly
Ġtime frame
Ġpol itically
Ġrent al
Ġtox ic
X P
or ous
ec ks
ĠZh ou
Ġt apes
Ġsu its
Ġun witting
ĠEH R
> :
Ġcrypt om
ĠE p
ĠExploit able
Ġstret ch
Ġspaw ned
Ġp added
ould er
gt k
ĠM other
um ent
Ġph ish
Ġ3 50
n ob
x ulrunner
Ġco herence
o W
ĠO ri
tern oon
N umber
R uss
Ã ¤
Ġ< <
Ġsecur ities
ĠCh ip
Ġprom iscuous
ĠBU FFER
Ġch ron
Ġpol es
ĠDo ctor
Ġmand ates
Ġdisturb ing
ĠCalc ulator
ĠAdd ed
Ġsix th
Ġprogress ively
po ison
Ġign or
incre asing
Ġenumer ating
ĠSpam haus
Prot ect
d B
B as
ĠP ages
Ġme at
ĠHigh ly
ĠB D
77 6
Ġ27 001
s ingle
ĠP SN
ĠD ro
ĠF oot
32 1
bug s
Ġ================================================================ ========
Ġtransist or
Ġmil est
Ġali ases
ric hed
ri age
and estine
ĠT T
do i
Ġtechn ician
ĠR on
Ġph re
Ġsv chost
Ġvict ory
ĠRe venue
ĠSophos Labs
od el
ĠW orm
Ġevic ted
N IC
Ġsat ur
EX T
rupt ed
Ġcircuit ry
ĠM OS
ĠSec re
su fficient
ĠLim bo
ĠCamer a
Ġp tr
ĠAN AL
2 96
Ġy i
Ġen rolled
ĠO BD
ĠX ie
ĠGovern ance
D ATA
Ġe ast
To ols
er ves
indust ry
ĠExcell ence
Ġimport ing
Ġrespect s
Ġexha usted
ĠInvestig ations
L US
Ġw inter
Ġpedest rian
ur t
Ġshort ened
64 8
Ġampl ified
Ġcompar atively
ĠOS es
ĠEnter t
Ġaver ages
m icro
Ġw izard
ĠU M
ĠDis ney
ĠCR S
ĠSchne ier
s plit
es ome
ĠCol umn
Bull Archive
w ild
Ġf art
g lsa
Ġlo ved
ser ial
Ġmultip licative
M ix
ĠTre asury
Ġlob by
Ġresp ected
200 1
Ġnondeterm inistic
ĠC el
ĠC OR
16 2
ĠG DB
prior ity
Ġ10 9
Ġendors ement
Ġt ighter
ĠMag ic
ĠN F
ĠPh oto
cont ained
debug ging
Ġall iance
Ġshe ets
Ġunders core
Ġde ob
Ġshuff le
Ġan ger
Ġinterdepend encies
Ġnecess it
Ġpo le
Ġste el
ĠSM Es
Ġnet list
ĠRoot kit
z u
il og
ver ified
Ġintern als
Ġuna uthor
Ġvisual ized
Ġdepart ure
Ġcardinal ity
ac ian
igh th
ĠCP E
Ġstem ming
in x
ĠD um
Ġrot ating
Ġcr u
40 3
Ġun forge
Ġdis information
ĠOS INT
Ġcontrad iction
ĠIOC s
h al
ic ulous
keep ers
uck s
G DPR
ass y
Ġdem ographics
ab i
sec BullArchive
ĠDel ay
e er
Ġgen es
Z DI
ĠD ocuments
( âĢĺ
ĠD elta
Ġinc ap
ĠM ath
ĠUnder stand
m c
re comm
Ġlow ering
Ġg lean
ĠAl i
ĠMe eting
Ġinvalid ate
ĠActiv ities
ĠHistor ically
r ather
Ġev ac
n ered
Ġs ig
Ġnormal ize
Ġdemocr acy
uct ions
OS P
Ġentire ty
Ġfill s
ĠHor izon
Ġyou th
Ġresol utions
76 8
Ġda unting
Ġstealth iness
ĠSil k
Ġm ood
ĠLi ang
Ġhamm ering
il o
ĠN ature
Ġfree ze
L ee
Ġp df
ĠEnumer ation
t as
} =
am oto
ĠImportant ly
n p
ĠBank ing
ĠC ORE
Ġadvantage ous
ig o
det ails
em e
th al
aps es
vol ume
P OST
70 5
âĢ ĭ
Ind ex
W C
ĠP rize
Ġlit igation
ĠAb use
ĠHolly wood
ĠJ ersey
Ġfr iction
ĠBr ain
Ġanonym ization
ĠCS F
Ġmar itime
Ġintern ationally
i enced
ĠU m
w get
ĠFact or
EN IX
Ġsubt ree
r ically
Ġc b
ĠW M
ĠG I
A pr
ĠC ube
ĠV ar
lock ing
Ġlong itudinal
us a
ĠC AD
Ġex ert
Ġad mits
Ġrandom ize
Ġpo isons
66 7
ĠRES OLUTION
ĠS ay
ĠC up
ĠD AC
ĠC ash
Ġcl oned
Ġatmosp here
Ġch root
ĠL ind
ĠCap ability
ĠV ul
Ġ: :
Ġalph anumeric
SS ID
Ġrepet ition
, ,
iv est
Ġbirth day
tra ffic
ĠA AD
âĢĻ )
ĠFuzz y
ĠH op
ĠCon struction
ins ensitive
ĠPub lished
P age
Ġhierarch ies
os ity
ast y
Ġam bit
c ategories
ĠComm ands
ĠCrypt ology
ĠC U
onom ies
pay load
ĠIll ustration
ĠR ick
k h
Ġrot or
Y our
ĠT FTP
ĠB oy
Ġcr azy
Ġim min
Ġunauthor ised
m ess
Ġn ave
ĠHot mail
Y C
ĠNor way
m are
ĠY andex
Ġbo ots
80 6
D addy
it on
Ġcorrel ating
ĠC oding
ĠAcc eler
Ġfor tun
Ġsp awn
Ġcred ited
Ġsegment ed
ĠPrinci ples
ĠScen ic
L i
ĠMod ules
CR YPT
ĠDS L
ĠF AR
Ġab norm
() "
IG H
ĠCAPTCH As
on ge
01 2
Ġrenew ed
ĠS ending
64 0
Ġmut ations
ĠCogn itive
ĠM IPS
are to
ĠLight ning
R ET
build ing
Ġretrans mission
Ġaven ue
Ġattract ing
AC TIONS
Ġproof ing
ver ify
Sh are
y i
Ġx ulrunner
ĠInd ones
Ġabsor b
ĠB ast
Ġfiction al
lo e
Ġk et
Ġmur d
ed e
ar rival
ĠFl ag
ĠMell on
UT H
Ġf ifteen
as ant
ĠP NG
EC D
Ġdisc laim
Ġtim ings
ĠEXEC UT
ve rest
ĠSt ef
Ġtrans itive
35 5
ĠAust in
n ext
Ġun fortun
26 8
Comm on
Ġcrowds ourcing
Ġden oting
S F
ĠSur prisingly
ĠPS IRT
Ġgrate ful
ear s
ĠOu alline
25 3
n one
Ġinv asive
Ġneg lected
Vulner able
ĠDeterm ine
A H
ĠOne Drive
ĠCrypto Locker
ĠPrim ary
Ġx org
ĠAss ets
Ġconsolid ated
S ER
ĠL p
e ff
r r
Ġen emies
Ġdilem ma
] /
ĠF if
Ġ10 7
ra per
32 2
9 11
ol der
ĠTor onto
Ġenrich ment
as ets
ĠL ang
Ġind ucing
Ġten ant
ĠEntert ainment
ĠOut line
ĠDes cript
d p
th ree
ĠOr ion
ĠS ense
In put
ĠNew ton
Ġdiscontinu ed
Ġorigin ator
ĠPrinci ple
ĠP ed
Ġun biased
ĠSn iff
Ġcircumvent ed
ĠQual comm
ĠP ush
Ġs q
ed ed
ĠGP T
Ġdisass emble
Des cription
up lication
Ġin hib
ĠM SP
Ġind iscrimin
uck oo
Ġt ort
---------------------------------------------------------------- -
Ġden om
ah n
ĠJust in
hou ette
ĠRow hammer
d ynamic
l ability
re pe
Ġh ammer
Ġglass es
Ġpersu ade
Ġsur gical
Ġlink age
ĠShare Point
ĠICS s
e ing
ĠC z
Ġmet aph
Ġfet ching
Ġb s
path s
j avascript
Ġm k
ĠP arent
Ġt akedown
Ġ19 79
ĠPlatform s
et ter
Ġtreat ments
su per
Ġass ists
Ġdoct rine
Ġad missible
50 7
2 88
ro uting
iss ued
26 5
Ġcare less
ĠI van
net t
Ġg aze
h att
Ġ Ã
Ġfore ground
ĠOut side
Ġharm on
Ġanx iety
Ġunfortun ate
b row
ers hip
AN A
KL M
ĠMet ric
Sc ope
ĠCor relation
exploit s
V ec
Ġwith hold
Ġfif ty
ĠA OL
ĠP F
ĠP ot
Ġfor ks
ĠW iley
29 3
emp loy
el a
Ġco ex
ĠN ord
ĠPack ets
Ġabstract ed
ch i
ĠO mn
Ġsm ug
ĠCy cle
Ġcorrupt ing
d isco
M aster
ĠRat io
N P
Ġa cid
Ġhypothes ize
r ac
Ġconvenient ly
Ġpurs ued
18 2
ache lor
Ġblack out
Ġimpl ants
ĠCer ber
D ER
FLO W
in ates
us al
ext ract
Ġtempt ing
ĠJ oomla
ĠChar ter
Ġf ib
Ġ1 17
Ġun cor
36 9
ĠE cl
fo ot
B rowser
iv able
ows ki
ĠBas ics
Sec ond
Ġin ception
Ġrock et
P HP
S yn
ĠI ce
Ġouts ider
ĠCold Fusion
ĠX box
Ġoverload ed
ON G
Ġass isting
ĠTrans lation
Ġdup lication
IS E
Ġbind ings
ĠSp ider
BF GS
Ġsl ides
Ġaggress ively
R ef
Ġt ons
Ġelder ly
29 5
Ġintract able
Ġge ared
Ġsold iers
ĠSto chastic
Ġconv ol
ĠT ang
s ible
ĠG mb
Ġdirection al
Ġremind ed
Ġh us
ĠThe ft
ĠCS Cs
Ġhistor ic
Ġearning s
t ab
ĠF IR
33 3
Ġsurre pt
oun ces
ĠSS D
35 9
Ġillustr ating
t emp
Ġident ically
Ġinterview ed
I BM
c li
Ġfound ing
27 6
ĠComp TIA
Ġb att
ĠI ly
Ġro y
ĠEX E
m art
Ġi j
ĠEmpir ical
R andom
32 9
Ġlem mas
ĠA riz
ĠLabor atories
Ġim itation
ET E
ĠEu ro
ĠWal let
ĠD FA
Ġar tefact
ĠSM M
f irmware
Ġout source
Ġeb p
r aw
Ġimm utable
un ning
78 1
ĠCommission er
Ġworry ing
Ġnont rivial
ĠChild ren
R el
Ġw ine
Ġnum b
vi olent
s ent
Ġscrut in
p w
Ġr ud
Ġcross ed
Ġrelay ing
channel s
ĠS ocket
Ġhom eland
organ ization
ĠRein forcement
de ep
lig ible
Ġpermit ting
ĠW as
90 4
By tes
duct ive
Ġco pper
SM s
ĠAccount s
Ġhand ing
Ġaccum ulate
ĠEns emble
ĠLaz arus
isp ens
Ġattach ing
Ġp cap
Ġpeace keeping
ĠSham ir
ĠIS C
oub ted
st on
Ġbook mark
UN C
Ġcompre hend
ĠMotiv ated
7 55
Ã Ń
im m
Ġlogarith mic
ĠSA E
Ġmyst er
ĠG as
Ġrad ios
ĠCOMM AND
ĠIs lands
resil ient
ĠN i
Ġdefe ating
ĠC lients
Ġ4 04
ĠAg ile
ĠFor ces
ĠD QN
f ight
Ġun classified
ud a
Ġnot icing
ak h
C SS
Ġsubgraph s
Ġcompet ence
Ġbright ness
ĠGmb H
ĠK az
ĠEx port
Ġ( *
01 8
Ġcompos ing
Ġvib ration
ĠE ND
23 3
36 6
Ġresidual s
Ġi ii
ĠHT LC
ut ch
Ġmem o
gh an
loc ations
Con v
Ġrevis it
yn e
ĠBL ACK
ov ich
26 6
n z
Ġann ouncing
Re LU
Ġfro zen
Ġbankrupt cy
ĠW I
AP ACHE
ĠBP DA
Ġsyscall s
Ġde re
ĠCP A
Ġspecific ity
B leepingComputer
Ġrein force
ĠLapl acian
Ġunder way
Un der
Tor ch
22 7
AS R
Ġp id
Ġb at
ĠMc K
Ġb rib
L ike
Ġground ed
ĠRecommend ation
ĠGo Daddy
38 9
Ġencaps ulated
ĠGuid ance
S ync
Ġjud gement
Ġenvision ed
CL USION
Ġsmooth ly
ĠMus lim
ĠW y
ĠK P
is ations
mean ing
Ġimpl anted
ĠAriz ona
ĠCIS SP
Ġdiscover ies
Ġtouch ing
26 2
Ġ13 1
ĠM ul
Ġad visor
Ġam ple
h alf
33 9
Ġren aming
ĠCD s
D ir
Ġstr cpy
ij acking
arg on
Ġpar as
Ġcounterex ample
P GP
opt ions
is dom
Ġb ure
Ġtim eliness
+--------------------------- |
Ġtack ling
n odes
b eta
Ġis t
ĠOlymp ic
ĠD re
ĠG ap
ĠGe o
in j
-- |
Ġint el
ĠSR AM
ĠEsc alation
oubted ly
app ers
Ġq i
Ġfollow er
Ġdirect ing
ĠMAC s
Add itionally
ĠLFS R
c row
c ached
Ġenumer ated
b roken
Ġw re
Ġrec reate
ĠRequ ests
Ġadvis es
ĠProced ures
v il
Ġatt ained
Ġbil inear
hp sc
L M
Ġ1 48
Ġre str
em ption
Ġcom ic
Ġrep utational
omb ies
cre ated
ĠDisco ver
r at
Ġn p
Ġad mission
Ġsimpl istic
Ġ[ ]
ĠE lement
ĠIN S
ĠPop ular
Ġpit falls
ĠIndividual s
usp icious
H ot
ĠReg istration
Ġoverl ays
umb led
he el
36 3
ĠRem o
in ue
ĠW ould
O v
w hether
Ġen acted
ĠCeleb A
Ġsell s
ĠAust ria
Eng lish
col umn
ĠRO I
Ġm ilit
ĠAle ks
Ġsnoop ing
Ġw p
ĠP od
o a
Ġad versely
Ġn g
ip ras
Ġinstruct s
v ideo
ĠN ich
Ġgr ass
Ġstat s
ĠAN SI
if s
Ġ1 14
anc he
Ġcounter intelligence
m ake
Ġfurther more
t c
ass is
AN G
Ġleg s
Ġche que
Ġearthqu ake
Ġto g
ight ed
ĠATTACK S
Ġd word
Ġcorrel ates
ĠEnt ropy
in th
ĠW ong
âĢ ľ
ĠH W
cf g
ĠFin n
Ġf ancy
Ġgr avity
Ġc ube
Ġg ut
Ġun icast
Ġautom obile
Ġ] ,
Ġun link
Ġcontract ual
Ġmultip lying
Ġwhist leb
h is
Ġpre print
ĠG ene
Ġset uid
Ġover see
Ġiter ates
ĠFab ric
ĠChen g
Ġ1 76
Ġjud ges
U K
LOC AL
Ġsol ic
Ġther most
Ġaf ternoon
Ġcustom izable
U ZZ
ĠSc ope
ĠWHO IS
X E
Ġs leeping
el p
AN GE
Ġintrig uing
Ġ1 13
ĠG ary
ĠSer ge
Ġal ters
Ġblack listing
pk g
ĠMIM O
leg al
Ġpar sers
St ore
inst ead
il on
R et
Ġo verest
comp any
ĠFD IA
Ġland mark
P olicy
Ġcovert ly
Ġstrengthen ed
ĠOh io
Ġrang ed
p aper
support ed
squ are
jail bait
Ġo xygen
Ġprot e
Ġcal lee
E very
ĠTh reshold
Ġeb x
r ality
UL TS
g al
ve y
look up
Ġdelay ing
avi o
Ġunavoid able
r hn
ĠCha os
Americ an
Ġgrad ual
Ġair plane
ĠNv idia
ĠA BC
ig mail
op oly
80 3
24 7
ĠOS s
Ġdec idable
B ig
Ġc up
Ġcomp artment
ĠE ST
ĠN ight
ĠWeb sites
ĠOb fuscation
Ġdismiss ed
ad t
Ġ1 19
80 9
ĠEnter prises
Ġprogress ive
Al gorithm
ĠP AR
2 17
ĠN AND
uck et
Ġpr ag
Ġmon olithic
B lack
ĠCh loe
ĠEl se
ĠR X
ĠRed irect
eth ical
vis ible
ĠZ w
Ġple aded
Ġstre ets
Ġun le
Ġcust od
ĠMaterial s
ud dy
Ġs ister
ĠF NR
ĠDr ag
ĠAM T
ĠT ap
ĠH ope
ĠZ ombie
Ġb idding
ĠHen ry
M IME
all ed
Ġac yc
ĠPort s
Ġquarant ine
co hol
CH Q
fund ed
c ient
ors es
60 3
ĠAuthent icator
T alk
ĠD ictionary
Ġsn ake
ĠPlug in
ĠD riven
SY STEM
Ġs word
ell ish
ĠMD M
Ġdiscount s
ĠUn limited
r and
ĠA wards
ĠS ources
ĠL iter
Ġ19 76
5 73
Ġsc rew
Ġfunction ally
Ġneighborhood s
ĠBegin ners
z b
ili ans
ĠStr ict
Ġresid ue
Ġw ing
St ar
ĠWar ren
ĠEnvironment al
? ?
Ġout right
rol ls
Ġpat ience
ĠAssoci ate
ol n
Ġben e
Ġret al
ĠAC T
ĠPa ros
Ġw est
Ġr ural
Ġcar go
ne ighb
ĠNon Stop
Ġinv itation
ĠUn authorized
ĠEv asion
n eed
ha ul
ĠCluster ing
Ġs lack
ond a
Ġsound ed
Ġmolec ular
Ġtrampol ine
um ann
24 8
Ġcha otic
ĠT IME
Ġ| |
sun ami
ĠS DP
ĠK oh
ĠLim it
Ġdiscrep ancies
Ġcomprehens ively
O pt
Ã ³
ĠF ool
Ġadmin istered
ĠSatur day
Ġfor t
Ġexam s
Ġdetect ability
m aps
ĠE F
ĠX R
ĠEcl ipse
Ġt ube
ĠWil son
ĠLever aging
Ġlast ed
Ġdiagn ostics
Ġcentr ally
ĠScot land
hatt an
Ġc t
Ġmarket ed
f ig
C ent
Ġch ats
ĠPhys ics
V I
BAS ED
ĠO LE
> /
Ġk ali
ĠK NN
ĠDom ains
Ġdivers ification
Ġto ll
ad aptive
SN E
ĠGen etic
angh ai
Ġm ails
ĠCo ast
ba um
Ġtransaction al
ĠPl ant
Ġrelig ion
Ġpreced ed
ĠCertific ates
ĠAppro aches
ĠLo op
Ġarrest s
ĠMP E
Ġregistr ations
Ġundert ake
re use
Ġbomb ing
ĠSIP LUS
ck i
f h
ĠZ ucker
Ġth underbird
ĠN ull
Ġsem inal
ĠVM M
01 3
IN ET
N AT
Ġunder pin
Ġcow ork
Ġinf lation
l iminal
Ġtrace ability
ĠRecogn izing
ĠIslam ic
k ill
ĠTS X
Ġoptim izes
Ġworth y
N ational
ass ess
so f
Ġlog ger
Ġquant ifies
Ġre fere
Ġprol ific
R ob
Ġag ing
ĠExt ensive
direct ional
r pc
ne ath
ĠPr ice
umer ical
Ġbub ble
Ġst rives
Ġstr ains
ĠCy berspace
28 9
Ġop acity
Ġb ath
Ġbu zz
AL ID
Ġfrag ile
Ġcelebr ity
Ġwavelength s
w indow
G iven
ĠAc ross
U AL
Ġ4 45
ĠOpt imal
Ġp acem
Ġtime outs
Ġinf ers
Ġther m
P ub
Ġr st
Pro v
Ġbottlen ecks
Ġonboard ing
Ġc hest
ic ating
Ġcent uries
bre w
ĠRES ULTS
S GD
' ),
H ence
ĠP G
Ġref err
Ġt ac
Ġmer it
Ġspeed up
ĠSen ator
PR INT
ung en
Ġuns upported
ĠS ender
ĠV BA
ĠST AT
ĠMir age
ĠPear son
ĠTRANS ACTIONS
ĠN u
Ġconstruct ors
Ġst ance
ĠLast Pass
ĠTR ADES
Ġanch ors
V is
a uc
ĠR aw
Ġmaneu ver
ĠB order
Ġstr angers
ph y
pro blem
Ġinvest or
Ġuns ure
Ġde bian
Ġstud io
ĠW PS
ĠBy tes
un n
ĠO liver
ĠView er
Ġm erc
Ġrecon n
hard ware
H INE
h or
t m
Ġhob by
Ġextraord inary
ĠF light
ĠD Y
ĠAC CESS
78 7
Ġrigor ously
ĠArbit rary
Ġunlaw ful
Ġsystem ic
Ġpart nered
iss ioned
Ġeconom ically
Ġcast ing
Ġsy bil
OP S
i q
90 8
Ġt apping
cr iminals
ĠGra ham
ĠD ive
D on
Ġdat ac
ĠX iao
Ġ19 78
ĠMANET s
70 6
mp eg
Ġsumm ation
Ġre train
Res Net
Ġhaw k
Ġultr asonic
M a
amp s
inst ein
ĠBi ometrics
Ġdiscour age
Q P
IN F
Ġbur ning
24 9
Ġred istrib
Ġce iling
ĠN ic
Ġind ispens
ĠT ro
aint iff
Ġre trained
ĠLED s
ĠW P
sc aling
ĠLog ical
Ġdisag ree
Ġ) :
Ġreflect ive
Ġstick y
ĠIs abelle
Ġvet ting
ĠMalware bytes
Ġinvari ance
ĠGold en
ĠK ent
ĠTo o
ĠSC TP
ĠD iss
Or ig
rastr uctures
Cont ext
N AL
Ġdesign ate
ĠUser name
Out put
50 8
De ep
ĠJ RE
Ġspect ro
M in
v im
Ġlif ted
Ġeduc ating
ĠOrig in
Ġsafeguard ing
Ġorganis ational
m f
irc rack
24 5
66 6
Ġacknowled gement
Ġcr ystal
ĠR I
ind uced
Ġachieve ments
Ġs ib
26 9
Ġinfiltr ated
Ġdomin ating
d rive
ĠR NG
Ġcolle ges
a verage
Ġn c
Ġescal ating
ĠJ ordan
ĠApp arently
Ġminim ax
1414 141
Ġsandbox ed
) [
Ġc ater
om put
ĠI RP
ĠA aron
ĠST EP
a ug
Ġb ent
ĠF isher
Ġtool kits
Ġsequ encing
Ġsandbox es
ic y
ĠFul ly
ĠA X
ĠExam ining
H C
ĠY ao
resp ionage
ĠMQ TT
Ġo cean
ĠF BS
Ġins ured
RO C
Ġwitness es
75 3
gu ide
Ġinterchange ably
Ġpropos itions
Ġn ut
ĠB TC
Ġtradem arks
P art
AC A
29 8
Ġsan ity
imp act
ĠR G
od o
AC C
Ġassoci ating
Ġconce aled
over flow
Ġreset ting
ĠMim ikatz
id ays
Ġoverwhel med
ĠMed ic
Ġformul ae
anc ers
ĠPA SS
Ġpeculi ar
Ġstr ands
ĠGo og
Ġestim ations
head er
ĠSant a
x ide
op ilot
ĠPro blems
pract ices
sever ity
Ġem ulating
90 5
Ġd ance
Ġ14 4
HTTP S
Ġmot ions
ĠS AR
ĠP CS
vers al
ĠN AA
40 9
Ġsacrific ing
ĠSome one
sub ject
Ġang ular
H ome
ĠC ut
ĠM W
Ġdirect s
Ġactiv ates
Ġmultip lications
ĠR TL
ĠJ in
mit age
ĠOpen Shift
ĠScient ology
Ġscar ce
f light
ĠK DC
Ġsuper position
Ġphys ic
ĠK y
filter ing
ĠGL SA
ĠB ry
Ġnuts hell
A ML
S w
ĠM un
ib i
ung s
asser stein
s ector
Ġg ambling
Ġhav oc
ĠNot able
', '
or r
Ġun balanced
to o
ĠDen mark
ĠWe i
fl ags
Ġadjust s
A Y
ĠD h
tt e
word press
ĠRed mond
ĠClick ing
Ġd s
LO G
ĠRece iver
oft he
Ġmet ro
Ġrevis ions
ĠMount ain
Ġ2 20
Ġdon ations
recomm ended
ĠSt ake
spe aking
ĠCRE ATE
ĠZucker berg
Ġste ep
Ġsatisf iability
Ġactiv ating
ĠBot nets
all as
Ġqu bit
Ġ| ----------------
25 7
Ġdeal er
ĠEr rors
Ġwonder ful
potential ly
ĠPh antom
IR ECT
Ġcor ollary
fo o
Ġstead ily
ĠCook ies
Ġb ags
ĠSam pling
Ġdipl om
yp ical
ĠSe ason
06 7
Ġguard ed
ĠLIN UX
in arily
ĠRe ve
crib e
oc y
Ġwr ist
ĠVis it
m k
ĠW a
Ġsc are
inter pret
Ġrail way
L o
Ġp eregr
Ġreplay ed
Ġdecl aring
Ġinterpret ability
/ ,
ie h
Ġsel dom
ĠCCP A
ĠWay ne
Ġindispens able
Ġhot fix
ag ents
Ġmicrow ave
Ġsub optimal
Ġmim ics
Ġingred ients
S upport
Ġverb ose
W N
off set
p f
ĠCC A
ĠL ambda
ĠTel ecom
Ġpreca ution
im pl
ĠLe v
er onaut
ĠCho osing
ĠSynt ax
Ġnow here
Ġdes per
Ġcrypt analyst
Ch ang
ĠâĢ ĭ
ĠPro duction
74 9
Ġdiv ul
ĠMotor ola
N OW
lib rary
55 55
EM A
Ñ ĸ
me ga
ĠTarget s
Ġt ent
ad oc
am ble
ĠD ad
Ġexc ludes
Ġdomin ates
S core
Ġy ang
MC A
Ġreject s
Ġflo at
t el
Ġref ining
ĠFeder ation
ĠP areto
ĠG O
27 8
ous es
ĠMan hattan
ĠCon struct
Ġacyc lic
3 48
Ġflo oded
s ix
Ġth ief
Ġtr aceroute
Ġen riched
Ġcontrol lability
AP P
RE G
Ġscr ub
ĠAlex Net
ĠBit coins
Ġqu art
ĠRi pper
Ġass emble
ĠAn alog
ĠOS X
ib s
Ġfact oring
pro perty
ĠDes cent
ĠSub section
C ISA
Ġ13 9
ĠMon th
Inst ead
Ġs en
Ġun comfort
Ġheart beat
M ar
Ġst roke
Ġun fore
ĠK ir
requ ent
ĠMo on
ĠJohn ny
ĠOS Ns
ĠBl ink
ĠRog er
d t
pre fix
Ġtr ails
Ġfun c
Ġboot ed
Ġs led
Ġapp ar
C BC
ĠS on
ĠSy rian
Ġoverwhel m
ĠS onic
ĠV PS
M OD
ĠD ick
Ġstr ic
Ġmin ister
Ġtoler ant
Ġharvest ed
ĠE A
Ġte aches
c uss
ĠW olf
Ġmain frame
ĠP wn
ĠRet ur
m gr
ĠBe acon
ĠFeed back
ĠW onder
Ġcorrect ing
Ġbipart ite
iss ues
ĠDet ector
ĠL T
ĠCAP EC
' ;
Ġbreach ing
bal ancing
ĠR ED
Ġhe lic
vs ky
Ġshr ink
le ak
74 6
Ġcomprehens ion
ĠG er
Ġfore most
ĠOpen VPN
Ġst one
Ġlock down
ĠCooper ative
Ġhus band
80 7
33 7
Ġcooper ating
Ġreject ing
ĠStructure d
Ġmat hematic
ĠSel ected
c ards
ec c
im odal
ĠE K
ĠMar ine
D at
Ġ ug
Ġread iness
M ultiple
ĠS ockets
Ġv table
erg us
ĠWorkaround s
kde graphics
ĠT aint
ĠW ave
Ġallow able
AC S
SO FTWARE
av it
B oss
ĠL I
Ġpop s
Ġdeput y
ne ut
ĠLand scape
Ġs ourced
ĠPro per
ĠCC TV
so ever
angu ages
ĠNe v
ĠNN M
Ġimmin ent
Ġsuccess es
Ġprep ares
Ġchip set
Ġkeylog ging
" ><
ĠDes ai
ĠSp ark
ĠB ab
Ġadd r
Ġpost al
ĠSmart Things
Ġdispl acement
Ġsurround ed
lic able
Ġinsp ire
ĠTs ipras
Ġbon us
iche ver
P rop
ir rel
ĠMig uel
ene z
Ġinstall ers
Ġtouch screen
Ġr c
ĠD j
ĠMac s
ĠM EM
ll i
[...]
