{"<s>":0,"<pad>":1,"</s>":2,"<sep>":3,"<unk>":4,"<mask>":5,"<bos>":6,"<eos>":7,"!":8,"\"":9,"#":10,"$":11,"%":12,"&":13,"'":14,"(":15,")":16,"*":17,"+":18,",":19,"-":20,".":21,"/":22,"0":23,"1":24,"2":25,"3":26,"4":27,"5":28,"6":29,"7":30,"8":31,"9":32,":":33,";":34,"<":35,"=":36,">":37,"?":38,"@":39,"A":40,"B":41,"C":42,"D":43,"E":44,"F":45,"G":46,"H":47,"I":48,"J":49,"K":50,"L":51,"M":52,"N":53,"O":54,"P":55,"Q":56,"R":57,"S":58,"T":59,"U":60,"V":61,"W":62,"X":63,"Y":64,"Z":65,"[":66,"\\":67,"]":68,"^":69,"_":70,"`":71,"a":72,"b":73,"c":74,"d":75,"e":76,"f":77,"g":78,"h":79,"i":80,"j":81,"k":82,"l":83,"m":84,"n":85,"o":86,"p":87,"q":88,"r":89,"s":90,"t":91,"u":92,"v":93,"w":94,"x":95,"y":96,"z":97,"{":98,"|":99,"}":100,"~":101,"¡":102,"¢":103,"£":104,"¤":105,"¥":106,"¦":107,"§":108,"¨":109,"©":110,"ª":111,"«":112,"¬":113,"®":114,"¯":115,"°":116,"±":117,"²":118,"³":119,"´":120,"µ":121,"¶":122,"·":123,"¸":124,"¹":125,"º":126,"»":127,"¼":128,"½":129,"¾":130,"¿":131,"À":132,"Á":133,"Â":134,"Ã":135,"Ä":136,"Å":137,"Æ":138,"Ç":139,"È":140,"É":141,"Ê":142,"Ë":143,"Ì":144,"Í":145,"Î":146,"Ï":147,"Ð":148,"Ñ":149,"Ò":150,"Ó":151,"Ô":152,"Õ":153,"Ö":154,"×":155,"Ø":156,"Ù":157,"Ú":158,"Û":159,"Ü":160,"Ý":161,"Þ":162,"ß":163,"à":164,"á":165,"â":166,"ã":167,"ä":168,"å":169,"æ":170,"ç":171,"è":172,"é":173,"ê":174,"ë":175,"ì":176,"í":177,"î":178,"ï":179,"ð":180,"ñ":181,"ò":182,"ó":183,"ô":184,"õ":185,"ö":186,"÷":187,"ø":188,"ù":189,"ú":190,"û":191,"ü":192,"ý":193,"þ":194,"ÿ":195,"Ā":196,"ā":197,"Ă":198,"ă":199,"Ą":200,"ą":201,"Ć":202,"ć":203,"Ĉ":204,"ĉ":205,"Ċ":206,"ċ":207,"Č":208,"č":209,"Ď":210,"ď":211,"Đ":212,"đ":213,"Ē":214,"ē":215,"Ĕ":216,"ĕ":217,"Ė":218,"ė":219,"Ę":220,"ę":221,"Ě":222,"ě":223,"Ĝ":224,"ĝ":225,"Ğ":226,"ğ":227,"Ġ":228,"ġ":229,"Ģ":230,"ģ":231,"Ĥ":232,"ĥ":233,"Ħ":234,"ħ":235,"Ĩ":236,"ĩ":237,"Ī":238,"ī":239,"Ĭ":240,"ĭ":241,"Į":242,"į":243,"İ":244,"ı":245,"Ĳ":246,"ĳ":247,"Ĵ":248,"ĵ":249,"Ķ":250,"ķ":251,"ĸ":252,"Ĺ":253,"ĺ":254,"Ļ":255,"ļ":256,"Ľ":257,"ľ":258,"Ŀ":259,"ŀ":260,"Ł":261,"ł":262,"Ń":263,"Ġt":264,"Ġa":265,"in":266,"he":267,"re":268,"on":269,"er":270,"Ġthe":271,"at":272,"Ġs":273,"Ġc":274,"or":275,"es":276,"en":277,"it":278,"Ġo":279,"is":280,"ed":281,"Ġp":282,"Ġw":283,"ion":284,"al":285,"ing":286,"Ġan":287,"Ġf":288,"Ġin":289,"an":290,"Ġb":291,"Ġd":292,"Ġto":293,"ic":294,"Ġm":295,"Ġof":296,"ro":297,"ec":298,"ar":299,"Ġand":300,"le":301,"ac":302,"us":303,"Ġth":304,"as":305,"Ġre":306,"et":307,"ent":308,"Ġe":309,"Ġn":310,"om":311,"ou":312,"ation":313,"Ġh":314,"il":315,"Ġis":316,"ĠT":317,"st":318,"lo":319,"ut":320,"ly":321,"ve":322,"im":323,"ur":324,"--":325,"id":326,"ver":327,"ĠI":328,"Ġthat":329,"Ġpro":330,"Ġon":331,"ect":332,"ĠA":333,"ot":334,"ĠS":335,"Ġfor":336,"Ġbe":337,"ig":338,"un":339,"am":340,"ack":341,"ul":342,"Ġcon":343,"Ġ(":344,"el":345,"Ġl":346,"ity":347,"Ġus":348,"if":349,"ce":350,"ab":351,"Ġat":352,"Ġg":353,"Ġas":354,"ol":355,"od":356,"em":357,"ith":358,"Ġst":359,"ĠC":360,"ess":361,"Ġex":362,"Ġv":363,"ow":364,"Ġcom":365,"ct":366,"Ġal":367,"ers":368,"ĠThe":369,"ate":370,"ad":371,"Ġwith":372,"ĠR":373,"Ġwe":374,"ain":375,"ch":376,"se":377,"Ġare":378,"ag":379,"ter":380,"ure":381,"Ġit":382,"pp":383,"ir":384,"Ġor":385,"Ġatt":386,"ay":387,"ri":388,"Ġde":389,"qu":390,"Ġwh":391,"----":392,"Ġby":393,"her":394,"pt":395,"Ġattack":396,"Ġcan":397,"ĠF":398,"ĠP":399,"ĠM":400,"um":401,"ĠW":402,"ies":403,"ist":404,"Ġr":405,"ore":406,"Ġsu":407,"for":408,"Ġy":409,"Ġcomp":410,"ĠD":411,"Ġad":412,"rom":413,"ive":414,"ĠIn":415,"Ġtr":416,"ork":417,"est":418,"Ġnot":419,"ment":420,"ke":421,"Ġthis":422,"res":423,"nt":424,"ial":425,"are":426,"ill":427,"iz":428,"form":429,"cc":430,"and":431,"Ġ2":432,"Ġ1":433,"Ġfrom":434,"Ġyou":435,"ld":436,"yst":437,"==":438,"per":439,"Ġen":440,"ĠB":441,"Ġlo":442,"ort":443,"ystem":444,"Ġdat":445,"act":446,"ecur":447,"ions":448,"Ġapp":449,"Ġcont":450,"ecurity":451,"able":452,"ĠH":453,"Ġne":454,"os":455,"ant":456,"etw":457,"ere":458,"ple":459,"Ġha":460,"Ġim":461,"Ġsh":462,"art":463,"ated":464,"Ġun":465,"ĠE":466,"ich":467,"iv":468,"âĢ":469,"EF":470,"Ġle":471,"ations":472,"ust":473,"age":474,"ical":475,"ĠO":476,"Ġsystem":477,"Ġint":478,"all":479,"ĠN":480,"Ġres":481,"Ġwhich":482,"up":483,"ould":484,"ach":485,"ff":486,"low":487,"Ġch":488,"end":489,"oc":490,"ĠREF":491,"ult":492,"ther":493,"ine":494,"Ġhave":495,"Ġmod":496,"00":497,"ire":498,"ĠL":499,"Ġdata":500,"ud":501,"Ġsp":502,"lic":503,"Ġwhe":504,"ost":505,"ber":506,"ile":507,"ous":508,"Ġacc":509,"ap":510,"igh":511,"vers":512,"ass":513,"vic":514,"ail":515,"Ġse":516,"ign":517,"ard":518,"ble":519,"ware":520,"ĠTh":521,"--------":522,"ection":523,"abil":524,"Ġper":525,"ĠU":526,"etwork":527,"Ġwas":528,"uct":529,"ge":530,"ame":531,"Ġinc":532,"so":533,"Ġwill":534,"ĠG":535,"Ġsc":536,"Ġser":537,"ans":538,"Ġhas":539,"Ġhe":540,"Ġcl":541,"Ġsecurity":542,"01":543,"pl":544,"'s":545,"Ġnetwork":546,"our":547,"Ġk":548,"ase":549,"fere":550,"gr":551,"ific":552,"ner":553,"ome":554,"ide":555,"âĢĻ":556,"ary":557,"formation":558,"der":559,"out":560,"Ġdet":561,"ime":562,"ens":563,"ind":564,"Ġuse":565,"ance":566,"ech":567,"Ġadd":568,"Ġpre":569,"ug":570,"Ġtheir":571,"ak":572,"ual":573,"Ġcomm":574,"Ġ\"":575,"th":576,"Ġman":577,"ue":578,"Ġall":579,"Ġmodel":580,"Ġdis":581,"Ġdo":582,"Ġused":583,"ry":584,"ord":585,"Ġexp":586,"ĠWe":587,"Ġother":588,"Ġev":589,"Ġab":590,"Ġso":591,"ased":592,"ĠThis":593,"ft":594,"ents":595,"Ġinformation":596,"Ġalso":597,"Ġmore":598,"ition":599,"ors":600,"Ġup":601,"ep":602,"ight":603,").":604,"ode":605,"cid":606,"ck":607,"ious":608,"nd":609,"ys":610,"Ġthey":611,"Ġact":612,"ress":613,"Ġdif":614,"Ġdef":615,"ip":616,"Ġout":617,"op":618,"own":619,"ell":620,"ĠV":621,"Ġattacks":622,"ulner":623,"ence":624,"ub":625,"Ġour":626,"Ġone":627,"ability":628,"Ġimp":629,"Ġsuch":630,"cess":631,"ast":632,"ie":633,"ates":634,"Ġbut":635,"str":636,"Ġpart":637,"Ġrep":638,"Ġdes":639,"ory":640,"Ġrequ":641,"rol":642,"Ġprov":643,"Ġpl":644,"ener":645,"Ġits":646,"ities":647,"Ġrec":648,"Ġset":649,"ace":650,"Ġinter":651,"Ġob":652,"get":653,"ia":654,"rib":655,"Ġag":656,"ite":657,"Ġass":658,"Ġusing":659,"put":660,"Ġwork":661,"int":662,"Ġtime":663,"yp":664,"Ġif":665,"ected":666,"Ġro":667,"Ġme":668,"ok":669,"Ġthese":670,"Ġvulner":671,"ex":672,"Ġke":673,"aus":674,"Ġany":675,"Ġar":676,"Ġover":677,"Ġstr":678,"Ġfun":679,"echn":680,"av":681,"ong":682,"Ġaut":683,"Ġmet":684,"ake":685,"Ġcons":686,"Ġ3":687,"Ġdiffere":688,"one":689,"vice":690,"Ġfe":691,"Ġexam":692,"Ġind":693,"Ġwhen":694,"),":695,"ident":696,"Ġval":697,"Ġem":698,"ating":699,"Ġnum":700,"Ġprot":701,"Ġqu":702,"ning":703,"Ġonly":704,"Ġmay":705,"====":706,"lud":707,"Ġprocess":708,"ict":709,"Ġli":710,"Ġgener":711,"Ġsome":712,"tt":713,"ount":714,"Ġaccess":715,"ces":716,"ms":717,"Ġsim":718,"riv":719,"Ġuser":720,"red":721,"ures":722,"ang":723,"Ġgo":724,"ose":725,"Ġinto":726,"very":727,"ĠJ":728,"Ġmal":729,"ied":730,"ution":731,"__":732,"Ġbeen":733,"Ġfunct":734,"Ġtw":735,"Ġj":736,"Ġyour":737,"Ġ201":738,"com":739,"Ġtechn":740,"Ġtrans":741,"ond":742,"Ġeach":743,"Ġcomput":744,"Ġspec":745,"ject":746,"Ġdifferent":747,"ient":748,"Ġanal":749,"Ġkn":750,"Ġcontrol":751,"Ġph":752,"ert":753,"vices":754,"Ġresult":755,"ption":756,"Ġnew":757,"Ġinclud":758,"Ġapplic":759,"ally":760,"irst":761,"Ġneed":762,"arget":763,"Ġthan":764,"ĠFor":765,"arch":766,"ible":767,"Ġthere":768,"Ġthre":769,"Ġhow":770,"Ġinst":771,"ages":772,"tern":773,"ari":774,"ise":775,"Ġtwo":776,"Ġpr":777,"Ġsystems":778,"Ġdisc":779,"ound":780,"Ġwould":781,"Ġfol":782,"Ġperform":783,"ffic":784,"Ġoper":785,"log":786,"hod":787,"Ġpos":788,"ugh":789,"vel":790,"Ġcy":791,"ause":792,"Ġsec":793,"gram":794,"Ġnumber":795,"Ġbec":796,"ĠK":797,"ĠIt":798,"Ġwere":799,"Ġno":800,"ize":801,"Ġrel":802,"Ġpo":803,"Ġsign":804,"Ġcode":805,"ser":806,"Ġtyp":807,"Ġsub":808,"Ġclass":809,"Ġappro":810,"Ġdec":811,"ever":812,"Ġtarget":813,"Ġ4":814,"----------------":815,"Ġcr":816,"Ġwhere":817,"Ġcould":818,"Ġmethod":819,"Ġrem":820,"ced":821,"Ġabout":822,".,":823,"ization":824,"Ġfollow":825,"ments":826,"Ġadvers":827,"ss":828,"Ġunder":829,"een":830,"ify":831,"Ġweb":832,"Ġcor":833,"ĠSt":834,"Ġident":835,"rough":836,"du":837,"Ġfirst":838,"Ġreg":839,"duct":840,"Ġattacker":841,"ically":842,"irect":843,"etween":844,"ative":845,"Ġpat":846,"og":847,"Ġthen":848,"Ġdist":849,"Ġresp":850,"aining":851,"Ġ5":852,"Ġlike":853,"Ġinv":854,"Ġbetween":855,"Ġmost":856,"Ġthem":857,"Ġexec":858,"Ġaddress":859,"Ġfunction":860,"fore":861,"Ġallow":862,"Ġprogram":863,"igure":864,"velo":865,"ove":866,"loit":867,"resent":868,"ular":869,"ftware":870,"ows":871,"ear":872,"gan":873,"ib":874,"//":875,"Ġbot":876,"Ġusers":877,"Ġexample":878,"nce":879,"Ġ0":880,"Ġent":881,"ics":882,"gor":883,"hed":884,"Ġprovid":885,"Ġtest":886,"hes":887,"ttp":888,"Ġcall":889,"ffect":890,"led":891,"Ġkey":892,"Ġshould":893,"Ġconf":894,"Ġthrough":895,"ized":896,"olog":897,"ks":898,"Ġav":899,"Ġrun":900,"ix":901,"://":902,"erm":903,"Ġpass":904,"nel":905,"Ġloc":906,"Ġext":907,"Ġsame":908,"Ġagain":909,"ful":910,"ings":911,"Ġgr":912,"Ġcre":913,"Ġenc":914,"velop":915,"und":916,"aw":917,"ays":918,"iqu":919,"enc":920,"ext":921,"Ġpriv":922,"fter":923,"Ġform":924,"acy":925,"Ġfile":926,")(":927,"Ġmem":928,"Ġprop":929,"ob":930,"Ġfil":931,"ential":932,"gh":933,"Ġinf":934,"86":935,"ĠâĢ":936,"te":937,"Ġsupp":938,"Ġoff":939,"Ġcommun":940,"ets":941,"ough":942,"ĠPro":943,"Ġ[":944,"abilities":945,"ish":946,"Ġcol":947,"Ġexploit":948,"Ġdep":949,"Ġhttp":950,"ues":951,"rypt":952,"ĠAn":953,"ote":954,"Ġrequire":955,"de":956,"ved":957,"Ġbased":958,"ice":959,"64":960,"ification":961,"Ġdevelop":962,"ĠAs":963,"Ġsm":964,"ons":965,"ĠIf":966,"ication":967,"VE":968,"ified":969,"ĠAl":970,"Ġprev":971,"les":972,"Ġsoftware":973,"ols":974,"ature":975,"ange":976,"Ġorgan":977,"lock":978,"bers":979,"Ġco":980,"gorith":981,"Ġconn":982,"inal":983,"ysis":984,"Ġbu":985,"iew":986,"ĠTo":987,"Ġpub":988,"Ġposs":989,"Ġwho":990,"Ġlear":991,"Ġdoes":992,"Ġdesign":993,"ark":994,"ource":995,"Ġhigh":996,"Ġfr":997,"iss":998,"Ġlog":999,"ement":1000,"Ġagainst":1001,"Ġsol":1002,"row":1003,"Ġpack":1004,"uring":1005,"Ġadversar":1006,"Ġmany":1007,"Ġmess":1008,"aph":1009,"plement":1010,"Ġdirect":1011,"Ġproble":1012,"Ġwell":1013,"icious":1014,"word":1015,"Ġwhat":1016,"ĠY":1017,"Ġsa":1018,"Ġserver":1019,"loy":1020,"Ġmult":1021,"Ġcomple":1022,"Ġconsid":1023,"hen":1024,"Ġvers":1025,"Ġreport":1026,"10":1027,"Ġcyber":1028,"Ġback":1029,"ink":1030,"ĠHow":1031,"Ġi":1032,"Ġhad":1033,"load":1034,"ĠCom":1035,"ples":1036,"Ġexper":1037,"its":1038,"based":1039,"Ġboth":1040,"struct":1041,"Ġknow":1042,"Ġimplement":1043,"Ġbecause":1044,"Ġreal":1045,"ases":1046,"Ġeffect":1047,"cept":1048,"ree":1049,"Ġ6":1050,"pen":1051,"ained":1052,"Ġpoint":1053,"ten":1054,"201":1055,"ered":1056,"Ġlar":1057,"Ġinput":1058,"ade":1059,"ince":1060,"bo":1061,"heck":1062,"ĠUn":1063,"urre":1064,"Ġalgorith":1065,"ont":1066,"ines":1067,"osed":1068,"ier":1069,"ense":1070,"iven":1071,"Ġpar":1072,"Ġdevices":1073,"Ġavail":1074,"ational":1075,"ains":1076,"Ġanalysis":1077,"ually":1078,"ility":1079,"ute":1080,"ĠFigure":1081,"Ġam":1082,"Ġpol":1083,"ph":1084,"vis":1085,"Ġprotoc":1086,"Ġrese":1087,"Ġadversarial":1088,"inu":1089,"Ġvari":1090,"Ġcase":1091,"Ġcompan":1092,"ving":1093,"Ġsee":1094,"Ġupd":1095,"Ġeven":1096,"Ġfind":1097,"Ġapplication":1098,"ĠCh":1099,"ater":1100,"Ġthreat":1101,"Ġfollowing":1102,"uch":1103,"ĠOn":1104,"pr":1105,"Ġvulnerability":1106,"Ġmake":1107,"Ġac":1108,"ts":1109,"ĠHowever":1110,"Ġins":1111,"Ġ7":1112,"Ġpers":1113,"Ġiss":1114,"of":1115,"ting":1116,"Ġpartic":1117,"Ġpe":1118,"ccess":1119,"Ġbeing":1120,"Ġcert":1121,"Ġmain":1122,"Ġmalicious":1123,"Ġstate":1124,"Ġmalware":1125,"Ġbeh":1126,"Ġresults":1127,"20":1128,"ined":1129,"Ġincre":1130,"Ġtra":1131,"pm":1132,"Ġtechniqu":1133,"Ġstud":1134,"____":1135,"Ġlist":1136,"Ġma":1137,"Ġwhile":1138,"roup":1139,"Ġ8":1140,"Ġway":1141,"Ġhis":1142,"IS":1143,"ian":1144,"Ġhand":1145,"ower":1146,"ness":1147,"Ġdesc":1148,"ator":1149,"ract":1150,"Ġris":1151,"Ġservice":1152,"Ġwr":1153,"Ġsupport":1154,"ef":1155,"Ġpa":1156,"ĠAd":1157,"Ġavailable":1158,"Ġmeas":1159,"Ġget":1160,"Ġmach":1161,"Ġlevel":1162,"Ġvalue":1163,"tur":1164,"Ġ200":1165,"========":1166,"Ġcheck":1167,"line":1168,"rpm":1169,"Ġmon":1170,"ilar":1171,"Ġtraining":1172,"itive":1173,"Ġvulnerabilities":1174,"Ġorder":1175,"ology":1176,"ĠEx":1177,"Ġafter":1178,"Ġfound":1179,"orm":1180,"Ġpassword":1181,"ĠSecurity":1182,"other":1183,"Ġsens":1184,"Ġimport":1185,"err":1186,"Ġdown":1187,"ĠX":1188,"Ġmulti":1189,"lp":1190,"Ġmemory":1191,"Ġexist":1192,"Ġmin":1193,"ency":1194,"Ġaccount":1195,"Ġet":1196,"Ġmanag":1197,"uss":1198,"atures":1199,"SS":1200,"yn":1201,"ustom":1202,"ild":1203,"Ġpossible":1204,"Ġapproach":1205,"round":1206,"ĠRe":1207,"Ġaddition":1208,"Ġopt":1209,"lect":1210,"Ġdevice":1211,"ick":1212,"Ġpublic":1213,"Ġblock":1214,"Ġdetection":1215,"urrent":1216,"Ġshow":1217,"Ġevery":1218,"ward":1219,"Ġthose":1220,"ript":1221,"Ġread":1222,"ger":1223,"Ġmodels":1224,"Ġstat":1225,"Ġdom":1226,"als":1227,"Ġrece":1228,"The":1229,"ateg":1230,"Ġstart":1231,"Ġhelp":1232,"ited":1233,"Ġproper":1234,"Ġdistrib":1235,"urther":1236,"Ġgu":1237,"Ġhard":1238,"Ġsel":1239,"ĠThere":1240,"Ġproduct":1241,"Ġpresent":1242,"Ġrele":1243,"ople":1244,"Ġfiles":1245,"Ġmust":1246,"vir":1247,"ared":1248,"Ġwithout":1249,"indows":1250,"andom":1251,"Ġproblem":1252,"Ġdetect":1253,"ns":1254,"Ġlook":1255,"Ġwithin":1256,"Ġsend":1257,"ym":1258,"fer":1259,"ily":1260,"hent":1261,"alu":1262,"Ġprovide":1263,"icro":1264,"ives":1265,"old":1266,"ails":1267,"Ġbefore":1268,"ER":1269,"Ġend":1270,"ucture":1271,"Ġrequest":1272,"apt":1273,"Ġbo":1274,"Ġmat":1275,"11":1276,"aking":1277,"Ġjust":1278,"Ġnon":1279,"Ġsam":1280,"Ġfact":1281,"Ġcommand":1282,"Ġnetworks":1283,"Ġest":1284,"Ġow":1285,"Ġ10":1286,"Ġchar":1287,"Ġ9":1288,"ves":1289,"Ġvery":1290,"Ġ==":1291,"ention":1292,"Ġspecific":1293,"ĠIntern":1294,"Ġactiv":1295,"ll":1296,"ww":1297,"Ġable":1298,"ĠWh":1299,"read":1300,"Ġpeople":1301,"Ġ19":1302,"amet":1303,"Ġinstall":1304,"Ġcomputer":1305,"Ġpolic":1306,"Ġincluding":1307,"iel":1308,"Ġver":1309,"Ġgroup":1310,"ĠIP":1311,"Ġlow":1312,"orld":1313,"Ġstand":1314,"Ġhack":1315,"co":1316,"Ġlarge":1317,"Ġapplications":1318,"Ġobject":1319,"Ġ|":1320,"Ġconc":1321,"br":1322,"Ġemp":1323,"sc":1324,"Ġeas":1325,"Ġ.":1326,"viron":1327,"Ġobser":1328,"eng":1329,"iness":1330,"Ġsuccess":1331,"Ġtraffic":1332,"ash":1333,"ĠCVE":1334,"Ġopen":1335,"Ġhost":1336,"Ġlearning":1337,"tr":1338,"avi":1339,"less":1340,"Ġevalu":1341,"hem":1342,"12":1343,"Ġte":1344,"net":1345,"Ġsimilar":1346,"ross":1347,"Ġtype":1348,"Ġproposed":1349,"Ġpower":1350,"Ġperformance":1351,"Ġx":1352,"Ġmethods":1353,"ĠWindows":1354,"Ġyear":1355,"Ġprob":1356,"ield":1357,"Ġauth":1358,"Ġlim":1359,"odes":1360,"AC":1361,"Ġbus":1362,"Ġcompon":1363,"Ġmachine":1364,"not":1365,"Ġversion":1366,"Ġpred":1367,"Ġchang":1368,"Ġcurrent":1369,"Ġrandom":1370,"Ġcorre":1371,"Ġthree":1372,"Ġenviron":1373,"Ġfl":1374,"ively":1375,"Ġperson":1376,"Ġautom":1377,"Ġdescrib":1378,"Ġrisk":1379,"Ġstep":1380,"itor":1381,"ering":1382,"Ġprotocol":1383,"ĠWhen":1384,"inux":1385,"ivid":1386,"Ġservices":1387,"Ġgiven":1388,"akes":1389,"Ġfeatures":1390,"imate":1391,"Ġsecure":1392,"Ġcustom":1393,"Ġbr":1394,"ĠEn":1395,"Ġsever":1396,"Ġlay":1397,"Ġeng":1398,"Ġcap":1399,"ted":1400,"min":1401,"po":1402,"Ġimpro":1403,"AT":1404,"ference":1405,"pec":1406,"Ġequ":1407,"ecun":1408,"ecunia":1409,"itical":1410,"Ġtake":1411,"Ġalgorithm":1412,"Ġport":1413,"Ġpract":1414,"Ġsoc":1415,"Ġbehavi":1416,"omet":1417,"Ġsmall":1418,"Ġsection":1419,"Ġlong":1420,"ĠThese":1421,"Ġimportant":1422,"pro":1423,"Ġtools":1424,"Ġsecond":1425,"Ġlead":1426,"ality":1427,"Ġmight":1428,"imes":1429,"Ġauthent":1430,"Ġ*":1431,"Ġassum":1432,"Ġparticular":1433,"ric":1434,"otential":1435,"Ġparamet":1436,"ĠSer":1437,"Ġcommon":1438,"ources":1439,"Ġerr":1440,"ision":1441,"Ġname":1442,"ites":1443,"Ġoutput":1444,"Ġexecut":1445,"Ġshown":1446,"view":1447,"ned":1448,"Ġdeterm":1449,"Ġsource":1450,"Ġdiscuss":1451,"ictim":1452,"Ġwebs":1453,"Ġsur":1454,"ra":1455,"Ġduring":1456,"Ġorig":1457,"Ġbre":1458,"the":1459,"ysical":1460,"ĠHe":1461,"Ġsince":1462,"Ġstill":1463,"Ġdatas":1464,"echan":1465,"Ġresearch":1466,"Ġpotential":1467,"ernel":1468,"over":1469,"ially":1470,"ocum":1471,"ingle":1472,"Ġstore":1473,"Ġknown":1474,"Ġtechniques":1475,"Ġmultiple":1476,"oud":1477,"Ġstandard":1478,"ocus":1479,"bit":1480,"li":1481,"Ġinit":1482,"Ġadv":1483,"--------------------------------":1484,"Ġvictim":1485,"000":1486,"Ġmuch":1487,"Ġmessage":1488,"stand":1489,"Ġline":1490,"Ġinte":1491,"ĠApp":1492,"ata":1493,"ĠInternet":1494,"Ġaccur":1495,"omm":1496,"Ġremote":1497,"rast":1498,"Ġwant":1499,"work":1500,"Ġdem":1501,"Ġcost":1502,"por":1503,"mit":1504,"Ġstrateg":1505,"Ġmeasure":1506,"oun":1507,"Ġvalues":1508,"Ġvia":1509,"Ġpay":1510,"to":1511,"Ġ20":1512,"ently":1513,"Ġinvest":1514,"pect":1515,"Ġrepresent":1516,"Ġoptim":1517,"miss":1518,"AN":1519,"itect":1520,"Ġprevious":1521,"annel":1522,"Ġcompany":1523,"Ġanother":1524,"Ġanaly":1525,"ural":1526,"Ġoften":1527,"ov":1528,"ĠSection":1529,"Ġarch":1530,"15":1531,"Ġmechan":1532,"ables":1533,"Ġlocal":1534,"TP":1535,"Ġseveral":1536,"ault":1537,"ĠAnd":1538,"ording":1539,"Ġens":1540,"Ġuses":1541,"Ġnow":1542,"Ġsingle":1543,"Ġvar":1544,"Ġown":1545,"Ġpur":1546,"ames":1547,"ience":1548,"Ġemploy":1549,"Ġful":1550,"Ġdel":1551,"utions":1552,"ee":1553,"IN":1554,"Ġbas":1555,"duce":1556,"AR":1557,"Ġpaper":1558,"Ġallows":1559,"Ġfocus":1560,"Ġed":1561,"par":1562,"ule":1563,"ird":1564,"Ġdepend":1565,"Ġcalled":1566,"Ġidentify":1567,"Ġframe":1568,"ling":1569,"erest":1570,"ulation":1571,"Ġtas":1572,"Ġcoll":1573,"ĠTr":1574,"Ġimage":1575,"Ġprivacy":1576,"Ġtop":1577,"Ġobt":1578,"onse":1579,"ĠAP":1580,"Ġrob":1581,"Ġimpact":1582,"Ġinclude":1583,"ĠSo":1584,"ended":1585,"izations":1586,"ledge":1587,"Ġcomprom":1588,"Ġpredict":1589,"Ġintro":1590,"rop":1591,"Ġcle":1592,"atform":1593,"Ġlab":1594,"ised":1595,"Ġbusiness":1596,"ators":1597,"Ġcommunication":1598,"ON":1599,"anc":1600,"Ġconsider":1601,"Ġindivid":1602,"deb":1603,"ules":1604,"itions":1605,"Ġconnect":1606,"wit":1607,"irt":1608,"istic":1609,"Ġmechanis":1610,"Ġleg":1611,"ither":1612,"Ġorganization":1613,"ead":1614,"Ġdocum":1615,"ĠâĢĵ":1616,"xt":1617,"elf":1618,"fficient":1619,"ety":1620,"Ġsaid":1621,"ĠZ":1622,"ital":1623,"Ġvalid":1624,"verage":1625,"reat":1626,"Ġprof":1627,"bersecurity":1628,"Ġexecution":1629,"ank":1630,"ather":1631,"Ġprovides":1632,"Ġgeneral":1633,"Ġenvironment":1634,"Ġinstruct":1635,"Ġmed":1636,"Ġdue":1637,"igur":1638,"ax":1639,"ĠMan":1640,"Ġkernel":1641,"Ġchange":1642,"ĠGo":1643,"Ġindividual":1644,"ryption":1645,"Ġshows":1646,"ĠID":1647,"Ġbl":1648,"OS":1649,"Ġmade":1650,"IT":1651,"Ġtool":1652,"action":1653,"chie":1654,"ession":1655,"Ġrunning":1656,"Ġ'":1657,"oci":1658,"Ġsize":1659,"Ġsignific":1660,"Ġattackers":1661,"Ġexamples":1662,"Ġ,":1663,"arc":1664,"Ġdefense":1665,"16":1666,"Ġz":1667,"ĠLinux":1668,"Ġmeans":1669,"Ġ/":1670,"Ġcannot":1671,"Ġcomb":1672,"ret":1673,"Ġnodes":1674,"Ġvarious":1675,"Ġgraph":1676,"ru":1677,"Ġunderstand":1678,"Ġdatab":1679,"Ġdid":1680,"SA":1681,"Ġcertain":1682,"Ġtypes":1683,"hip":1684,"Ġmanagement":1685,"soft":1686,"Ġbrow":1687,"Ġachie":1688,"empt":1689,"angu":1690,"Ġexperim":1691,"Ġbuild":1692,"Ġscen":1693,"Ġinterest":1694,"Ġfix":1695,"Ġvis":1696,"Ġpage":1697,"Ġmark":1698,"ĠYou":1699,"Ġintegr":1700,"OR":1701,"ĠQ":1702,"Ġbet":1703,"Ġpropert":1704,"Ġdomain":1705,"ĠMicro":1706,"ires":1707,"graph":1708,"resp":1709,"Ġreas":1710,"Ġcreate":1711,"Ġocc":1712,"14":1713,"EC":1714,"ven":1715,"aches":1716,"Ġupdate":1717,"Ġless":1718,"ID":1719,"Ġarchitect":1720,"Ġchannel":1721,"ination":1722,"Ġclo":1723,"ES":1724,"istr":1725,"Ġcond":1726,"Ġright":1727,"Ġshe":1728,"gest":1729,"ector":1730,"ories":1731,"ĠCon":1732,"Ġindic":1733,"Ġtrust":1734,"Ġsearch":1735,"ished":1736,"Ġsignificant":1737,"Ġrate":1738,"ĠRes":1739,"Ġwhether":1740,"Ġclient":1741,"Ġphysical":1742,"hing":1743,"org":1744,"Ġcomplex":1745,"Ġretur":1746,"19":1747,"Ġsocial":1748,"Ġpres":1749,"Ġcount":1750,"Ġschem":1751,"io":1752,"med":1753,"ishing":1754,"Ġcorrect":1755,"obile":1756,"32":1757,"ĠSc":1758,"ivers":1759,"Ġworld":1760,"Ġinvol":1761,"ynam":1762,"Ġgood":1763,"ants":1764,"Ġfeature":1765,"Ġrequired":1766,"Ġknowledge":1767,"Ġengine":1768,"ged":1769,"Ġchall":1770,"Ġemail":1771,"Ġteam":1772,"ew":1773,"Ġben":1774,"acter":1775,"iting":1776,"Ġrespect":1777,"ĠHT":1778,"Ġpath":1779,"Ġhum":1780,"Ġfew":1781,"Ġcontent":1782,"Ġ$":1783,"Ġspace":1784,"Ġfin":1785,"Ġcases":1786,"ler":1787,"Ġabove":1788,"Ġcar":1789,"Ġcho":1790,"Ġfurther":1791,"Ġprotect":1792,"ĠDe":1793,"rior":1794,"Ġplatform":1795,"Ġstudy":1796,"Ġfunctions":1797,"ron":1798,"Ġlink":1799,"Ġadversary":1800,"Ġ===":1801,"ĠTable":1802,"unt":1803,"Ġquer":1804,"Ġpost":1805,"Ġnode":1806,"Ġear":1807,"Ġden":1808,"Ġut":1809,"Ġbest":1810,"Ġfield":1811,"ache":1812,"ĠWeb":1813,"ords":1814,"sh":1815,"Ġnorm":1816,"ĠSystem":1817,"Ġgover":1818,"Ġbetter":1819,"Ġpolicy":1820,"Ġ12":1821,"ived":1822,"In":1823,"Ġanalyz":1824,"13":1825,"amp":1826,"tic":1827,"Ġes":1828,"Ġpop":1829,"ately":1830,"Ġframework":1831,"ĠIm":1832,"ecess":1833,"Ġrelated":1834,"Ġrout":1835,"Ġcrypt":1836,"overed":1837,"Ġbehavior":1838,"Ġhig":1839,"Ġattempt":1840,"ogle":1841,"ave":1842,"Ġnext":1843,"Ġscenari":1844,"aces":1845,"Ġonline":1846,"irtual":1847,"Ġsaf":1848,"Ġeither":1849,"requ":1850,"Ġdiff":1851,"respond":1852,"CP":1853,"Ġconfigur":1854,"hers":1855,"ograph":1856,"ries":1857,"Ġsent":1858,"Ġcred":1859,"ogn":1860,"face":1861,"security":1862,"Ġconsist":1863,"Ġflow":1864,"duced":1865,"Ġload":1866,"Ġmessages":1867,"ins":1868,"inc":1869,"Ġlangu":1870,"ellig":1871,"play":1872,"ĠDN":1873,"Ġmonitor":1874,"ĠCP":1875,"Ġref":1876,"oT":1877,"Ġbel":1878,"Ġview":1879,"usion":1880,"Ġdeploy":1881,"Ġcharacter":1882,"Ġauthentication":1883,"though":1884,"Ġrobust":1885,"Ġimages":1886,"________":1887,"Ġcent":1888,"Ġinvestig":1889,"Ġorganizations":1890,"atch":1891,"mer":1892,"Ġcorrespond":1893,"Ġgovern":1894,"bed":1895,"EE":1896,"fo":1897,"ĠMicrosoft":1898,"Ġfail":1899,"ison":1900,"rastr":1901,"Ġdig":1902,"Ġcritical":1903,"ibility":1904,"con":1905,"cl":1906,"Ġdataset":1907,"Ġauthor":1908,"time":1909,"Ġtechnology":1910,"18":1911,"ĠCont":1912,"Ġsuccessful":1913,"Ġvulnerable":1914,"Ġoriginal":1915,"Ġerror":1916,"Ġquest":1917,"ĠOne":1918,"ale":1919,"Ġaccuracy":1920,"17":1921,"pping":1922,"Ġterm":1923,"Ġcloud":1924,"Ġdownload":1925,"Ġdynam":1926,"Ġel":1927,"ances":1928,"Ġsmart":1929,"Ġrecomm":1930,"Ġevent":1931,"Ġlat":1932,"Ġscript":1933,"Ġissue":1934,"Ġresponse":1935,"xim":1936,"Ġintern":1937,"Ġencrypt":1938,"Ġsomet":1939,"Ġproject":1940,"ĠThey":1941,"ĠWhile":1942,"Ġlater":1943,"Ġide":1944,"Ġprovided":1945,"Ġ<":1946,"Ġadditional":1947,"Ġassoci":1948,"Ġprior":1949,"Ġcybersecurity":1950,"Ġcause":1951,"box":1952,"ways":1953,"Ġcontext":1954,"CS":1955,"Ġdetails":1956,"ges":1957,"secunia":1958,"Ġyears":1959,"25":1960,"Ġdatabase":1961,"Ġkeep":1962,"Ġlabel":1963,"Ġcommunic":1964,"ĠGoogle":1965,"Ġexisting":1966,"Ġloss":1967,"Ġsite":1968,"Ġprevent":1969,"port":1970,"Ġoperating":1971,"Ġresources":1972,"Ġcomplete":1973,"eed":1974,"Ġminim":1975,"jor":1976,"ĠCy":1977,"here":1978,"icult":1979,"ava":1980,"Ġele":1981,"RL":1982,"Ġchanges":1983,"Ġoperations":1984,"irc":1985,"Ġindust":1986,"Ġexpl":1987,"Ġnecess":1988,"lied":1989,"ĠOur":1990,"24":1991,"uted":1992,"Ġcal":1993,"ansom":1994,"Ġcop":1995,"illion":1996,"Ġbound":1997,"ifier":1998,"Ġscan":1999,"200":2000,"ready":2001,"Ġhardware":2002,"uc":2003,"isco":2004,"Ġencryption":2005,"alth":2006,"Ġmy":2007,"oS":2008,"oid":2009,"Ġdistribution":2010,"ĠWith":2011,"Ġsequ":2012,"Ġsimple":2013,"Ġadmin":2014,"Ġservers":2015,"Ġcompanies":2016,"sing":2017,"Ġtext":2018,"Ġsolution":2019,"Ġacross":2020,"Ġissues":2021,"AP":2022,"Ġlast":2023,"Ġlit":2024,"Ġcomponents":2025,"lying":2026,"ĠCl":2027,"Ġstructure":2028,"Ġleast":2029,"Ġprivate":2030,"Ġter":2031,"Ġimplementation":2032,"ĠUS":2033,"Ġalready":2034,"man":2035,"IP":2036,"REF":2037,"uth":2038,"uture":2039,"erg":2040,"Ġcaus":2041,"ĠRed":2042,"ches":2043,"ĠAtt":2044,"Ġgenerated":2045,"Ġpattern":2046,"Ġmobile":2047,"way":2048,"Ġimprove":2049,"Ġwebsite":2050,"epend":2051,"Ġneeds":2052,"me":2053,"Ġtry":2054,"Ġmajor":2055,"Ġsamples":2056,"Ġresearc":2057,"Ġalgorithms":2058,"day":2059,"Ġfree":2060,"ably":2061,"ral":2062,"Ġhuman":2063,"untu":2064,"50":2065,"Ġinfrastr":2066,"Ġconsidered":2067,"Ġdifficult":2068,"att":2069,"Ġaff":2070,"Ġamount":2071,"Ġpacket":2072,"ĠAfter":2073,"ired":2074,"Ġtesting":2075,"Ġla":2076,"mission":2077,"Ġreason":2078,"Ġtrack":2079,"ĠBut":2080,"Ġpertur":2081,"itig":2082,"Ġaround":2083,"Ġrespons":2084,"Ġdevelopment":2085,"onstr":2086,"Ġrequires":2087,"inary":2088,"Ġprotection":2089,"prise":2090,"22":2091,"lished":2092,"ĠInt":2093,"Ġinitial":2094,"Ġlayer":2095,"Ġcontains":2096,"Ġdocument":2097,"Ġdri":2098,"Ġlaw":2099,"Ġcapt":2100,"Ġaddresses":2101,"Ġplay":2102,"Ġlikely":2103,"ĠIoT":2104,"pos":2105,"ĠBy":2106,"Ġdefin":2107,".\"":2108,"aint":2109,"Ġhead":2110,"ĠNetwork":2111,"Ġparameters":2112,"Ġthird":2113,"Ġ=":2114,"rary":2115,"Ġthough":2116,"Ġmean":2117,"iver":2118,"Ġdemonstr":2119,"ero":2120,"IC":2121,"ices":2122,"Ġterms":2123,"Ġplan":2124,"elligence":2125,"Ġlocation":2126,"loc":2127,"Ġdesigned":2128,"Ġfrequ":2129,"asing":2130,"lick":2131,"Ġassess":2132,"Ġensure":2133,"ML":2134,"Ġarchitecture":2135,"================":2136,"Ġthreats":2137,"lob":2138,"Ġinstance":2139,"Ġhere":2140,"Ġextract":2141,"90":2142,"Ġmaking":2143,"Ġalways":2144,"80":2145,"ensive":2146,"ĠâĢĶ":2147,"idd":2148,"Ġplace":2149,"Ġtur":2150,"ION":2151,"Ġthus":2152,"ET":2153,"Ġoccur":2154,"do":2155,"irm":2156,"Ġfuture":2157,"Ġcontain":2158,"Ġprograms":2159,"Ġeffective":2160,"Ġdirectly":2161,"Ġret":2162,"vert":2163,"Ġransom":2164,"izing":2165,"idence":2166,"Ġfull":2167,"ounter":2168,"Ġdefined":2169,"ients":2170,"Ġconstruct":2171,"Ġhigher":2172,"Ġprocesses":2173,"olution":2174,"oot":2175,"Ġcreated":2176,"ream":2177,"Ġsimp":2178,"Ġdr":2179,"Ġreported":2180,"Ġmakes":2181,"Ġsk":2182,"ĠSince":2183,"ees":2184,"Ġconfiguration":2185,"AA":2186,"itional":2187,"Ġdescribed":2188,"af":2189,"Ġtimes":2190,"book":2191,"Ġprivile":2192,"nces":2193,"ĠAr":2194,"upp":2195,"Ġvirtual":2196,"alse":2197,"Ġhowever":2198,"Ġcalc":2199,"Ġscore":2200,"Ġfac":2201,"pped":2202,"Ġappear":2203,"ern":2204,"Ġworks":2205,"MD":2206,"30":2207,"onom":2208,"Ġcard":2209,"Ġher":2210,"Ġfour":2211,"Ġstrong":2212,"ension":2213,"Ġbug":2214,"level":2215,"cent":2216,"aring":2217,"ood":2218,",\"":2219,"Ġperturb":2220,"ED":2221,"Ġgame":2222,"ĠAt":2223,"AS":2224,"Ġmitig":2225,"Ġbit":2226,"EN":2227,"Ġversions":2228,"ember":2229,"Ġ&":2230,"Ġrecogn":2231,"aps":2232,"Ġbrowser":2233,"Ġprotocols":2234,"Ġgovernment":2235,"Ġcour":2236,"ming":2237,"apter":2238,"Ġpersonal":2239,"Ġsensitive":2240,"Ġdetermine":2241,"Ġbro":2242,"sequ":2243,"Ġdefend":2244,"Ġlanguage":2245,"ched":2246,"ĠMore":2247,"ences":2248,"ulated":2249,"force":2250,"gin":2251,"Ġestab":2252,"Ġnormal":2253,"Ġrules":2254,"Ġamong":2255,"roid":2256,"Ġautomat":2257,"Ġinfrastructure":2258,"ffor":2259,"Ġincrease":2260,"Ġoperation":2261,"anced":2262,"Ġpackets":2263,"Ġconsum":2264,"Ġreview":2265,"ĠFurther":2266,"flow":2267,"ĠSh":2268,"Ġdone":2269,"Ġgenerate":2270,"ump":2271,"Ġitself":2272,"ising":2273,"IST":2274,"ĠIT":2275,"let":2276,"Ġste":2277,"ock":2278,"Ġdeveloped":2279,"Ġarbit":2280,"Ġclassification":2281,"Ġconduct":2282,"Ġhim":2283,"Ġtask":2284,"Ġevents":2285,"use":2286,"ĠSec":2287,"Ġtechnique":2288,"Ġprobability":2289,"lu":2290,"ends":2291,"Ġaccording":2292,"Ġstrategy":2293,"visories":2294,"ĠAttack":2295,"Ġcertific":2296,"48":2297,"ĠAll":2298,"Ġrange":2299,"utes":2300,"Ġwar":2301,"Ġconnection":2302,"Ġaction":2303,"ne":2304,"hold":2305,"Ġproducts":2306,"Ġunt":2307,"hat":2308,"vant":2309,"Ġproblems":2310,"ologies":2311,"light":2312,"Ġactivity":2313,"Ġassociated":2314,"ique":2315,"Ġconstr":2316,"Ġchecks":2317,"Ġtargeted":2318,"Ġshort":2319,"ffer":2320,"Ġstring":2321,"ĠAPI":2322,"Ġred":2323,"Ġelect":2324,"Ġinstead":2325,"iod":2326,"Ġseen":2327,"40":2328,"Ġmarket":2329,"Ġkeys":2330,"ĠURL":2331,"side":2332,"Ġclear":2333,"Ġfire":2334,"ĠNote":2335,"Ġsat":2336,"Ġsit":2337,"Ġpoints":2338,"by":2339,"Ġlaun":2340,"Ġfore":2341,"ĠDes":2342,"23":2343,"ĠData":2344,"Ġdefault":2345,"ĠBe":2346,"QL":2347,"()":2348,"Ġlibr":2349,"Ġ#":2350,"Ġprim":2351,"Ġroot":2352,"Ġassign":2353,"Ġmis":2354,"Ġconcept":2355,"Ġdigital":2356,"Ġvend":2357,"ĠOS":2358,"Ġmaint":2359,"Ġestim":2360,"AD":2361,"Ġthink":2362,"70":2363,"ĠDef":2364,"back":2365,"inally":2366,"Ġdiscovered":2367,"Ġincludes":2368,"sp":2369,"Ġusually":2370,"Ġarg":2371,"Ġavoid":2372,"Ġaverage":2373,"Ġsimply":2374,"Ġrest":2375,"Ġadministr":2376,"Ġbecome":2377,"Ġintr":2378,"ĠComm":2379,"Ġexecute":2380,"Ġentire":2381,"**":2382,"Ġsolutions":2383,"Ġdecision":2384,"Ġtem":2385,"Ġrequirements":2386,"Ġpasswords":2387,"Ġapplied":2388,"Ġcirc":2389,"ubuntu":2390,"ulate":2391,"strict":2392,"aster":2393,"ength":2394,"Ġactions":2395,"Ġtrig":2396,"Ġpresented":2397,"Ġutil":2398,"ĠHTTP":2399,"Ġmaxim":2400,"Ġattrib":2401,"Ġaffected":2402,"air":2403,"Ġcustomers":2404,"Ġaud":2405,"iminal":2406,"Ġtot":2407,"Ġregard":2408,"ĠJava":2409,"Ġneeded":2410,"Ġsug":2411,"cing":2412,"Ġsepar":2413,"AL":2414,"Ġsus":2415,"Ġbelow":2416,"www":2417,"ceed":2418,"set":2419,"ĠOpen":2420,"Ġinj":2421,"Ġbelie":2422,"mail":2423,"actions":2424,"AM":2425,"irus":2426,"Ġability":2427,"ĠOr":2428,"Ġmechanism":2429,"hic":2430,"Ġhapp":2431,"Ġenough":2432,"Ġcompromised":2433,"Ġrepl":2434,"ĠAcc":2435,"Ġtoo":2436,"ilt":2437,"Ġconnected":2438,"Ġproced":2439,"ration":2440,"Ġgive":2441,"Ġdetail":2442,"Ġblack":2443,"part":2444,"Ġsuggest":2445,"ath":2446,"Ġchalleng":2447,"Ġleak":2448,"Ġscheme":2449,"Ġidentified":2450,"60":2451,"Ġfalse":2452,"Ġworking":2453,"Ġcache":2454,"Ġperiod":2455,"Ġtable":2456,"ren":2457,"Ġkind":2458,"Ġcomponent":2459,"Ġcorresponding":2460,"Ġparticip":2461,"reen":2462,"Ġapproaches":2463,"iversity":2464,"Ġselect":2465,"Ġhaving":2466,"aim":2467,"88":2468,"Ġstored":2469,"Ġprom":2470,"kn":2471,"Ġlimited":2472,"wall":2473,"Ġstor":2474,"MS":2475,"ĠInst":2476,"ription":2477,"CVE":2478,"Ġ)":2479,"Ġside":2480,"Ġarbitrary":2481,"istics":2482,"rupt":2483,"Ġnecessary":2484,"Ġpopular":2485,"Ġresearchers":2486,"Ġstates":2487,"Ġsem":2488,"Ġspecial":2489,"Ġeasily":2490,"Ġeffor":2491,"Ġquant":2492,"ĠPl":2493,"RO":2494,"ĠSome":2495,"Ġapps":2496,"fact":2497,"erc":2498,"Ġuseful":2499,"lobal":2500,"tle":2501,"Ġtransfer":2502,"Ġmiss":2503,"Ġlimit":2504,"alk":2505,"ĠTherefore":2506,"Ġhttps":2507,"val":2508,"Ġcontract":2509,"Ġvol":2510,"Ġgoal":2511,"96":2512,"ging":2513,"cr":2514,"Ġvide":2515,"Ġsum":2516,"az":2517,"Ġrequests":2518,"aries":2519,"Ġsay":2520,"orth":2521,"Ġinternal":2522,"LE":2523,"Ġenter":2524,"Ġ15":2525,"itimate":2526,"Ġvector":2527,"Ġetc":2528,"Ġgrad":2529,"Ġcontinu":2530,"ĠHP":2531,"Ġlet":2532,"Ġconst":2533,"Ġexperiment":2534,"ternal":2535,"Ġcounter":2536,"Ġrather":2537,"Ġmillion":2538,"Ġransomware":2539,"ĠPh":2540,"ĠAdd":2541,"point":2542,"Ġsetting":2543,"ĠHat":2544,"inter":2545,"pass":2546,"Ġswit":2547,"Ġproof":2548,"Ġseem":2549,"Ġdest":2550,"Ġve":2551,"Ġwide":2552,"ST":2553,"Ġfam":2554,"head":2555,"ium":2556,"Ġrestrict":2557,"Ġneg":2558,"ĠSim":2559,"Ġgoing":2560,"Ġalong":2561,"Ġinterface":2562,"Ġphone":2563,"Ġbase":2564,"Ġaccept":2565,"Ġproperties":2566,"Ġnumbers":2567,"izes":2568,"Ġfixed":2569,"Ġopp":2570,"Ġuntil":2571,"ifically":2572,"Ġtrad":2573,"ype":2574,"iate":2575,"Ġpolicies":2576,"Ġaccounts":2577,"Ġactivities":2578,"VSS":2579,"Ġphishing":2580,"Ġsecret":2581,"Ġask":2582,"Ġcare":2583,"Ġsignal":2584,"Ġsitu":2585,"Ġsym":2586,"ching":2587,"ik":2588,"Ġsomething":2589,"aken":2590,"ĠSe":2591,"ĠMod":2592,"Ġencrypted":2593,"Ġothers":2594,"Th":2595,"Ġhy":2596,"Ġtotal":2597,"los":2598,"Ġpen":2599,"ifi":2600,"Ġunique":2601,"iving":2602,"Ġthings":2603,"pd":2604,"Ġtim":2605,"atively":2606,"Ġmedia":2607,"Ġlearn":2608,"RE":2609,"pecially":2610,"ĠSS":2611,"sw":2612,"pose":2613,"be":2614,"Ġquery":2615,"Ġput":2616,"encies":2617,"Ġperformed":2618,"Ġclick":2619,"Ġprocessing":2620,"Ġrelations":2621,"Ġsteps":2622,"Ġobtain":2623,"most":2624,"Ġdistributed":2625,"Ġcollect":2626,"Ġimplemented":2627,"wise":2628,"thing":2629,"Ġaware":2630,"ides":2631,"Ġ:":2632,"ĠServer":2633,"Ġquick":2634,"onym":2635,"reg":2636,"Ġ100":2637,"Ġwrite":2638,"tes":2639,"Ġexpress":2640,"Ġadded":2641,"NN":2642,"Ġactually":2643,"ĠThus":2644,"Ġstack":2645,"Ġlegitimate":2646,"Ġeasy":2647,"IF":2648,"Ġcredential":2649,"Ġachieve":2650,"ĠAndroid":2651,"Ġcontin":2652,"Ġsubject":2653,"\",":2654,"Ġwrit":2655,"Ġparameter":2656,"Ġrecent":2657,"21":2658,"Ġarea":2659,"Ġill":2660,"SP":2661,"lib":2662,"visory":2663,"99":2664,"wards":2665,"ĠVulner":2666,"Ġgreat":2667,"Ġwords":2668,"Ġaim":2669,"Ġday":2670,"Ġreceived":2671,"Ġdynamic":2672,"):":2673,"ireless":2674,"Ġcompared":2675,"ĠTechn":2676,"MP":2677,"II":2678,"Ġreve":2679,"Ġlif":2680,"Ġfar":2681,"ope":2682,"ĠOnce":2683,"Ġvehic":2684,"opt":2685,"ĠProt":2686,"enses":2687,"ĠNot":2688,"Ġcapture":2689,"Ġinstructions":2690,"Ġvi":2691,"ivity":2692,"we":2693,"Ġtre":2694,"aging":2695,"Ġclaim":2696,"Ġsample":2697,"Ġadvant":2698,"Ġreturn":2699,"Ġways":2700,"Ġbinary":2701,"Ġmembers":2702,"Ġaffect":2703,"Ġmode":2704,"Ġcopy":2705,"35":2706,"Net":2707,"Ġefficient":2708,"26":2709,"Ġbasic":2710,"Ġcomputers":2711,"Ġrespectively":2712,"ĠDNS":2713,"like":2714,"Ġclassifier":2715,"Ġrecord":2716,"gether":2717,"ĠRec":2718,"Ġder":2719,"Ġmove":2720,"Ġsites":2721,"inks":2722,"Ġphase":2723,"bedd":2724,"Ġprinc":2725,"ĠComput":2726,"Ġoption":2727,"Ġnames":2728,"Ġmonitoring":2729,"ises":2730,"Ġcryptograph":2731,"Ġbenef":2732,"Ġfollows":2733,"ilit":2734,"Ġshared":2735,"oney":2736,"ĠAlthough":2737,"\".":2738,"Ġ16":2739,"lish":2740,"ands":2741,"Ġgrow":2742,"Ġnever":2743,"Ġmechanisms":2744,"Ġbook":2745,"ĠInformation":2746,"ĠFirst":2747,"Ġsession":2748,"Ġexploited":2749,"ĠCisco":2750,"Ġlower":2751,"Ġtakes":2752,"ists":2753,"Ġapply":2754,"Ġ11":2755,"Ġincreasing":2756,"ĠCyber":2757,"Ġonce":2758,"Ġcalls":2759,"ached":2760,"Ġtasks":2761,"uz":2762,"Ġscenario":2763,"ored":2764,"Ġgain":2765,"Ġmeasures":2766,"Ġdeep":2767,"cy":2768,"ipher":2769,"app":2770,"Ġtypically":2771,"Ġant":2772,"ining":2773,"pre":2774,"Ġhold":2775,"ool":2776,"Ġsurve":2777,"ĠNew":2778,"Ġvariables":2779,"Ġformat":2780,"ĠThen":2781,"Ġflaw":2782,"Ġmot":2783,"DP":2784,"28":2785,"abled":2786,"AB":2787,"Ġlength":2788,"Ġpercent":2789,"Ġbig":2790,"Ġrefer":2791,"pri":2792,"Ġauthors":2793,"Ġcomputing":2794,"arant":2795,"Ġann":2796,"porate":2797,"ĠInd":2798,"known":2799,"Ġevaluate":2800,"Ġactive":2801,"Ġindustry":2802,"Ġinputs":2803,"oss":2804,"ĠSecunia":2805,"ĠFace":2806,"Ġclose":2807,"27":2808,"ĠSize":2809,"Ġprec":2810,"Ġcontact":2811,"Ġlot":2812,"Ġsure":2813,"yth":2814,"Ġtechnical":2815,"Ġmonth":2816,"Ġregular":2817,"ane":2818,"Ġec":2819,"Ġ2018":2820,"Ġcamp":2821,"pool":2822,"Ġzero":2823,"Ġupdates":2824,"Ġespecially":2825,"Ġverify":2826,"arm":2827,"ategor":2828,"Ġdiscussed":2829,"ĠThat":2830,"ider":2831,"Ġshare":2832,"Ġfunctionality":2833,"Ġrelease":2834,"ĠAss":2835,"Ġsets":2836,"Ġdeal":2837,"Ġidea":2838,"Ġassume":2839,"Ġstorage":2840,"Ġweak":2841,"Ġappropri":2842,"Ġevaluation":2843,"aly":2844,"Ġexpected":2845,"Ġwebsites":2846,"Ġquestion":2847,"Ġ2017":2848,"ĠLe":2849,"see":2850,"Ġhackers":2851,"Ġvariable":2852,"ĠAct":2853,"sec":2854,"ody":2855,"IG":2856,"Ġiter":2857,"lation":2858,"ĠCVSS":2859,"Ġobserved":2860,"arily":2861,"Ġmention":2862,"Ġnoise":2863,"Ġreduce":2864,"Ġcommands":2865,"Ġ14":2866,"ĠEnter":2867,"34":2868,"Ġautomatically":2869,"more":2870,"âĢĶ":2871,"Ġsequence":2872,"Ġexternal":2873,"Ġinstruction":2874,"Ġtrained":2875,"Ġproperty":2876,"Ġcommunity":2877,"oding":2878,"ĠUnited":2879,"ĠAut":2880,"Ġneural":2881,"Ġbecom":2882,"Ġincor":2883,"Ġincluded":2884,"iation":2885,"Ġreleased":2886,"iveness":2887,"Ġgroups":2888,"ĠManag":2889,"Ġcapabilities":2890,"Ġ{":2891,"Ġhome":2892,"licit":2893,"Ġobserv":2894,"Ġfirewall":2895,"ĠTCP":2896,"Ġexperiments":2897,"55":2898,"Ġinstalled":2899,"Ġbreak":2900,"cript":2901,"Ġbi":2902,"tings":2903,"Ġactual":2904,"atic":2905,"Ġglobal":2906,"Ġmodule":2907,"Ġintelligence":2908,"ĠExp":2909,"asp":2910,"Ġartic":2911,"Ġsafe":2912,"Ġintroduced":2913,"Ġsy":2914,"ĠSoftware":2915,"ml":2916,"Ġfilter":2917,"ĠMet":2918,"wh":2919,"Ġpair":2920,"Ġcontrib":2921,"main":2922,"Ġidentity":2923,"oint":2924,"Ġgeneration":2925,"Ġembedd":2926,"ython":2927,"ones":2928,"Ġengineering":2929,"SM":2930,"Ġcompar":2931,"emb":2932,"IM":2933,"Ġpractice":2934,"isf":2935,"Ġbuffer":2936,"lier":2937,"Ġobtained":2938,"ĠFinally":2939,"Ġtrue":2940,"olic":2941,"Ġbuilt":2942,"Ġregist":2943,"Ġresource":2944,"Ġguarant":2945,"Ġconditions":2946,"Ġrobustness":2947,"aign":2948,"ifies":2949,"abor":2950,"Ġtaken":2951,"met":2952,"Ġdomains":2953,"Ġfund":2954,"Ġpayload":2955,"ependent":2956,"Ġtri":2957,"Ġcore":2958,"Ġbroad":2959,"aced":2960,"Ġtherefore":2961,"info":2962,"Ġconv":2963,"name":2964,"Ġtogether":2965,"AV":2966,"Ġcategor":2967,"gress":2968,"Ġrole":2969,"ĠFacebook":2970,"ancial":2971,"Ġ13":2972,"Ġmanip":2973,"ĠFig":2974,"LS":2975,"Ġtechnologies":2976,"Ġhist":2977,"Ġ2016":2978,"Ġwhy":2979,"print":2980,"change":2981,"ĠControl":2982,"Ġwind":2983,"Ġskill":2984,"Ġrelevant":2985,"Ġconcer":2986,"Ġsafety":2987,"aft":2988,"attack":2989,"ĠAC":2990,"Ġemployees":2991,"Ġbegin":2992,"Ġenerg":2993,"Ġadapt":2994,"go":2995,"ĠEach":2996,"ĠSQL":2997,"Ġdirectory":2998,"Ġreli":2999,"Ġleft":3000,"Ġdetected":3001,"Ġcross":3002,"Ġdefine":3003,"Ġexact":3004,"Ġmo":3005,"Ġreach":3006,"ferences":3007,"Ġlarger":3008,"ĠSp":3009,"ĠFr":3010,"Ġpurpose":3011,"Ġhash":3012,"amed":3013,"acking":3014,"Ġdam":3015,"Ġgre":3016,"Ġcredentials":3017,"Ġagent":3018,"verse":3019,"ister":3020,"uzz":3021,"Ġcourse":3022,"Ġenergy":3023,"Ġmicro":3024,"ufact":3025,"Ġexecuted":3026,"yle":3027,"Ġdon":3028,"Ġcome":3029,"aud":3030,"PN":3031,"LL":3032,"36":3033,"Ġsensor":3034,"Ġpotentially":3035,"Ġinjection":3036,"Ġwor":3037,"Ġdisplay":3038,"Ġreally":3039,"Ġsatisf":3040,"Ġnear":3041,"overy":3042,"Ġvideo":3043,"Ġreceive":3044,"Ġstrategies":3045,"Ġwireless":3046,"ĠCPU":3047,"Ġlevels":3048,"Ġpreviously":3049,"Ġcampaign":3050,"md":3051,"Ġpast":3052,"Ġrisks":3053,"ĠPC":3054,"Ġrespond":3055,"ĠAS":3056,"uary":3057,"rix":3058,"mitted":3059,"Ġpages":3060,"84":3061,"def":3062,"ectors":3063,"Ġcontrols":3064,"Ġdifference":3065,"uster":3066,"lated":3067,"Ġhealth":3068,"arent":3069,"ustr":3070,"uthor":3071,"Ġfirm":3072,"Ġappropriate":3073,"Ġoffic":3074,"Ġreveal":3075,"Ġinside":3076,"Ġcraft":3077,"ĠEng":3078,"Ġrelationship":3079,"Ġansw":3080,"lease":3081,"ĠDet":3082,"icated":3083,"ground":3084,"Ġbehind":3085,"Ġmachines":3086,"Ġbackdo":3087,"ĠNow":3088,"Ġold":3089,"Ġ2019":3090,"ND":3091,"Ġalert":3092,"ception":3093,"Ġpatterns":3094,"Ġscenarios":3095,"reshold":3096,"Ġparty":3097,"Ġself":3098,"mod":3099,"Ġpropose":3100,"Ġuns":3101,"lex":3102,"Ġdistance":3103,"29":3104,"Ġforward":3105,"Ġviol":3106,"74":3107,"Ġsignature":3108,"Ġallowed":3109,"Ġess":3110,"Ġpractices":3111,"ook":3112,"lication":3113,"ĠAD":3114,"OM":3115,"rics":3116,"ism":3117,"wr":3118,"upd":3119,"enge":3120,"Ġlight":3121,");":3122,"Ġbank":3123,"bug":3124,"Ġpatch":3125,"##":3126,"ah":3127,"Ġfinal":3128,"Ġsources":3129,"Ġlittle":3130,"85":3131,"DoS":3132,"Ġresulting":3133,"Ġenable":3134,"ĠGr":3135,"ĠEnterprise":3136,"Ġaspect":3137,"Ġcommunications":3138,"Ġmoney":3139,"Ġcomputation":3140,"Ġjob":3141,"Ġchallenges":3142,"Ġshell":3143,"Ġcondition":3144,"mar":3145,"Ġcomplexity":3146,"Ġsemant":3147,"04":3148,"Ġelements":3149,"75":3150,"ĠAnother":3151,"Ġfeed":3152,"ĠService":3153,"Ġpublished":3154,"Ġremo":3155,"ĠComp":3156,"aints":3157,"debug":3158,"ey":3159,"cont":3160,"Ġsynt":3161,"ĠVM":3162,"Ġcompromise":3163,"Ġlibrary":3164,"Ġconnections":3165,"Ġexperience":3166,"Ġtargets":3167,"Ġlinks":3168,"ously":3169,"Ġwritten":3170,"Ġinflu":3171,"Ġdefenses":3172,"off":3173,"Ġones":3174,"Ġdevelopers":3175,"ifying":3176,"aa":3177,"Ġsn":3178,"We":3179,"Ġlonger":3180,"Ġclasses":3181,"ĠAg":3182,"witter":3183,"Ġexploits":3184,"imin":3185,"eline":3186,"Ġobjects":3187,"Ġspeed":3188,"ĠHere":3189,"ape":3190,"eder":3191,"top":3192,"Ġearly":3193,"ĠStates":3194,"Ġverification":3195,"ĠUniversity":3196,"une":3197,"Ġtok":3198,"Ġalmost":3199,"Ġlack":3200,"Ġenforce":3201,"xy":3202,"ull":3203,"ĠUsing":3204,"ction":3205,"oring":3206,"Ġdeg":3207,"ĠAccording":3208,"ars":3209,"Ġcompil":3210,"Ġword":3211,"Ġupdated":3212,"Ġsettings":3213,"Ġrule":3214,"ina":3215,"ĠSystems":3216,"Ġwee":3217,"Ġnote":3218,"Ġbuilding":3219,"ingu":3220,"Ġadvantage":3221,"Ġthreshold":3222,"Ġweight":3223,"Ġoptimization":3224,"ĠFrom":3225,"Ġintegrity":3226,"Ġtag":3227,"Ġhighly":3228,"Ġdele":3229,"duces":3230,"ots":3231,"Ġformal":3232,"code":3233,"Ġanom":3234,"Ġreports":3235,"ĠâĢĺ":3236,"Ġlooking":3237,"ĠSP":3238,"erson":3239,"elves":3240,"Ġseries":3241,"Ġsubst":3242,"Ġu":3243,"________________":3244,"lore":3245,"Ġfive":3246,"ĠWhat":3247,"ecause":3248,"OC":3249,"Ġcustomer":3250,"Ġanalyze":3251,"Ġincident":3252,"Ġpositive":3253,"idential":3254,"Ġstatic":3255,"ĠGP":3256,"advisories":3257,"sers":3258,"Ġart":3259,"lack":3260,"Ġsuper":3261,"ĠRep":3262,"Ġoptimal":3263,"ĠAm":3264,"ĠSpec":3265,"els":3266,"Ġrad":3267,"Ġillustr":3268,"Ġcur":3269,"Ġinvolved":3270,"oll":3271,"Ġbits":3272,"Ġentry":3273,"Ġlayers":3274,"79":3275,"Ġclients":3276,"Ġdefinition":3277,"Ġfinancial":3278,"Ġstream":3279,"Ġsusp":3280,"na":3281,"cert":3282,"Ġtell":3283,"inger":3284,"ton":3285,"ĠNo":3286,"chain":3287,"Ġalloc":3288,"ĠDec":3289,"Ġyet":3290,"Ġsignificantly":3291,"ili":3292,"Ġunderstanding":3293,"atory":3294,"Ġassessment":3295,"Ġdatasets":3296,"Ġspo":3297,"Ġcompet":3298,"Ġwindow":3299,"Ġcomes":3300,"ĠEu":3301,"Ġhour":3302,"roj":3303,"Ġqueries":3304,"Ġ2015":3305,"Ġchoose":3306,"Ġevidence":3307,"This":3308,"586":3309,"Ġlogic":3310,"ober":3311,"Ġinteract":3312,"Ġproviding":3313,"aves":3314,"ival":3315,"UT":3316,"Ġadopt":3317,"Ġpenet":3318,"Ġfully":3319,"Ġoverall":3320,"Ġlinear":3321,"Ġ30":3322,"ĠOther":3323,"iles":3324,"Ġupon":3325,"Ġsensors":3326,"Ġop":3327,"ements":3328,"Ġlock":3329,"Ġconfigure":3330,"ĠCent":3331,"Ġ25":3332,"ections":3333,"Ġbreach":3334,"cle":3335,"Ġinternet":3336,"Ġprofession":3337,"Ġdi":3338,"ners":3339,"Ġargum":3340,"Ġdescribe":3341,"ouse":3342,"----------------------------------------------------------------":3343,"idden":3344,"dis":3345,"ole":3346,"Ġallowing":3347,"Ġdays":3348,"ĠAI":3349,"Ġchannels":3350,"Ġquestions":3351,"ume":3352,"33":3353,"ask":3354,"Ġbytes":3355,"now":3356,"Ġexpect":3357,"Ġtraditional":3358,"Ġprediction":3359,"Ġtrusted":3360,"ĠBr":3361,"Ġsuccessfully":3362,"Ġclean":3363,"Ġacqu":3364,"Ġquickly":3365,"66":3366,"Ġnat":3367,"ĠICS":3368,"Ġ18":3369,"exe":3370,"Ġdoing":3371,"Ġtrigger":3372,"US":3373,"ĠMoreover":3374,"Ġupgr":3375,"Ġfake":3376,"redhat":3377,"Ġrecon":3378,"duction":3379,"Ġchallenge":3380,"rial":3381,"Ġoutside":3382,"Ġsends":3383,"ending":3384,"Ġselected":3385,"CC":3386,"Ġmaximum":3387,"oper":3388,"ĠApple":3389,"Ġmanufact":3390,"Ġinteresting":3391,"ifiers":3392,"ibly":3393,"77":3394,"Ġrecords":3395,"meric":3396,"artment":3397,"Ġcriminal":3398,"Ġstudies":3399,"vious":3400,"Ġhappen":3401,"rc":3402,"Ġ2014":3403,"Ġsufficient":3404,"VM":3405,"Ġconstant":3406,"Ġdate":3407,"Ġearlier":3408,"Ġactors":3409,"Ġlines":3410,"Ġprivileges":3411,"Ġbox":3412,"Ġproperly":3413,"ĠLi":3414,"Ġplatforms":3415,"ĠAlso":3416,"Ġquality":3417,"Ġstarted":3418,"Ġcreating":3419,"Ġvendor":3420,"ude":3421,"iter":3422,"ortun":3423,"Ġmentioned":3424,"Ġessential":3425,"Ġdenial":3426,"Ġspe":3427,"OP":3428,"Ġseg":3429,"ulations":3430,"Ġchain":3431,"Ġareas":3432,"ĠPriv":3433,"Ġcertificate":3434,"Ġitem":3435,"Ġcontaining":3436,"Ġimmed":3437,"Ġenh":3438,"Ġcontroller":3439,"Ġfrequency":3440,"missions":3441,"IL":3442,"Ġpi":3443,"ublic":3444,"ĠSC":3445,"0000":3446,"ĠFurthermore":3447,"alf":3448,"ffice":3449,"Ġposition":3450,"Ġtrain":3451,"Ġturn":3452,"Ġwhole":3453,"Ġface":3454,"Ġ50":3455,"ĠIN":3456,"ĠFire":3457,"Ġcell":3458,"down":3459,"Ġfault":3460,"Ġtoday":3461,"Ġ2013":3462,"aged":3463,"ards":3464,"Ġconstraints":3465,"44":3466,"Ġgives":3467,"ducing":3468,"dd":3469,"Ġsending":3470,"Ġhacking":3471,"Ġprotected":3472,"ued":3473,"Ġindividuals":3474,"Ġsymb":3475,"Ġpackage":3476,"Ġliter":3477,"ams":3478,"ĠAmeric":3479,"Ġcurrently":3480,"ĠLet":3481,"mp":3482,"resents":3483,"Ġuna":3484,"Ġspoof":3485,"Ġdetailed":3486,"Ġbad":3487,"Ġprint":3488,"isions":3489,"Ġguid":3490,"95":3491,"Ġagents":3492,"ĠBecause":3493,"Ġaltern":3494,"ĠPre":3495,"ĠTwitter":3496,"ĠMost":3497,"ĠCr":3498,"Ġdocuments":3499,"Ġbypass":3500,"Ġcollected":3501,"Ġnature":3502,"erous":3503,"Ġconsists":3504,"78":3505,"ĠRem":3506,"Ġsomeone":3507,"rie":3508,"Ġgenerally":3509,"Ġcipher":3510,"Ġgrid":3511,"Ġtheore":3512,"ĠTrans":3513,"aving":3514,"Ġloop":3515,"Ġthems":3516,"uctures":3517,"Ġmatrix":3518,"Ġrepresents":3519,"Ġthemselves":3520,"ean":3521,"Ġtransform":3522,"aterial":3523,"Ġscreen":3524,"Ġlife":3525,"Ġoffer":3526,"Ġautomated":3527,"Ġpoison":3528,".)":3529,"ray":3530,"cast":3531,"Ġerrors":3532,"St":3533,"Ġwhose":3534,"osen":3535,"Ġattention":3536,"ĠMany":3537,"Ġtransaction":3538,"ĠGener":3539,"ĠAT":3540,"Ġvictims":3541,"ii":3542,"Ġvariety":3543,"Ġsharing":3544,"Ġcontinue":3545,"Ġcentral":3546,"ĠRuss":3547,"76":3548,"Ġtaking":3549,"Ġmeet":3550,"Ġlatest":3551,"--------------------------------------------------------------------":3552,"Ġ2010":3553,"Ġinfected":3554,"Ġrecommend":3555,"ilities":3556,"class":3557,"ĠUpd":3558,"no":3559,"ps":3560,"Ġeffectiveness":3561,"uit":3562,"uck":3563,"ĠOb":3564,"Ġhandle":3565,"Ġnews":3566,"Ġcountries":3567,"earch":3568,"Ġperturbation":3569,"Ġoverhead":3570,"ĠFe":3571,"Ġblocks":3572,"Ġstop":3573,"Ġpatches":3574,"IA":3575,"aff":3576,"ĠNational":3577,"ĠSM":3578,"ĠEurop":3579,"Ġsignals":3580,"Ġpractical":3581,"Ġcluster":3582,"vent":3583,"iency":3584,"Ġdeployed":3585,"Ġintroduce":3586,"GP":3587,"Ġ80":3588,"Ġattempts":3589,"Ġanonym":3590,"ĠSub":3591,"Ġoptions":3592,"Ġgradient":3593,"Ġdriv":3594,"Ġprogramming":3595,"amer":3596,"oh":3597,"oded":3598,"TS":3599,"Ġthing":3600,"Ġmag":3601,"Ġcaused":3602,"Ġpackages":3603,"98":3604,"right":3605,"ĠTe":3606,"ĠDis":3607,"ips":3608,"Ġfraud":3609,"Ġoverflow":3610,"ĠEven":3611,"Ġhacker":3612,"Ġstandards":3613,"Ġpresence":3614,"ty":3615,"php":3616,"Ġ>":3617,"Ġdecre":3618,"ĠChapter":3619,"ĠDep":3620,"Ġphot":3621,"Ġbecomes":3622,"Ġassigned":3623,"Ġadvert":3624,"reme":3625,"Ġintended":3626,"ynch":3627,"RP":3628,"oth":3629,"Ġdev":3630,"Ġspam":3631,"38":3632,"Script":3633,"Ġcryptographic":3634,"Ġ2020":3635,"text":3636,"Ġreference":3637,"ĠPart":3638,"Ġeffort":3639,"orn":3640,"Ġscale":3641,"Ġschemes":3642,"Ġtheory":3643,"Ġbackdoor":3644,"Ġscal":3645,"Ġmeaning":3646,"Ġbelieve":3647,"Ġ2012":3648,"Ġspread":3649,"Ġconsequ":3650,"Ġemails":3651,"greg":3652,"Ġcommit":3653,"Ġincreases":3654,"ĠStr":3655,"Ġfigure":3656,"Ġsupported":3657,"Ġarticle":3658,"Ġadding":3659,"Ġparties":3660,"party":3661,"Ġmetrics":3662,"Ġchecksum":3663,"Ġdelay":3664,"Ġsense":3665,"Ġcollection":3666,"Ġparts":3667,"Ġproduce":3668,"Ġincreased":3669,"ht":3670,"Ġfollowed":3671,"As":3672,"Ġexploitation":3673,"Ġclos":3674,"Ġwriting":3675,"Ġdisclos":3676,"Ġfactors":3677,"ensions":3678,"iction":3679,"EM":3680,"ky":3681,"Ġtransactions":3682,"Ġspecified":3683,"Ġpiec":3684,"ĠCPS":3685,"ighb":3686,"Ġ17":3687,"ression":3688,"ux":3689,"Ġusage":3690,"Ġnamed":3691,"Ġspecifically":3692,"Ġcover":3693,"Ġsimpl":3694,"Ġcolum":3695,"Ġquite":3696,"Ġmeasurements":3697,"Ġeconom":3698,"any":3699,"Ġpenetration":3700,"Ġsteal":3701,"Ġinstances":3702,"Ġresponsible":3703,"Ġvalidation":3704,"65":3705,"Ġtrying":3706,"Ġseparate":3707,"pack":3708,"urance":3709,"fort":3710,"acle":3711,"ĠSm":3712,"itionally":3713,"ĠSimilar":3714,"Ġdriver":3715,"itute":3716,"acters":3717,"imately":3718,"Ġadvanced":3719,"EEE":3720,"iff":3721,"Ġq":3722,"Ġround":3723,"Ġextension":3724,"ĠMal":3725,"Ġ2011":3726,"Ġhosts":3727,"Ġslow":3728,"Ġmaterial":3729,"386":3730,"ynchron":3731,"ĠComputer":3732,"ai":3733,"imension":3734,"gu":3735,"Ġeffic":3736,"45":3737,"Ġ====":3738,"Ġconver":3739,"ĠNIST":3740,"Ġlocations":3741,"ERT":3742,"debuginfo":3743,"Ġ+":3744,"LC":3745,"illa":3746,"Ġvisual":3747,"Ġstage":3748,"Ġsays":3749,"ayer":3750,"Ġdemonstrate":3751,"usted":3752,"Ġdrop":3753,"Ġdegree":3754,"add":3755,"Ġwa":3756,"ĠDDoS":3757,"ĠReg":3758,"Ġexplicit":3759,"Ġsmaller":3760,"uly":3761,"ĠPer":3762,"debian":3763,"Ġprinci":3764,"ĠNe":3765,"scrib":3766,"RC":3767,"Ġwhite":3768,"Ġcrash":3769,"Ġrely":3770,"Ġsituation":3771,"Ġinject":3772,"Ġindex":3773,"Ġparticipants":3774,"ental":3775,"Ġexists":3776,"acing":3777,"board":3778,"idents":3779,"Ġprimary":3780,"conf":3781,"Ġequival":3782,"Ġcorrectly":3783,"Ġregion":3784,"ĠVPN":3785,"Ġ2009":3786,"Ġpress":3787,"idth":3788,"Ġintrusion":3789,"Ġflo":3790,"DF":3791,"Ġcharacters":3792,"ĠHTML":3793,"Ġabstr":3794,"Ġobserve":3795,"Ġlib":3796,"Ġmail":3797,"Ġcrafted":3798,"vised":3799,"ĠII":3800,"lear":3801,"world":3802,"ift":3803,"ĠCustom":3804,"Ġcompletely":3805,"used":3806,"Ġindependent":3807,"Ġwww":3808,"ological":3809,"phone":3810,"Ġ2008":3811,"isting":3812,"Ġmodified":3813,"Ġprocedure":3814,"Ġfinger":3815,"Ġdrive":3816,"Ġair":3817,"Ġisol":3818,"Ġhidden":3819,"poses":3820,"ares":3821,"Ġresol":3822,"ĠIC":3823,"Ġeffectively":3824,"Ġvirus":3825,"Ġlogs":3826,"Ġelse":3827,"Ġopportun":3828,"ĠWork":3829,"Ġrepe":3830,"Ġmaintain":3831,"usc":3832,"Ġfinding":3833,"Ġhyper":3834,"Ġcombination":3835,"Ġboot":3836,"Ġenvironments":3837,"ij":3838,"ush":3839,"alysis":3840,"Ġregister":3841,"unction":3842,"Ġinference":3843,"Ġexc":3844,"Ġtransmission":3845,"ĠML":3846,"37":3847,"tical":3848,"Ġruns":3849,"ĠResearch":3850,"Ġchanged":3851,"ĠIS":3852,"Ġchoice":3853,"Ġperturbations":3854,"Ġremain":3855,"ĠIEEE":3856,"Ġmodern":3857,"Ġalthough":3858,"ĠDo":3859,"Ġaway":3860,"ktop":3861,"Ġcomparison":3862,"rojan":3863,"Ġlegal":3864,"alle":3865,"Ġlogin":3866,"Ġcontrast":3867,"ĠMay":3868,"ĠSu":3869,"lot":3870,"ma":3871,"Ġotherwise":3872,"OT":3873,"31":3874,"Ġsurvey":3875,"Ġchosen":3876,"Ġtree":3877,"Ġfailure":3878,"ĠCS":3879,"Ġbal":3880,"ĠVulnerability":3881,"39":3882,"Ġgot":3883,"Ġeasier":3884,"Ġheader":3885,"Ġunknown":3886,"ĠSuch":3887,"Ġfri":3888,"Ġcharacteristics":3889,"ederal":3890,"Ġbasis":3891,"Ġprovider":3892,"iring":3893,"Ġinform":3894,"lice":3895,"rect":3896,"fox":3897,"where":3898,"Ġexpos":3899,"Ġband":3900,"Ġstarting":3901,"Ġsound":3902,"Ġrecently":3903,"Ġund":3904,"itors":3905,"Ġsubsequ":3906,"ĠAccess":3907,"Ġperforming":3908,"68":3909,"key":3910,"pective":3911,"Ġpurposes":3912,"Ġenables":3913,"Ġabs":3914,"Ġcosts":3915,"ĠCons":3916,"Ġinvestigation":3917,"Ġrates":3918,"rete":3919,"liance":3920,"ĠTor":3921,"Ġleading":3922,"Ġmodify":3923,"related":3924,"Ġestablished":3925,"Ġcorporate":3926,"agr":3927,"Ġhighlight":3928,"Ġdamage":3929,"Ġmeasurement":3930,"Ġretrie":3931,"Ġwidely":3932,"ifications":3933,"yond":3934,"Ġexperts":3935,"iddle":3936,"Ġstatus":3937,"Ġsimulation":3938,"upport":3939,"Ġaggreg":3940,"Ġcommerc":3941,"ĠImp":3942,"Ġesc":3943,"ĠPa":3944,"Ġcompare":3945,"http":3946,"Ġtalk":3947,"Ġnatural":3948,"Ġfast":3949,"Ġded":3950,"Ġeffects":3951,"Ġembedded":3952,"Ġeduc":3953,"ronic":3954,"ĠFl":3955,"Ġtrace":3956,"Ġcommonly":3957,"Ġcompute":3958,"Ġutility":3959,"Ġ32":3960,"updates":3961,"Ġindicates":3962,"ĠBit":3963,"Ġprocedures":3964,"Ġassets":3965,"Ġtook":3966,"100":3967,"Ġtracking":3968,"Ġchapter":3969,"Pro":3970,"pc":3971,"Ġelement":3972,"Ġproviders":3973,"Ġcoord":3974,"Ġregarding":3975,"ior":3976,"hib":3977,"Ġthread":3978,"ĠOver":3979,"Ġdraw":3980,"Ġcategories":3981,"Ġcapability":3982,"ĠMS":3983,"Ġswitch":3984,"Ġtowards":3985,"Ġdefender":3986,"Ġgreater":3987,"Ġprobably":3988,"ĠQu":3989,"Ġdistingu":3990,"Ġtests":3991,"exp":3992,"HE":3993,"Ġcou":3994,"ĠManagement":3995,"Ġfall":3996,"ided":3997,"self":3998,"fusc":3999,"Ġexchange":4000,"Ġmind":4001,"ategory":4002,"Ġgetting":4003,"Ġextreme":4004,"Ġplug":4005,"Ġneighb":4006,"oy":4007,"pite":4008,"Ġsometimes":4009,"ĠBob":4010,"Ġtempor":4011,"ĠIntel":4012,"Ġsort":4013,"Ġaspects":4014,"reng":4015,"ncy":4016,"eli":4017,"Ġhours":4018,"Ġedge":4019,"Ġdepends":4020,"Ġnegative":4021,"Ġcredit":4022,"Ġcomputational":4023,"Ġdou":4024,"Ġliterature":4025,"Ġrecommended":4026,"Ġforce":4027,"ĠiP":4028,"Ġmanner":4029,"ĠOper":4030,"Ġrol":4031,"Ġawareness":4032,"Ġauthentic":4033,"Ġobjective":4034,"Ġmotiv":4035,"Ġ24":4036,"ĠInc":4037,"Ġflag":4038,"Ġpaths":4039,"Ġunderlying":4040,"ĠGu":4041,"leg":4042,"raft":4043,"Ġra":4044,"Ġmap":4045,"69":4046,"Ġvehicle":4047,"PR":4048,"Ġweek":4049,"Ġadj":4050,"ĠJavaScript":4051,"ĠAPT":4052,"Ġlic":4053,"itable":4054,"ĠJan":4055,"Ġfactor":4056,"ypot":4057,"Ġdisk":4058,"Ġrelatively":4059,"Ġrepresentation":4060,"Ġremove":4061,"ene":4062,"ATION":4063,"Ġupload":4064,"onest":4065,"Ġstatement":4066,"itude":4067,"source":4068,"Ġinteraction":4069,"Ġge":4070,"Ġparticularly":4071,"Ġchild":4072,"list":4073,"ĠCor":4074,"Ġcook":4075,"Ġspecification":4076,"Ġfields":4077,"hell":4078,"Ġprove":4079,"****":4080,"Ġdestination":4081,"Ġconfidential":4082,"Ġattributes":4083,"anch":4084,"Ġpointer":4085,"OL":4086,"brid":4087,"Ġmanage":4088,"Ġcarri":4089,"Ġmass":4090,"ĠEd":4091,"Ġinsert":4092,"Ġrecognition":4093,"Ġlaunch":4094,"ocol":4095,"Ġlisted":4096,"Ġpurch":4097,"Ġanti":4098,"Ġhistory":4099,"land":4100,"Ġenabled":4101,"process":4102,"spec":4103,"Ġagre":4104,"Ġenforcement":4105,"ĠInter":4106,"ĠNext":4107,"Ġdecrypt":4108,"ĠDirect":4109,"Ġexecutable":4110,"Ġpropos":4111,"Ġports":4112,"ĠCo":4113,"Ġexcept":4114,"dom":4115,"Ġcybercr":4116,"Ġenterprise":4117,"ilitary":4118,"meas":4119,"Ġcamer":4120,"Ġdepending":4121,"ters":4122,"fully":4123,"hest":4124,"Ġoffers":4125,"pth":4126,"EP":4127,"Ġskills":4128,"âĢĿ":4129,"Ġconducted":4130,"Ġblockchain":4131,"Ġsched":4132,"Ġincom":4133,"come":4134,"Ġvectors":4135,"mdv":4136,"Ġcollabor":4137,"ĠSD":4138,"Ġrouting":4139,"iately":4140,"Ġever":4141,"ĠCommun":4142,"mark":4143,"utation":4144,"NIST":4145,"Ġfingerprint":4146,"ĠMult":4147,"ĠST":4148,"urer":4149,"Ġforens":4150,"olen":4151,"Ġminimum":4152,"Ġvendors":4153,"Ġdetecting":4154,"Ġefforts":4155,"Ġban":4156,"Ġdirection":4157,"Ġcommercial":4158,"ĠOct":4159,"Ġbelong":4160,"Ġcountry":4161,"Ġmodeling":4162,"Ġassist":4163,"Ġidentifying":4164,"Ġsoph":4165,"Ġdebug":4166,"ĠSecond":4167,"Ġpermission":4168,"Ġprofile":4169,"Ġpropag":4170,"ĠCO":4171,"Ġemerg":4172,"Ġchanging":4173,"uthorized":4174,"Ġmodules":4175,"sive":4176,"Ġfocused":4177,"Ġappears":4178,"oice":4179,"Ġfamily":4180,"Ġorigin":4181,"Ġsubs":4182,"fect":4183,"Ġidentification":4184,"Ġdecisions":4185,"Ġsolve":4186,"Ġmonths":4187,"ali":4188,"Ġbugs":4189,"ĠSA":4190,"Ġsal":4191,"Ġlocated":4192,"Ġmanager":4193,"Ġofficial":4194,"db":4195,"Ġbackground":4196,"coin":4197,"Ġanything":4198,"ĠChina":4199,"ĠPython":4200,"Ġefficiency":4201,"ĠDoS":4202,"html":4203,"Ġcontained":4204,"Ġsix":4205,"Ġpossibly":4206,"Ġsignatures":4207,"Ġpermissions":4208,"Ġlabels":4209,"Ġstreng":4210,"Ġreasons":4211,"map":4212,"Ġteams":4213,"ĠMark":4214,"Ġshowed":4215,"ĠCIS":4216,"ĠLab":4217,"Ġcontents":4218,"cription":4219,"Ġrandomly":4220,"Ġassumption":4221,"ĠExam":4222,"ev":4223,"Ġnovel":4224,"ĠPr":4225,"Ġanswer":4226,"FF":4227,"ĠImpact":4228,"Ġhelps":4229,"HA":4230,"Ġimmediately":4231,"Ġserious":4232,"Ġhalf":4233,"Ġ64":4234,"ĠâĢľ":4235,"Ġachieved":4236,"Ġmatch":4237,"Ġapprox":4238,"ĠDNN":4239,"ĠAv":4240,"ĠHence":4241,"Ġnational":4242,"Ġvary":4243,"zilla":4244,"Ġpassed":4245,"Ġunit":4246,"UN":4247,"ĠMarch":4248,"style":4249,"Ġexpert":4250,"ORY":4251,"ĠNet":4252,"Ġexactly":4253,"ĠUpdate":4254,"ptions":4255,"Ġsetup":4256,"Ġscope":4257,"Ġpublicly":4258,"df":4259,"Ġresil":4260,"ĠInternational":4261,"Ġtele":4262,"Ġreading":4263,"ery":4264,"Ġfirmware":4265,"ĠIs":4266,"Ġproxy":4267,"Ġhandling":4268,"otes":4269,"Ġled":4270,"BI":4271,"active":4272,"Ġconfidence":4273,"Ġmajority":4274,"Ġtested":4275,"Ġanalyst":4276,"Ġstolen":4277,"Ġimproved":4278,"Ġcarry":4279,"94":4280,"Ġoperator":4281,"ullet":4282,"Ġimpl":4283,"mon":4284,"etch":4285,"ersion":4286,"ĠEngine":4287,"Ġdemand":4288,"Ġestablish":4289,"ounced":4290,"Ġinvolves":4291,"ortion":4292,"Ġinfluence":4293,"Ġtiming":4294,"390":4295,"Ġentities":4296,"ruption":4297,"Ġoperational":4298,"rief":4299,"file":4300,"oted":4301,"atives":4302,"ipment":4303,"wide":4304,"equ":4305,"For":4306,"ĠAlgorith":4307,"Ġemployee":4308,"Ġoperators":4309,"Com":4310,"Ġsegment":4311,"Ġfuzz":4312,"Ġapplying":4313,"ĠTechnology":4314,"Ġguess":4315,"Ġadversaries":4316,"ading":4317,"ĠDepartment":4318,"lies":4319,"ĠBased":4320,"Ġbenign":4321,"Ġmix":4322,"Ġanalyzed":4323,"Ġwrong":4324,"ĠAb":4325,"ĠSch":4326,"Ġdescription":4327,"Ġconfigured":4328,"Ġoutputs":4329,"ĠConf":4330,"Ġcand":4331,"ĠId":4332,"Ġdeli":4333,"Ġdistin":4334,"2014":4335,"Ġchecking":4336,"Ġequal":4337,"access":4338,"ĠGroup":4339,"Ġavailability":4340,"ĠStep":4341,"iding":4342,"Ġground":4343,"ING":4344,"ĠDuring":4345,"Ġsupports":4346,"Ġperforms":4347,"Ġgen":4348,"width":4349,"scribe":4350,"================================":4351,"isk":4352,"ourn":4353,"ĠApr":4354,"Ġbeyond":4355,"Ġmitigation":4356,"faces":4357,"83":4358,"Ġtoken":4359,"Ġinstallation":4360,"ĠMo":4361,"05":4362,"BM":4363,"Ġdiscover":4364,"Ġdro":4365,"72":4366,"It":4367,"Ġtargeting":4368,"Ġlearned":4369,"ĠAre":4370,"Ġselection":4371,"Ġsto":4372,"Ġnotice":4373,"ĠAdditionally":4374,"mary":4375,"Ġtransmit":4376,"Ġtrigg":4377,"2017":4378,"lers":4379,"call":4380,"Ġrow":4381,"Ġcommunicate":4382,"bound":4383,"ĠMed":4384,"ĠIDS":4385,"Ġincidents":4386,"Ġperspective":4387,"hood":4388,"ql":4389,"ĠOut":4390,"oo":4391,"Ġland":4392,"Ġcombined":4393,"Ġlists":4394,"Ġcertificates":4395,"ĠCloud":4396,"Ġstatist":4397,"Ġdecl":4398,"Ġreturns":4399,"Ġpayment":4400,"pling":4401,"Ġmitigate":4402,"Ġlever":4403,"ba":4404,"Ġdeployment":4405,"Ġtrend":4406,"VER":4407,"Ġcalculated":4408,"Ġinn":4409,"Ġaddressed":4410,"46":4411,"TION":4412,"ĠInstead":4413,"Ġcandid":4414,"Ġcontrolled":4415,"73":4416,"CR":4417,"ĠAug":4418,"Ġtraces":4419,"Ġfindings":4420,"free":4421,"Ġlanguages":4422,"GD":4423,"ĠGiven":4424,"Ġindicate":4425,"Ġord":4426,"Ġreverse":4427,"Ġextended":4428,"ĠLog":4429,"Ġtypical":4430,"ĠMac":4431,"Ġscanning":4432,"ĠProtocol":4433,"Ġclassified":4434,"Ġworth":4435,"Ġmember":4436,"BS":4437,"Ġmetric":4438,"isticated":4439,"Ġrecommends":4440,"Ġcapac":4441,"Ġ%":4442,"Ġschedul":4443,"ulating":4444,"Ġadvisory":4445,"ĠAND":4446,"Ġ00":4447,"Ġfront":4448,"lications":4449,"Ġmilitary":4450,"ades":4451,"ĠWi":4452,"ĠRF":4453,"src":4454,"Ġrank":4455,"Ġrights":4456,"Ġpowerful":4457,"ĠOctober":4458,"IR":4459,"Ġfit":4460,"Ġmatter":4461,"Ġgate":4462,"ĠCybersecurity":4463,"Ġbody":4464,"ppc":4465,"Ġtrade":4466,"ĠSEC":4467,"Ġgoals":4468,"Ġ40":4469,"Ġfunctional":4470,"elines":4471,"Ġpix":4472,"Ġmedical":4473,"lit":4474,"ĠEX":4475,"Ġstaff":4476,"Ġeverything":4477,"âĢĵ":4478,"Ġaccessed":4479,"ĠBack":4480,"Ġcapable":4481,"ACK":4482,"itives":4483,"page":4484,"Ġfeedback":4485,"ĠModel":4486,"Ġsell":4487,"Ġconcerns":4488,"Ex":4489,"Ġslight":4490,"Ġsch":4491,"HP":4492,"Ġreporting":4493,"ĠSy":4494,"Ġaccurate":4495,"Ġremoved":4496,"OD":4497,"ĠApril":4498,"ha":4499,"Ġimportance":4500,"Ġprep":4501,"abling":4502,"Ġleads":4503,"Ġthous":4504,"Ġprocessor":4505,"ĠIV":4506,"Ġdetermined":4507,"Ġgets":4508,"Ġbusinesses":4509,"AG":4510,"ĠCIF":4511,"Ġbar":4512,"Fi":4513,"ying":4514,"Ġiniti":4515,"Ġoccurs":4516,"ĠAlice":4517,"89":4518,"VIS":4519,"Ġobvious":4520,"Ġdemonstrated":4521,"Ġclassifiers":4522,"Ġstudents":4523,"Ġdang":4524,"Ġconsidering":4525,"Ġcompre":4526,"ĠSym":4527,"Ġmapping":4528,"Ġaccessible":4529,"Ġseems":4530,"Ġobfusc":4531,"Ġpict":4532,"embly":4533,"ĠJanuary":4534,"Ġasked":4535,"ĠPower":4536,"Ġconclud":4537,"Ġgames":4538,"Ġindustrial":4539,"allel":4540,"which":4541,"order":4542,"ĠEC":4543,"Ġgather":4544,"ĠCan":4545,"ĠCenter":4546,"uge":4547,"la":4548,"Ġgrant":4549,"Ġestimate":4550,"ĠJune":4551,"TC":4552,"Ġanyone":4553,"umer":4554,"Ġestimation":4555,"Ġprecise":4556,"ĠThreat":4557,"Ġcompos":4558,"ĠAlgorithm":4559,"Ġsigned":4560,"Ġbring":4561,"Ġgenerating":4562,"emic":4563,"Ġdeveloping":4564,"ĠUnder":4565,"Ġinsp":4566,"Ġminutes":4567,"Ġrepresented":4568,"ĠMin":4569,"Ġincorrect":4570,"Ġformer":4571,"leep":4572,"Ġfeel":4573,"ring":4574,"Ġsupply":4575,"Ġunauthorized":4576,"ĠCol":4577,"isation":4578,"Ġren":4579,"Ġmanually":4580,"istrib":4581,"ye":4582,"Ġforms":4583,"ĠIII":4584,"ABLE":4585,"omen":4586,"ĠProgram":4587,"Ġfair":4588,"Ġinterp":4589,"Ġanomaly":4590,"Ġpreser":4591,"apid":4592,"UR":4593,"ung":4594,"Ġspecify":4595,"ĠOffice":4596,"Ġbeginning":4597,"veloper":4598,"ĠMAC":4599,"Ġoperate":4600,"Ġcategory":4601,"Ġhence":4602,"ĠADVIS":4603,"ening":4604,"Ġrecover":4605,"Ġattacking":4606,"ĠPo":4607,"Ġdifferences":4608,"Ġthought":4609,"Ġsophisticated":4610,"Ġadministrator":4611,"Ġitems":4612,"Ġintegrated":4613,"Ġvehicles":4614,"uff":4615,"Ġvolume":4616,"ĠADVISORY":4617,"Ġdefensive":4618,"Ġhonest":4619,"data":4620,"Ġcame":4621,"Ġrecovery":4622,"ox":4623,"ĠAV":4624,"Ġproduction":4625,"Ġremains":4626,"Ġrouter":4627,"ĠJuly":4628,"Ġcreates":4629,"Ġbecame":4630,"ĠSept":4631,"achine":4632,"ĠDescription":4633,"Ġstructures":4634,"enced":4635,"ĠMon":4636,"reens":4637,"ĠSpecifically":4638,"Ġwhereas":4639,"Ġ2007":4640,"Ġtold":4641,"ĠCode":4642,"ĠSet":4643,"Ġprojects":4644,"Ġ{\\":4645,"Ġign":4646,"AAAA":4647,"Ġevaluated":4648,"ĠProcess":4649,"asion":4650,"Ġannounced":4651,"Ġinsight":4652,"UI":4653,"astic":4654,"ng":4655,"Ġbenefit":4656,"Ġsemantics":4657,"Ġpresents":4658,"Ġblog":4659,"ĠSecure":4660,"Ġcenter":4661,"TL":4662,"ĠCIFAR":4663,"2019":4664,"Ġcountermeas":4665,"fortun":4666,"ĠTest":4667,"Ġimplementations":4668,"Ġextra":4669,"Ġattacked":4670,"Ġlibraries":4671,"ĠDefense":4672,"Ġredirect":4673,"Ġbegan":4674,"Ġcorrelation":4675,"Ġstudied":4676,"chang":4677,"ĠUser":4678,"EL":4679,"Ġbranch":4680,"Ġowner":4681,"Ġdesired":4682,"fil":4683,"Ġreflect":4684,"ured":4685,"ĠKey":4686,"Ġdiscussion":4687,"Ġconvers":4688,"Ġfacilit":4689,"Ġresponses":4690,"Ġflex":4691,"ĠPack":4692,"Ġcomprehen":4693,"Ġfaster":4694,"Ġkeeping":4695,"Ġnoted":4696,"alid":4697,"Ġlaunched":4698,"Ġsector":4699,"ournal":4700,"Ġcoordin":4701,"Ġhighest":4702,"Ġattribute":4703,"ooth":4704,"Ġproduced":4705,"lim":4706,"Ġfrequently":4707,"defined":4708,"ĠLoc":4709,"Ġequipment":4710,"Ġissued":4711,"Ġalternative":4712,"Ġthroughout":4713,"Ġentries":4714,"Ġtrick":4715,"PC":4716,"Ġbandwidth":4717,"ĠCR":4718,"Ġlaws":4719,"Ġflows":4720,"Ġinvolve":4721,"2015":4722,"Ġwater":4723,"Ġbrief":4724,"Ġscripts":4725,"going":4726,"Ġseconds":4727,"pace":4728,"ĠReport":4729,"2018":4730,"ĠEv":4731,"ĠHack":4732,"âĶ":4733,"ĠCW":4734,"Ġagencies":4735,"gi":4736,"Ġanalyzing":4737,"Ġexplore":4738,"Ġpoly":4739,"ĠSSL":4740,"Ġsoon":4741,"Ġpoisoning":4742,"Ġruntime":4743,"06":4744,"Ġrat":4745,"pat":4746,"Ġnet":4747,"2016":4748,"urrency":4749,"Ġclosed":4750,"ĠSeptember":4751,"Ġevol":4752,"Ġargument":4753,"vision":4754,"Ġcontinuous":4755,"ĠAugust":4756,"Ġroom":4757,"------------":4758,"Ġtax":4759,"aut":4760,"ulator":4761,"udget":4762,"Ġequivalent":4763,"Ġbehaviour":4764,"2013":4765,"Ġentity":4766,"site":4767,"Ġcolumn":4768,"Ġreceiver":4769,"Ġfine":4770,"Ġtransition":4771,"cf":4772,"Ġexception":4773,"Ġmom":4774,"Ġexposed":4775,"display":4776,"kit":4777,"control":4778,"Ġrequirement":4779,"Ġaccom":4780,"wo":4781,"such":4782,"ĠBlack":4783,"Tr":4784,"Ġsynchron":4785,"Ġexplained":4786,"56":4787,"host":4788,"usiness":4789,"Ġconcepts":4790,"Ġbenefits":4791,"Ġmanaged":4792,"Ġfundam":4793,"Ġcompliance":4794,"Ġnor":4795,"Ġbreaches":4796,"Ġdescribes":4797,"Ġstrings":4798,"conn":4799,"ops":4800,"ĠJoh":4801,"Ġconfirm":4802,"ĠVirtual":4803,"Ġlive":4804,"ĠAnalysis":4805,"ĠSever":4806,"Ġstated":4807,"Ġrev":4808,"with":4809,"43":4810,"mers":4811,"Ġscient":4812,"Ġformul":4813,"arge":4814,"ĠAny":4815,"Ġvalu":4816,"Ġcoverage":4817,"Ġstarts":4818,"ĠOf":4819,"undred":4820,"Ġcriter":4821,"Ġbackup":4822,"entional":4823,"Ġprincip":4824,"Ġupgrade":4825,"Ġdatabases":4826,"Ġperfect":4827,"eler":4828,"ĠMy":4829,"Ġsurface":4830,"atter":4831,"server":4832,"istent":4833,"igned":4834,"Ġparallel":4835,"97":4836,"ĠSource":4837,"ĠBefore":4838,"Ġtend":4839,"ats":4840,"Ġarray":4841,"afe":4842,"Ġmar":4843,"Ġjo":4844,"Ġcauses":4845,"Ġstores":4846,"Ġtransport":4847,"Ġult":4848,"Ġscience":4849,"EG":4850,"Ġmethodology":4851,"ĠIdent":4852,"08":4853,"Ġinterested":4854,"ĠPrivacy":4855,"ĠBoth":4856,"Ġbench":4857,"Ġassumptions":4858,"Ġexperi":4859,"Ġstory":4860,"endix":4861,"Ġgraphs":4862,"attacks":4863,"Ġonto":4864,"BC":4865,"Ġenhance":4866,"fortunately":4867,"Ġelimin":4868,"fix":4869,"pe":4870,"fe":4871,"Ġmanual":4872,"oting":4873,"Ġstatistical":4874,"686":4875,"ropy":4876,"Ġcircuit":4877,"Ġupp":4878,"Ġmeasured":4879,"ĠDig":4880,"ĠCal":4881,"Ġhit":4882,"Ġowners":4883,"CERT":4884,"bin":4885,"Ġprogress":4886,"Ġtermin":4887,"Ġrevealed":4888,"Ġguarantee":4889,"Ġwarning":4890,"Ġphys":4891,"---":4892,"ĠOR":4893,"ĠLear":4894,"gov":4895,"Ġreduced":4896,"Ġinstant":4897,"Ġlargest":4898,"Ġsl":4899,"ĠDeep":4900,"Ġattach":4901,"Ġautonom":4902,"Ġscreens":4903,"ĠRSA":4904,"ĠAdvisory":4905,"Ġinvestigate":4906,"Ġtreat":4907,"Ġsecre":4908,"Ġnothing":4909,"Ġ21":4910,"urs":4911,"ony":4912,"Ġur":4913,"Ġsubset":4914,"Ġcircum":4915,"Ġsummar":4916,"Ġarchitectures":4917,"54":4918,"ĠElect":4919,"ĠAdvers":4920,"ossible":4921,"Ġinstit":4922,"Ġdiver":4923,"Ġfeas":4924,"elt":4925,"ĠDecember":4926,"Ġtact":4927,"ĠCar":4928,"Ġbehaviors":4929,"mber":4930,"Ġextremely":4931,"53":4932,"TR":4933,"Ġminimize":4934,"fr":4935,"Ġoffice":4936,"Ġplaced":4937,"02":4938,"ls":4939,"Ġsituations":4940,"Ġmen":4941,"Ġjump":4942,"####":4943,"ĠMc":4944,"ultane":4945,"Ġsender":4946,"Ġrecip":4947,"Ġsw":4948,"ason":4949,"Ġmainly":4950,"Ġcapacity":4951,"Ġprivilege":4952,"Ġconfir":4953,"Ġexecuting":4954,"Ġloaded":4955,"Ġlinked":4956,"Ġhundred":4957,"Ġcreation":4958,"MI":4959,"ĠNetworks":4960,"Ġemployed":4961,"Ġelectronic":4962,"Ġprompt":4963,"ĠBu":4964,"CE":4965,"Ġyield":4966,"ierarch":4967,"Ġleave":4968,"ĠOrgan":4969,"body":4970,"Ġsubsequent":4971,"haps":4972,"Ġleverage":4973,"Ġflaws":4974,"metric":4975,"Ġdeveloper":4976,"ivered":4977,"Ġrelation":4978,"my":4979,"Ġbyte":4980,"Ġcodes":4981,"Ġreceiving":4982,"Ġgoes":4983,"Ġbudget":4984,"bruary":4985,"ceedings":4986,"ĠUp":4987,"Ġbotnet":4988,"Ġweakness":4989,"Ġquantum":4990,"Ġdistinct":4991,"hesis":4992,"LO":4993,"ĠDr":4994,"ĠCrypt":4995,"FS":4996,"ĠAdv":4997,"Ġexplain":4998,"care":4999,"ender":5000,"xx":5001,"Ġdece":5002,"Ġâ":5003,"Ġlooks":5004,"Ġsplit":5005,"Ġrapid":5006,"Ġderived":5007,"ecure":5008,"ĠWorld":5009,"Ġheav":5010,"apers":5011,"tom":5012,"Ġmill":5013,"Ġextracted":5014,"ĠStand":5015,"hemat":5016,"Ġsuspicious":5017,"Ġtun":5018,"GSM":5019,"Ġinternational":5020,"ĠSol":5021,"ĠTLS":5022,"ĠEuropean":5023,"Ġwon":5024,"Ġremaining":5025,"ĠFile":5026,"bre":5027,"ĠTrojan":5028,"Ġbin":5029,"emble":5030,"Ġmut":5031,"Ġencour":5032,"Ġgenerates":5033,"ications":5034,"ovember":5035,"Ġreturned":5036,"puter":5037,"Ġuncert":5038,"py":5039,"Ġ]":5040,"Ġshowing":5041,"Ġconflic":5042,"service":5043,"Ġlimitations":5044,"Ġdoesn":5045,"Ġdeliver":5046,"Ġbrowsers":5047,"âĶģ":5048,"Ġ22":5049,"ny":5050,"Ġpick":5051,"Ġrelative":5052,"arial":5053,"Ġpip":5054,"71":5055,"ĠDLL":5056,"Ġlik":5057,"Ġsqu":5058,"ĠWhere":5059,"Ġcult":5060,"displaystyle":5061,"Ġdelivered":5062,"%)":5063,"Ġsections":5064,"ĠImage":5065,"vest":5066,"Ġpiece":5067,"Ġlatter":5068,"Ġobservation":5069,"inst":5070,"Ġdisclosure":5071,"ĠServices":5072,"Ġreferred":5073,"PA":5074,"Ġnotion":5075,"Ġremotely":5076,"Ġharm":5077,"Ġpossibility":5078,"ancy":5079,"Ġcorrupt":5080,"ĠSimilarly":5081,"ĠExploit":5082,"Ġrelies":5083,"open":5084,"Ġlost":5085,"UD":5086,"Ġclearly":5087,"Ġexpand":5088,"ĠGerm":5089,"seud":5090,"product":5091,"ĠTheore":5092,"Ġconsistent":5093,"Ġinterpret":5094,"tics":5095,"Ġsuitable":5096,"aily":5097,"Ġir":5098,"Ġworked":5099,"UL":5100,"ĠArea":5101,"Ġmoving":5102,"ĠMulti":5103,"gy":5104,"olicy":5105,"UC":5106,"Ġdownloaded":5107,"Ġexploiting":5108,"Ġspect":5109,"Ġexerc":5110,"Ġmanufacturer":5111,"Ġmac":5112,"ĠAR":5113,"Ġinteractions":5114,"Ġspoofing":5115,"Ġcomputed":5116,"cor":5117,"Ġsimultane":5118,"Ġreceives":5119,"ĠConference":5120,"ĠNovember":5121,"ĠDue":5122,"Ġnearly":5123,"Ġgenerator":5124,"Ġparent":5125,"Ġprice":5126,"Ġvariants":5127,"Ġfiltering":5128,"Ġinterfaces":5129,"ĠCustomer":5130,"ounce":5131,"hot":5132,"istration":5133,"Ġcards":5134,"51":5135,"Ġdistinguish":5136,"Ġhybrid":5137,"ĠIndust":5138,"adow":5139,"lig":5140,"Ġupper":5141,"Ġten":5142,"âĶģâĶģ":5143,"ĠDES":5144,"Ġprofessionals":5145,"Ġtheft":5146,"Ġendpoint":5147,"luding":5148,"Ġscores":5149,"Ġhappens":5150,"Ġstrength":5151,"87":5152,"93":5153,"Ch":5154,"Us":5155,"ĠFebruary":5156,"Ġappe":5157,"oder":5158,"Ġrepos":5159,"Ġhypot":5160,"acement":5161,"Ġdivid":5162,"mal":5163,"eter":5164,"Ġtransformation":5165,"ĠMNIST":5166,"Ġbillion":5167,"bu":5168,"Ġslightly":5169,"dll":5170,"ĠUse":5171,"specific":5172,"Ġreconstruct":5173,"ĠCre":5174,"ĠProduct":5175,"42":5176,"Ġscam":5177,"Ġeth":5178,"Ġassumed":5179,"Ġbaseline":5180,"ĠApplication":5181,"Ġcomprehensive":5182,"Ġunits":5183,"Ġcontracts":5184,"2020":5185,"Ġchoos":5186,"Ġrang":5187,"Ġdimension":5188,"Ġedges":5189,"Ġche":5190,"Ġunivers":5191,"RF":5192,"Ġvariant":5193,"De":5194,"iform":5195,"Ġdetector":5196,"avig":5197,"Ġplanning":5198,"Ġintercept":5199,"Ġknows":5200,"Ġconfigurations":5201,"strum":5202,"devel":5203,"ITY":5204,"Ġreliable":5205,"ĠPar":5206,"Ġcut":5207,"azon":5208,"ĠDetection":5209,"licated":5210,"Ġpartition":5211,"Ġfre":5212,"2010":5213,"Ġlogical":5214,"Ġserve":5215,"Ġeventually":5216,"Ġtwe":5217,"ĠUN":5218,"rome":5219,"ĠAmerican":5220,"oph":5221,"',":5222,"Ġbutton":5223,"Ġcolor":5224,"Ġgiving":5225,"illance":5226,"Ġhij":5227,"Ġvoice":5228,"Ġexperimental":5229,"norm":5230,"Ġunlike":5231,"Ġnetworking":5232,"ĠJust":5233,"inese":5234,"cknow":5235,"81":5236,"Ġdedicated":5237,"Ġrepeated":5238,"Ġuntr":5239,"Ġ}":5240,"outh":5241,"Ġmining":5242,"Ġusername":5243,"Ġcausing":5244,"ĠPe":5245,"ocial":5246,"Ġinfer":5247,"Ġfill":5248,"lishing":5249,"ipped":5250,"Ġsave":5251,"Ġconstruction":5252,"Ġconsumption":5253,"ificial":5254,"ĠUSB":5255,"Ġdesktop":5256,"EO":5257,"rec":5258,"Ġdiscovery":5259,"ses":5260,"sub":5261,"Ġexposure":5262,"user":5263,"Ġvaluable":5264,"Ġaims":5265,"Ġnumerous":5266,"Ġid":5267,"Ġil":5268,"ĠSY":5269,"ĠAuthent":5270,"2011":5271,"Ġclock":5272,"Ġabstract":5273,"ca":5274,"Ġintegration":5275,"Ġmissing":5276,"ollow":5277,"Ġ@":5278,"Ġturned":5279,"ĠDefin":5280,"ivirus":5281,"ĠFirefox":5282,"Ġmer":5283,"ĠPort":5284,"Ġholds":5285,"ĠShe":5286,"03":5287,"herent":5288,"lis":5289,"Ġkinds":5290,"Ġradio":5291,"ĠCNN":5292,"ĠCommon":5293,"ĠBitcoin":5294,"Ġmatching":5295,"Ġshall":5296,"ĠNorth":5297,"Ġthousands":5298,"Ġexplicitly":5299,"dit":5300,"Ġbroadcast":5301,"ĠVer":5302,"Ġestimated":5303,"ĠMachine":5304,"Ġimpossible":5305,"ĠKali":5306,"92":5307,"Ġimplementing":5308,"Ġalerts":5309,"Ġcoming":5310,"Ġcooper":5311,"aintext":5312,"Ġtit":5313,"Ġadvisories":5314,"Ġactor":5315,"Ġchance":5316,"Ġconcern":5317,"ĠVersion":5318,"ĠInf":5319,"ĠWar":5320,"ĠOF":5321,"plete":5322,"Ġbur":5323,"Ġcarried":5324,"Ġlatency":5325,"58":5326,"ĠBl":5327,"rate":5328,"Ġsaw":5329,"ĠSeveral":5330,"ersky":5331,"Ġdelivery":5332,"ĠCD":5333,"ĠAnt":5334,"ĠChinese":5335,"jection":5336,"Ġ23":5337,"imal":5338,"Ġreduction":5339,"ĠPRO":5340,"ADA":5341,"Ġterr":5342,"rest":5343,"Ġpartners":5344,"Ġhuge":5345,"aspersky":5346,"ĠEqu":5347,"Ġstay":5348,"Ġscr":5349,"Ġcompat":5350,"ĠCA":5351,"Ġinnov":5352,"umb":5353,"agram":5354,"Ġfailed":5355,"2012":5356,"Ġ26":5357,"Ġextensions":5358,"ĠMIT":5359,"Ġhierarch":5360,"ley":5361,"Ġstatistics":5362,"Ġattract":5363,"ĠRussian":5364,"Ġdisrupt":5365,"pper":5366,"Ġrefers":5367,"ĠFBI":5368,"ĠAttacks":5369,"Ġmostly":5370,"Ġdouble":5371,"fered":5372,"ĠEnc":5373,"Ġcrime":5374,"Ġanomal":5375,"47":5376,"Ġnecessarily":5377,"Ġmultip":5378,"Ġrecognize":5379,"aming":5380,"ief":5381,"Ġchallenging":5382,"SN":5383,"Ġprofessional":5384,"Ġguarantees":5385,"overn":5386,"Ġfav":5387,"osp":5388,"Ġaudit":5389,"To":5390,"Cl":5391,"VID":5392,"Ġratio":5393,"ĠDat":5394,"Ġreliability":5395,"91":5396,"Ġprefer":5397,"Ġ2000":5398,"Ġpopulation":5399,"da":5400,"Ġattached":5401,"stream":5402,"Ġconstraint":5403,"ingly":5404,"Ġcampaigns":5405,"Ġmaster":5406,"Ġcaptured":5407,"Ġprotecting":5408,"Ġconsumer":5409,"Ġsequences":5410,"Ġadministrators":5411,"Ġinfection":5412,"ĠES":5413,"Ġadopted":5414,"ĠMe":5415,"Ġeconomic":5416,"write":5417,"term":5418,"look":5419,"ĠPass":5420,"Ġobservations":5421,"Ġrelationships":5422,"Ġgeneric":5423,"ĠProceedings":5424,"ĠExec":5425,"Ġplayers":5426,"Ġempir":5427,"Ġexistence":5428,"IX":5429,"Ġresist":5430,"Ġdiss":5431,"Ġincreasingly":5432,"itative":5433,"Ġpseud":5434,"iminals":5435,"Ġstra":5436,"Ġalle":5437,"ann":5438,"Ġbuy":5439,"Ser":5440,"ĠBo":5441,"Ġaccessing":5442,"ailable":5443,"Ġconsumers":5444,"ĠAPIs":5445,"Ġkill":5446,"ury":5447,"ĠClass":5448,"Ġfirewalls":5449,"Ġapplicable":5450,"ferent":5451,"ĠScience":5452,"Ġsan":5453,"Ġtravel":5454,"ĠSmart":5455,"visor":5456,"ĠDen":5457,"agn":5458,"Ġarguments":5459,"Ġsemantic":5460,"den":5461,"ĠGe":5462,"ĠState":5463,"scale":5464,"position":5465,"esides":5466,"ĠResp":5467,"gener":5468,"Ġcamera":5469,"Ġcrack":5470,"Ġfinite":5471,"ĠInit":5472,"ĠTeam":5473,"ĠSign":5474,"cs":5475,"words":5476,"Re":5477,"Ġbrute":5478,"ĠUK":5479,"%.":5480,"Ġdynamics":5481,"ĠTheorem":5482,"Ġpaid":5483,"Ġplant":5484,"Ġvalidate":5485,"Ġgrowth":5486,"ĠCert":5487,"Ġmission":5488,"ĠLearning":5489,"Ġbind":5490,"ensity":5491,"ĠManager":5492,"Ġexamine":5493,"Ġmathemat":5494,"Ġinteger":5495,"Ġhar":5496,"ĠEngineering":5497,"omb":5498,"Ġstraight":5499,"son":5500,"Ġterminal":5501,"Ġ2006":5502,"vulner":5503,"physical":5504,"Al":5505,"sole":5506,"Ġescal":5507,"ĠAmazon":5508,"Ġreached":5509,"Ġplans":5510,"Ġextend":5511,"Ġleakage":5512,"ĠPDF":5513,"Ġsimilarity":5514,"Ġaudio":5515,"pled":5516,"Ġauthorization":5517,"tp":5518,"Ġfederal":5519,"Ġcycle":5520,"App":5521,"Ġilleg":5522,"itiz":5523,"Ġlooked":5524,"Ġnamely":5525,"Ġpool":5526,"Ġtopic":5527,"ĠAppendix":5528,"Ġresilience":5529,"ĠRequ":5530,"Ġleaders":5531,"Ġrouters":5532,"ĠUb":5533,"ĠIntelligence":5534,"49":5535,"ĠXML":5536,"fl":5537,"Ġroute":5538,"Ġoffered":5539,"Ġpolitical":5540,"Ġincorpor":5541,"lusion":5542,"MA":5543,"iced":5544,"Ġcryptography":5545,"41":5546,"Ġseek":5547,"Ġdecide":5548,"Ġer":5549,"ĠIBM":5550,"ĠiOS":5551,"Ġhom":5552,"Ġfriends":5553,"Ġdoor":5554,"ĠUnfortunately":5555,"Ġsuggests":5556,"Ġ60":5557,"ĠProtection":5558,"ometric":5559,"Ġcalling":5560,"Ġencl":5561,"Ġdiv":5562,"Ġeveryone":5563,"Ġmist":5564,"Ġprotot":5565,"iliar":5566,"ĠJohn":5567,"Ġreducing":5568,"itory":5569,"Ġwin":5570,"Ġheld":5571,"Ġdecided":5572,"umber":5573,"Ġtempl":5574,"tenance":5575,"Ġgrowing":5576,"Ġclaims":5577,"ĠCT":5578,"essions":5579,"iet":5580,"Ġminimal":5581,"Ġdial":5582,"Ġverified":5583,"Ġsuggested":5584,"FT":5585,"67":5586,"Ġintermed":5587,"Ġ\\":5588,"bb":5589,"ze":5590,"Figure":5591,"Ġmov":5592,"Ġworst":5593,"Ġplaintext":5594,"Ġfails":5595,"Ġclicking":5596,"system":5597,"Ġlapt":5598,"Ġeducation":5599,"52":5600,"Ġwalk":5601,"hel":5602,"Ġconsequences":5603,"ae":5604,"Ġconfidentiality":5605,"unk":5606,"Ġideal":5607,"Ġep":5608,"Ġopportunity":5609,"________________________________":5610,"ĠMalware":5611,"ĠAdversarial":5612,"FI":5613,"Ġmoment":5614,"Ġmask":5615,"noarch":5616,"Ġpercentage":5617,"ĠInstitute":5618,"Ġstation":5619,"HT":5620,".;":5621,"Ġcriminals":5622,"Ġfundamental":5623,"Ġacceler":5624,"ĠTime":5625,"Ġconfirmed":5626,"Ġreleases":5627,"Ġspeak":5628,"Ġwanted":5629,"Ġtokens":5630,"If":5631,"cat":5632,"SC":5633,"168":5634,"iant":5635,"Ġpoor":5636,"Ġshut":5637,"Ġdistributions":5638,"ĠPublic":5639,"%,":5640,"awn":5641,"Ġdescript":5642,"ĠCISA":5643,"ĠSte":5644,"Ġrobot":5645,"ĠEm":5646,"Ġstatements":5647,"ĠBay":5648,"Ġpairs":5649,"Ġinterview":5650,"Ġcovered":5651,"ĠFore":5652,"2009":5653,"Ġexpensive":5654,"ĠStat":5655,"ECT":5656,"asploit":5657,"Ġencoding":5658,"Ġtopology":5659,"Ġstealth":5660,"Ġtables":5661,"opy":5662,"Ġconnectivity":5663,"Ġinterpre":5664,"Ġensures":5665,"82":5666,"Ġtransmitted":5667,"Ġautomation":5668,"Ġhide":5669,"Ġfinally":5670,"ĠMem":5671,"onent":5672,"ĠSn":5673,"ĠHigh":5674,"adget":5675,"Ġ;":5676,"Ġcalculate":5677,"uting":5678,"Ġfrag":5679,"ĠON":5680,"Ġinstrum":5681,"Ġevolution":5682,"Ġsurveillance":5683,"Ġboard":5684,"Ġseverity":5685,"Ġdefines":5686,"Ġintent":5687,"Ġsav":5688,"ĠTarget":5689,"Ġextent":5690,"Ġimm":5691,"Ġroad":5692,"Ġuncertaint":5693,"Ġfoot":5694,"Ġvolt":5695,"Ġacknow":5696,"Ġage":5697,"su":5698,"bian":5699,"ĠAust":5700,"etary":5701,"Ġwent":5702,"ĠWord":5703,"Ġfool":5704,"Ġresearcher":5705,"ĠiPh":5706,"Ġrating":5707,"lorer":5708,"Ġforum":5709,"ĠExt":5710,"ĠLevel":5711,"ran":5712,"Ġregisters":5713,"usions":5714,"ror":5715,"Ġopened":5716,"ĠFound":5717,"Ġprimarily":5718,"Ġroles":5719,"Ġunless":5720,"Ġimprovement":5721,"Ġreplace":5722,"Ġstrict":5723,"Ġcompiler":5724,"ĠAp":5725,"augh":5726,"packet":5727,"Ġinterval":5728,"ĠPHP":5729,"Ġlate":5730,"ĠAc":5731,"under":5732,"Ġmembership":5733,"Ġdefinitions":5734,"ĠYork":5735,"uration":5736,"Ġpicture":5737,"ĠProject":5738,"Ġapproximately":5739,"Ġutilize":5740,"Ġideas":5741,"Ġ27":5742,"Ġhot":5743,"ĠHy":5744,"Ġcriteria":5745,"Ġbrok":5746,"linear":5747,"ĠPat":5748,"Ġsizes":5749,"Ġindirect":5750,"rum":5751,"Ġjoint":5752,"An":5753,"ĠAutom":5754,"Ġmount":5755,"ĠListing":5756,"ĠGeneral":5757,"07":5758,"ube":5759,"Ġstable":5760,"Ġweights":5761,"using":5762,"ĠBusiness":5763,"Ġdocumentation":5764,"ancing":5765,"Ġcat":5766,"Ġrealistic":5767,"Ġ28":5768,"ĠTre":5769,"Ġqual":5770,"ĠPGP":5771,"perform":5772,"Ġregistry":5773,"Ġhumans":5774,"uitive":5775,"ĠTwo":5776,"Ġtemper":5777,"Ġsymbolic":5778,"power":5779,"Ġlabeled":5780,"acc":5781,"Ġinterrupt":5782,"ĠLast":5783,"Ġoverview":5784,"osystem":5785,"Ġnumer":5786,"Ġautonomous":5787,"ids":5788,"Ġmeant":5789,"ĠDevelop":5790,"ĠLike":5791,"ĠEvery":5792,"Ġnation":5793,"Ġmanipulate":5794,"Ġbounds":5795,"gle":5796,"ĠMD":5797,"ĠYour":5798,"Ġnavig":5799,"ĠDistrib":5800,"Ġcity":5801,"SI":5802,"ented":5803,"ĠPost":5804,"Ġprofiles":5805,"alt":5806,"bil":5807,"Ġhol":5808,"Ġalone":5809,"ĠUbuntu":5810,"Ġcruc":5811,"Ġsampling":5812,"Ġreduces":5813,"Ġbill":5814,"ĠUsers":5815,"comp":5816,"Ġtab":5817,"Ġmagn":5818,"Ġrequiring":5819,"âĢ¦":5820,"Ġnormally":5821,"Ġimplies":5822,"Ġmodification":5823,"Ġenabling":5824,"Ġrestrictions":5825,"Ġpush":5826,"Ġpolice":5827,"Ġmiddle":5828,"inations":5829,"station":5830,"ĠInte":5831,"rive":5832,"Ġ90":5833,"ife":5834,"ĠSIG":5835,"62":5836,"Ġobjectives":5837,"Ġautomatic":5838,"Ġforensic":5839,"Ġpartial":5840,"rote":5841,"Ġrare":5842,"Ġsuc":5843,"URE":5844,"Ġprecision":5845,"uk":5846,"Ġoffline":5847,"Ġreasonable":5848,"Ġauthenticated":5849,"Ġwants":5850,"emon":5851,"Ġreplaced":5852,"only":5853,"Ġinsurance":5854,"resh":5855,"ENT":5856,"cp":5857,"Ġprinciples":5858,"ĠDigital":5859,"ĠSSH":5860,"option":5861,"Ġintrud":5862,"Ġlogging":5863,"unch":5864,"Ġrestricted":5865,"Ġconsult":5866,"phas":5867,"Ġauthority":5868,"duc":5869,"Ġciphertext":5870,"itic":5871,"Ġfailures":5872,"lab":5873,"ĠMobile":5874,"Ġclust":5875,"Ġantivirus":5876,"09":5877,"ĠFin":5878,"Ġwatch":5879,"iem":5880,"Ġregions":5881,"ĠCore":5882,"Ġfocuses":5883,"fs":5884,"Ġenfor":5885,"Ġadjust":5886,"Ġprinciple":5887,"ĠExper":5888,"Ġrecorded":5889,"Ġspecially":5890,"ĠAir":5891,"Ġpredictions":5892,"Ġraw":5893,"elligent":5894,"Ġvisit":5895,"Ġreward":5896,"omic":5897,"Ġsubstant":5898,"Ġdriving":5899,"Ġuntrusted":5900,"Ġadds":5901,"Ad":5902,"Ġasset":5903,"Ġapproxim":5904,"Ġhealthcare":5905,"link":5906,"Ġdecryption":5907,"ĠMess":5908,"Ġincoming":5909,"PS":5910,"ĠChrome":5911,"au":5912,"Ġsucceed":5913,"ĠStrateg":5914,"Ġdepict":5915,"ĠFree":5916,"Ġiteration":5917,"Ġaccepted":5918,"omial":5919,"Ġauthorized":5920,"ĠPaul":5921,"auss":5922,"Ġshellcode":5923,"ros":5924,"aded":5925,"vere":5926,"There":5927,"Ġms":5928,"edia":5929,"prot":5930,"Ġcryptoc":5931,"ĠSocial":5932,"Ġboundary":5933,"DB":5934,"ĠAdmin":5935,"Ġsummary":5936,"Ġopening":5937,"Ġplayer":5938,"amework":5939,"Ġtopics":5940,"Ġsimultaneously":5941,"ĠExplorer":5942,"ĠRob":5943,"Ġfolder":5944,"ifferent":5945,"Ġstake":5946,"Ġpapers":5947,"2008":5948,"ĠIPv":5949,"Ġprocessed":5950,"Ġcountermeasures":5951,"amb":5952,"Ġjud":5953,"ĠGN":5954,"Ġinvalid":5955,"Ġbecoming":5956,"ĠRemote":5957,"Ġindepend":5958,"Ġalter":5959,"Ġanonymous":5960,"linux":5961,"step":5962,"Ġvisible":5963,"det":5964,"sy":5965,"asc":5966,"Ġpriority":5967,"anning":5968,"Ġuniform":5969,"Ġheap":5970,"ĠStud":5971,"priv":5972,"Ġlayout":5973,"ĠSHA":5974,"Ġseed":5975,"Ġanalys":5976,"ictionary":5977,"ulletin":5978,"ĠNon":5979,"dr":5980,"ĠXSS":5981,"57":5982,"grade":5983,"Ġapplies":5984,"Ġlicense":5985,"Ġmarketing":5986,"Ġaccompl":5987,"Ġcrucial":5988,"Ġtried":5989,"core":5990,"Ġpositives":5991,"Ġtransl":5992,"ĠAES":5993,"cisco":5994,"ĠUAV":5995,"Ġoccurred":5996,"Ġidentical":5997,"Ġtheoretical":5998,"ĠPlease":5999,"forward":6000,"ĠBas":6001,"Ġpul":6002,"Ġsearc":6003,"Ġreputation":6004,"ensor":6005,"FA":6006,"Ġgl":6007,"Ġsessions":6008,"Ġdaily":6009,"ĠMat":6010,"ĠIns":6011,"Ġwrote":6012,"Ġfixes":6013,"Ġbeg":6014,"feren":6015,"63":6016,"Ġcookies":6017,"aling":6018,"Ġinitially":6019,"TER":6020,"pub":6021,"Ġ2003":6022,"uction":6023,"isc":6024,"CH":6025,"DK":6026,"Ġefficiently":6027,"Ġready":6028,"Ġprincipal":6029,"test":6030,"Ġensuring":6031,"Ġexpression":6032,"DR":6033,"Ġreader":6034,"bs":6035,"ĠAuthentication":6036,"Ġmaintenance":6037,"Ġadvance":6038,"Ġfilters":6039,"Ġoffset":6040,"PM":6041,"Ġmovement":6042,"ographic":6043,"ellow":6044,"ceptible":6045,"ography":6046,"Ġactivation":6047,"Ġcovert":6048,"Ġcandidate":6049,"Ġentropy":6050,"ĠBlock":6051,"ĠURLs":6052,"ĠStack":6053,"Ġextensive":6054,"ĠPolicy":6055,"channel":6056,"Ġguest":6057,"Ġguidance":6058,"Ġelectric":6059,"rical":6060,"etc":6061,"lin":6062,"Ġhor":6063,"elihood":6064,"61":6065,"Ġdisplayed":6066,"ĠPres":6067,"Ġguidelines":6068,"Ġspot":6069,"Ġpan":6070,"On":6071,"Ġimproving":6072,"KE":6073,"Ġregardless":6074,"Ġessentially":6075,"Ġindeed":6076,"Ġinstalling":6077,"ĠMetasploit":6078,"Ġcopies":6079,"Ġplaces":6080,"DA":6081,"fit":6082,"ios":6083,"ĠMar":6084,"Ġdangerous":6085,"Ġdependent":6086,"Ġdivided":6087,"UX":6088,"leeping":6089,"Ġdenote":6090,"Ġrequested":6091,"ĠiPhone":6092,"orph":6093,"ĠPLC":6094,"Ġregistered":6095,"hp":6096,"max":6097,"Ġdelete":6098,"ney":6099,"Ġtick":6100,"oms":6101,"Ġcorresponds":6102,"Ġbanking":6103,"Ġbottom":6104,"Ġcomment":6105,"Ġrelay":6106,"Ġcarefully":6107,"Sec":6108,"ĠLo":6109,"Ġopens":6110,"Ġdespite":6111,"Ġconcerned":6112,"59":6113,"Ġtransp":6114,"Ġprivileged":6115,"UM":6116,"Ġarriv":6117,"ĠOT":6118,"ĠPR":6119,"Ġjava":6120,"ĠType":6121,"ada":6122,"Ġcouple":6123,"ĠFollow":6124,"Ġsock":6125,"obe":6126,"Ġiterations":6127,"ĠSupport":6128,"kr":6129,"arb":6130,"Ġdrivers":6131,"Ġinsecure":6132,"Ġsaying":6133,"Ġgap":6134,"adata":6135,"\")":6136,"Ġactu":6137,"SSL":6138,"Comm":6139,"Ġexhib":6140,"len":6141,"Ġcompleted":6142,"Ġremember":6143,"Es":6144,"lement":6145,"inite":6146,"Ġrepresenting":6147,"Ġpersonnel":6148,"tion":6149,"ioned":6150,"ĠPGD":6151,"ĠDom":6152,"ensus":6153,"ĠChr":6154,"Ġtries":6155,"place":6156,"ĠDR":6157,"ĠGovern":6158,"Ġexchang":6159,"Ġaug":6160,"ĠChar":6161,"ĠReferences":6162,"Ġfamiliar":6163,"Ġinvolving":6164,"Ġkept":6165,"ester":6166,"ĠSG":6167,"Ġschool":6168,"Ġdiscr":6169,"Ġadvertis":6170,"Ġworm":6171,"iny":6172,"Ġvoltage":6173,"ĠFlash":6174,"Ġexplo":6175,"ĠTheir":6176,"Ġmaps":6177,"ĠCheck":6178,"Ġphones":6179,"ĠUs":6180,"Ġdump":6181,"ĠKe":6182,"ĠSam":6183,"Ġmanufacturing":6184,"Sh":6185,"vulnerability":6186,"Ġpredicted":6187,"Ġgadget":6188,"Ġmedium":6189,"ĠSN":6190,"Ġvideos":6191,"Ġrecommendations":6192,"WS":6193,"usive":6194,"ĠTyp":6195,"Ġexport":6196,"rd":6197,"ĠTHE":6198,"Ġunable":6199,"Ġtro":6200,"],":6201,"Ġshift":6202,"Ġreality":6203,"Ġtouch":6204,"Computer":6205,"Ġdomin":6206,"Ġchecked":6207,"nc":6208,"iemens":6209,"Ġprocessors":6210,"gence":6211,"Ġhandled":6212,"Ġscripting":6213,"Ġportion":6214,"Ġmig":6215,"ĠMethod":6216,"Ġposted":6217,"Ġextraction":6218,"Ġneur":6219,"ĠHis":6220,"Ġpeer":6221,"ulative":6222,"ĠFix":6223,"Ġperhaps":6224,"DN":6225,"dev":6226,"onn":6227,"Ġadvertising":6228,"ĠTrust":6229,"Ġhundreds":6230,"Ġadministrative":6231,"inistic":6232,"jected":6233,"olute":6234,"Ġdiscrete":6235,"Ġcorruption":6236,"Ġinherent":6237,"VD":6238,"Ġlett":6239,"Ġemphas":6240,"Ġlimits":6241,"ĠConn":6242,"ibilities":6243,"ĠCC":6244,"Ġadaptive":6245,"des":6246,"Ġconference":6247,"ĠWin":6248,"Ġaffects":6249,"OST":6250,"Ġtriggered":6251,"Section":6252,"Ġharder":6253,"Ġtel":6254,"Ġsyntax":6255,"ĠRussia":6256,"Ġdecrease":6257,"fc":6258,"state":6259,"Ġgas":6260,"ĠArch":6261,"driv":6262,"Ġhands":6263,"web":6264,"ĠEmail":6265,"Ġdark":6266,"Ġmisclass":6267,"ĠNSA":6268,"Ġlogged":6269,"Ġpropagation":6270,"Ġproceed":6271,"estamp":6272,"ĠActive":6273,"Ġrecall":6274,"Ġque":6275,"dro":6276,"Ġcommunities":6277,"ĠKaspersky":6278,"Ġvs":6279,"ults":6280,"ĠRober":6281,"Ġstri":6282,"Ġmillions":6283,"Ġolder":6284,"Ġclaimed":6285,"Ġachieves":6286,"Ġwat":6287,"aussian":6288,"ĠUDP":6289,"atically":6290,"Ġaccesses":6291,"holders":6292,"TD":6293,"Ġidentifier":6294,"ĠMa":6295,"Ġfeasible":6296,"107":6297,"Ġdecom":6298,"ISC":6299,"iented":6300,"ĠSw":6301,"ĠIntr":6302,"NET":6303,"ĠISP":6304,"Ġallocation":6305,"Ġhosting":6306,"ressed":6307,"Ġdifferential":6308,"Ġoverl":6309,"Ġgovernments":6310,"tty":6311,"/?":6312,"Ġtemporal":6313,"Hz":6314,"ups":6315,"Ġago":6316,"hand":6317,"Ġsolving":6318,"Ġcolle":6319,"Ġdisable":6320,"Ġisn":6321,"Ġclusters":6322,"ĠDav":6323,"Ġillustrate":6324,"Ġauthorities":6325,"Ġacad":6326,"Ġdynamically":6327,"Ġclosely":6328,"SQL":6329,"ĠPen":6330,"Ġentirely":6331,"trans":6332,"Ġidentifies":6333,"LP":6334,"Ġplease":6335,"Ġleaving":6336,"Ġconven":6337,"antec":6338,"Ġintermediate":6339,"Ġauto":6340,"ĠDespite":6341,"Ġexplan":6342,"Ġsatisfy":6343,"ogene":6344,"Ġanalytics":6345,"Ġspy":6346,"Ġcitiz":6347,"erv":6348,"abilistic":6349,"Ġproven":6350,"ashing":6351,"andbox":6352,"Ġongoing":6353,"tered":6354,"Ġscans":6355,"Ġfriend":6356,"Ġframes":6357,"icon":6358,"How":6359,"rant":6360,"ĠImpro":6361,"ĠBug":6362,"ĠRead":6363,"Ġspat":6364,"Ġftp":6365,"otal":6366,"Ġhope":6367,"DI":6368,"Ġ500":6369,"Ġran":6370,"Ġtags":6371,"Ġresponsibility":6372,"ĠOracle":6373,"Ġinvestigated":6374,"gers":6375,"chastic":6376,"Ġuncertainty":6377,"ĠAlex":6378,"ĠTABLE":6379,"Ġencoded":6380,"Ġaugment":6381,"Ġbots":6382,"Ġ2005":6383,"nomial":6384,"++":6385,"Ġhone":6386,"Ġinterv":6387,"Ġinfect":6388,"aching":6389,"Ġmassive":6390,"Ġanalysts":6391,"ĠFramework":6392,"post":6393,"Ġpatched":6394,"ĠEurope":6395,"nets":6396,"Ġcompr":6397,"Ġweap":6398,"Ġtruth":6399,"Ġunre":6400,"Ġstyle":6401,"ĠSum":6402,"Ġframeworks":6403,"Ġagency":6404,"lose":6405,"Ġtrees":6406,"Ġreven":6407,"Ġremoving":6408,"Ġtoward":6409,"Ġjam":6410,"Ġgave":6411,"Ġthinking":6412,"Ġdetermining":6413,"uby":6414,"Ġsubsc":6415,"ĠThird":6416,"ĠPlatform":6417,"ĠSybil":6418,"Ġsupplied":6419,"ibri":6420,"Ġresolution":6421,"Ġposts":6422,"Ġcrypto":6423,"Ġrepro":6424,"Ġevaluating":6425,"Ġthereby":6426,"ional":6427,"ĠCalif":6428,"Ġhashes":6429,"Ġconcrete":6430,"Ġstronger":6431,"Ġworldwide":6432,"Ġmoved":6433,"mo":6434,"ĠCommand":6435,"ĠEl":6436,"ĠCWE":6437,"phones":6438,"Ġfacilitate":6439,"Ġdictionary":6440,"Ġutilized":6441,"Ġconvolution":6442,"GA":6443,"eb":6444,"Ġclassify":6445,"ĠRT":6446,"Ġchip":6447,"ians":6448,"erring":6449,"500":6450,"ĠStart":6451,"Ġadoption":6452,"Ġcontinues":6453,"Ġprevention":6454,"uclear":6455,"Ġagreement":6456,"Ġarr":6457,"Ġbalance":6458,"Ġsil":6459,"Ġshares":6460,"ĠEr":6461,"Ġfavor":6462,"Ġdependencies":6463,"space":6464,"argeted":6465,"Ġlikelihood":6466,"Ġzone":6467,"etooth":6468,"Ġtemperature":6469,"Ġindicated":6470,"Ġbenchmark":6471,"ĠPay":6472,"Ġletter":6473,"BA":6474,"ashion":6475,"Ġcybercriminals":6476,"ĠName":6477,"Ġassembly":6478,"Ġexpressed":6479,"Ġhistor":6480,"Ġyourself":6481,"Ġbrand":6482,"ĠKore":6483,"Ġwild":6484,"Ġdecent":6485,"paramet":6486,"itation":6487,"Ġimperson":6488,"101":6489,"ĠUnlike":6490,"Ġreviews":6491,"Ġredund":6492,"dering":6493,"ĠCEO":6494,"Ġsupporting":6495,"HS":6496,"Ġsurpr":6497,"Ġexceed":6498,"ilibri":6499,"Ġformula":6500,"Ġdepth":6501,"Ġblocked":6502,"Ġstruct":6503,"].":6504,"Ġleaked":6505,"Ġdead":6506,"urn":6507,"Ġnone":6508,"Ġroutine":6509,"'t":6510,"Ġretrieve":6511,"version":6512,"Ġmanaging":6513,"Ġcomplicated":6514,"Ġbrid":6515,"Ġasym":6516,"urb":6517,"Ġinstitutions":6518,"Ġprototype":6519,"install":6520,"Ġcontrollers":6521,"ĠGet":6522,"Ġfraction":6523,"Ġpatient":6524,"berg":6525,"LR":6526,"ĠSCADA":6527,"ĠCommunications":6528,"Ġprem":6529,"Ġsold":6530,"Ġhosted":6531,"Ġconstructed":6532,"Ġconve":6533,"Ġswitches":6534,"Ġwhenever":6535,"Ġscreenshot":6536,"ulates":6537,"filtr":6538,"Ġspecifications":6539,"Ġmaintaining":6540,"Ġembedding":6541,"Ġbatch":6542,"Ġadvantages":6543,"Ġregression":6544,"Ġpublication":6545,"case":6546,"Ġremed":6547,"Ġsequential":6548,"Ġexcl":6549,"Ġcomments":6550,"Ġstages":6551,"Ġ192":6552,"ĠBayes":6553,"Ġpp":6554,"Ġblocking":6555,"Ġemer":6556,"ĠSO":6557,"Ġillegal":6558,"Ġ_":6559,"ds":6560,"Ġenclave":6561,"Ġchildren":6562,"ĠFederal":6563,"ĠGPU":6564,"itored":6565,"ftp":6566,"ĠRel":6567,"ĠEnglish":6568,"Ġblue":6569,"Ġdealing":6570,"Ġguide":6571,"Ġforeign":6572,"Ġcomparing":6573,"Ġproofs":6574,"image":6575,"Ġinsider":6576,"Ġpreventing":6577,"itivity":6578,"Ġabuse":6579,"ĠRE":6580,"Ġbatter":6581,"Ġhook":6582,"ecuring":6583,"Ġax":6584,"ened":6585,"ĠResponse":6586,"Ġvision":6587,"Ġarticles":6588,"Ġeight":6589,"Ġperce":6590,"ĠRandom":6591,"Ġinvok":6592,"Ġdeb":6593,"Ġmetadata":6594,"Ġconventional":6595,"year":6596,"Ġbinaries":6597,"Ġimpacts":6598,"iety":6599,"Ġcentralized":6600,"ĠAmerica":6601,"ĠBlu":6602,"Ġsmartphone":6603,"onal":6604,"Ġindicating":6605,"ornia":6606,"ĠVulnerabilities":6607,"mits":6608,"Ġplot":6609,"Ġindu":6610,"DS":6611,"aught":6612,"Ġdiverse":6613,"hol":6614,"ivil":6615,"including":6616,"Ġlosses":6617,"issance":6618,"ĠRisk":6619,"CB":6620,"Ġpolynomial":6621,"ĠSW":6622,"Ġsys":6623,"around":6624,"ĠPage":6625,"Ġloads":6626,"Ġfewer":6627,"cd":6628,"ĠBesides":6629,"Ġpurchase":6630,"Ġabsolute":6631,"Ġrepository":6632,"Ġfacilities":6633,"ĠIntegr":6634,"Ġknew":6635,"Ġconnecting":6636,"Ġactively":6637,"ĠDC":6638,"Ġexecutes":6639,"Ġdispl":6640,"}}":6641,"Ġmanipulation":6642,"Ġinjected":6643,"Ġproduces":6644,"Ġsupposed":6645,"Ġexercise":6646,"ionage":6647,"ĠSE":6648,"ĠFTP":6649,"ĠTechnical":6650,"Ġclustering":6651,"hered":6652,"layer":6653,"Ġrestart":6654,"uel":6655,"ager":6656,"Ġampl":6657,"Ġweeks":6658,"ĠAustral":6659,"leepingComputer":6660,"Ġinvari":6661,"Ġcopyright":6662,"patch":6663,"ĠFGSM":6664,"ĠPlay":6665,"ĠRES":6666,"Ġspeech":6667,"Ġdocumented":6668,"ĠBase":6669,"Ġsales":6670,"Ġheur":6671,"rought":6672,"Ġimprovements":6673,"ĠExample":6674,"ĠCalifornia":6675,"EX":6676,"Ġartificial":6677,"Ġcompiled":6678,"ocker":6679,"ĠREFREF":6680,"ensitive":6681,"lines":6682,"Ġcomposed":6683,"Ġsuff":6684,"Ġweaknesses":6685,"doc":6686,"Ġprefix":6687,"Ġdisabled":6688,"ĠPol":6689,"ĠVis":6690,"Ġsevere":6691,"Ġdeploying":6692,"Ġprobabilities":6693,"Ġanalog":6694,"processing":6695,"********":6696,"Ġillustrated":6697,"check":6698,"Ġtoler":6699,"Ġmaintained":6700,"Ġreplay":6701,"Ġimag":6702,"ĠLink":6703,"Ġ29":6704,"Ġreferences":6705,"ĠTop":6706,"Ġoriginally":6707,"ĠSolution":6708,"Ġamounts":6709,"uits":6710,"Ġestimates":6711,"Ġpixel":6712,"Ġcyc":6713,"ĠSur":6714,"ĠApache":6715,"Ġspend":6716,"Ġopin":6717,"ĠAff":6718,"pty":6719,"Ġopportunities":6720,"Ġtransf":6721,"Ġexit":6722,"run":6723,"Ġvarying":6724,"Ġstrongly":6725,"ĠGPS":6726,"ĠZh":6727,"Ġsubjects":6728,"naissance":6729,"Ġensemble":6730,"ĠGaussian":6731,"Ġfreed":6732,"ĠSymantec":6733,"expected":6734,"SE":6735,"UTION":6736,"Ġcertification":6737,"Ġtactics":6738,"Ġmodifications":6739,"Ġprevents":6740,"Ġelection":6741,"Ġasking":6742,"::":6743,"ĠRobert":6744,"enior":6745,"Ġoutcome":6746,"Ġspectrum":6747,"rep":6748,"Ġacknowled":6749,"uxnet":6750,"amper":6751,"roy":6752,"Ġesp":6753,"Ġpython":6754,"suse":6755,"Ġappeared":6756,"ĠDepend":6757,"oke":6758,"update":6759,"Ġtail":6760,"band":6761,"Ġintroduces":6762,"Ġinterests":6763,"Ġstability":6764,"normal":6765,"Ġdifficulty":6766,"ports":6767,"Ġintention":6768,"ocation":6769,"ĠZero":6770,"Ġenumer":6771,"called":6772,"Ġhacked":6773,"che":6774,"icks":6775,"lots":6776,"Ġcourt":6777,"iated":6778,"Ġstrategic":6779,"Cr":6780,"ĠPE":6781,"there":6782,"uman":6783,"Ġ99":6784,"Ġrise":6785,"Ġpriorit":6786,"ĠATT":6787,"Ġeditor":6788,"Ġfilm":6789,"elect":6790,"sl":6791,"Ġterror":6792,"Ġempirical":6793,"Ġpretty":6794,"ĠVol":6795,"txt":6796,"fb":6797,"Ġneighbor":6798,"ĠTV":6799,"ĠHealth":6800,"Ġhouse":6801,"ĠTR":6802,"gent":6803,"ĠMUD":6804,"Ġorganized":6805,"Ġdropped":6806,"ipping":6807,"Ġnewly":6808,"Ġmathematical":6809,"cb":6810,"uing":6811,"ĠThrough":6812,"Ġorganizational":6813,"ĠBrit":6814,"Ġproportion":6815,"ama":6816,"ounty":6817,"=\"":6818,"Ġtimestamp":6819,"MC":6820,"adv":6821,"Ġremov":6822,"Ġphases":6823,"Ġlargely":6824,"INT":6825,"Ġregulations":6826,"Ġsearching":6827,"Ġconclude":6828,"Ġannot":6829,"Ġregul":6830,"path":6831,"Ġwait":6832,"Ġinvestment":6833,"ĠClient":6834,"ĠNotice":6835,"ĠAuthor":6836,"Ġequilibri":6837,"Ġconsensus":6838,"Ġderive":6839,"ĠSupp":6840,"iguration":6841,"Ġexpertise":6842,"ĠCurrent":6843,"ĠXP":6844,"onsequ":6845,"Ġcomposition":6846,"Ġconsideration":6847,"Ġtheorem":6848,"Ġhop":6849,"Ġdesigning":6850,"Ġnative":6851,"Ġcontinuously":6852,"ifact":6853,"what":6854,"ĠSaf":6855,"Ġprobabilistic":6856,"Ġculture":6857,"Ġdiscrimin":6858,"ĠBluetooth":6859,"Ġpassive":6860,"Ġbias":6861,"Ġengineers":6862,"UP":6863,"apan":6864,"Ġpieces":6865,"rivial":6866,"Ġdisass":6867,"erce":6868,"Ġimplicit":6869,"mentioned":6870,"Ġdiffer":6871,"Ġcombine":6872,"Ġdim":6873,"rowser":6874,"Ġspent":6875,"ĠSouth":6876,"Ġcontinued":6877,"Ġcookie":6878,"ĠAdobe":6879,"Ġsectors":6880,"Ġmagnitude":6881,"Ġoffering":6882,"Ġrot":6883,"Ġ),":6884,"Ġbrought":6885,"Ġknowing":6886,"hetic":6887,"UNIA":6888,"ĠSECUNIA":6889,"Ġderiv":6890,"Ġcells":6891,"Ġ2021":6892,"Ġserial":6893,"Ġmid":6894,"Ġcontainer":6895,"ĠDesign":6896,"Ġstochastic":6897,"Ġsymmetric":6898,"Ġmand":6899,"Ġcollaboration":6900,"Ġengines":6901,"Ġlaptop":6902,"Ġtranslation":6903,"Ġupdating":6904,"Ġcogn":6905,"Ġclassical":6906,"ĠMultiple":6907,"Ġduration":6908,"ĠOnly":6909,"ĠIran":6910,"theless":6911,"while":6912,"Ġdidn":6913,"Ġrespective":6914,"Ġgateway":6915,"Ġpus":6916,"ĠSuccess":6917,"Ġcertainly":6918,"Ġchoosing":6919,"value":6920,"Ġbroken":6921,"Ġprepared":6922,"ĠEU":6923,"uln":6924,"atever":6925,"Ġneither":6926,"ĠGit":6927,"Ġhelpful":6928,"Ġacts":6929,"ike":6930,"HER":6931,"Ġphotos":6932,"ifiable":6933,"Ġmanufacturers":6934,"Ġpressure":6935,"Ġcoding":6936,"Ġminor":6937,"Ġstudent":6938,"Ġexpon":6939,"LA":6940,"Ġdenotes":6941,"Ġgained":6942,"Ġdirected":6943,"Ġmatches":6944,"Ġindependently":6945,"ĠInput":6946,"Ġ31":6947,"ĠFollowing":6948,"ownload":6949,"Ġequation":6950,"Ġallocated":6951,"Ġapparent":6952,"ĠAnaly":6953,"Ġhimself":6954,"Ġresolve":6955,"ĠDebian":6956,"grad":6957,"Ġpredic":6958,"ĠAdvanced":6959,"Ġfood":6960,"AX":6961,"imensional":6962,"Ġeaves":6963,"DD":6964,"standing":6965,"ĠStuxnet":6966,"Ġworse":6967,"zer":6968,"ĠMozilla":6969,"reet":6970,"Ġseven":6971,"ĠOrganizations":6972,"type":6973,"Ġdoll":6974,"Ġacquired":6975,"isition":6976,"Ġads":6977,"Ġmonitored":6978,"Un":6979,"from":6980,"cons":6981,"urally":6982,"ĠVulnerable":6983,"bar":6984,"fire":6985,"ĠHTTPS":6986,"ĠDisc":6987,"GB":6988,"oration":6989,"Ġassert":6990,"marks":6991,"Ġrough":6992,"ĠTra":6993,"Ġdup":6994,"prises":6995,"support":6996,"ĠCritical":6997,"Ġforces":6998,"Ġintruder":6999,"Ġcryptocurrency":7000,"ĠNE":7001,"Ġpure":7002,"icrosoft":7003,"ĠHost":7004,"efficient":7005,"Ġoutperform":7006,"tee":7007,"OLUTION":7008,"Ġdefining":7009,"Ġsecrets":7010,"Ġinteractive":7011,"effect":7012,"names":7013,"Ġregistration":7014,"Ġkeyboard":7015,"ission":7016,"Ġobfuscation":7017,"Ġhappened":7018,"agement":7019,"Ġreasoning":7020,"ĠCAN":7021,"Ġannounce":7022,"OW":7023,"Ġcontributions":7024,"Ġreset":7025,"âĢĶâĢĶ":7026,"Ġaccurately":7027,"Ġviews":7028,"Ġimper":7029,"ĠRet":7030,"Ġeye":7031,"poch":7032,"Ġ</":7033,"Ġworkflow":7034,"Ġadequ":7035,"anguage":7036,"Ġphen":7037,"Ġempty":7038,"ĠHard":7039,"Ġswitching":7040,"Ġanonymity":7041,"Ġintelligent":7042,"Ġcurve":7043,"Ġpixels":7044,"Ġgradients":7045,"Ġcircumst":7046,"Ġmonitors":7047,"ĠBur":7048,"ĠIndustrial":7049,"cil":7050,"weight":7051,"yes":7052,"Ġproved":7053,"Ġ(\"":7054,"deed":7055,"Ġtech":7056,"Ġnull":7057,"ster":7058,"Ġultimately":7059,"Shell":7060,"ĠCH":7061,"itution":7062,"rog":7063,"about":7064,"intelligence":7065,"Ġsensing":7066,"ipl":7067,"Ġguard":7068,"Ġflexible":7069,"Ġmanagers":7070,"Ġvast":7071,"Ġshape":7072,"group":7073,"Ġrefl":7074,"ĠPawn":7075,"poration":7076,"vari":7077,"ĠImageNet":7078,"Ġbounded":7079,"ĠFoundation":7080,"ĠEther":7081,"Ġemerging":7082,"Ġforensics":7083,"Ġnotes":7084,"ilies":7085,"dule":7086,"Ġexfiltr":7087,"Ġintroduction":7088,"rypted":7089,"AI":7090,"Ġhosp":7091,"ĠISO":7092,"ĠSiemens":7093,"Ġobserving":7094,"Ġdetects":7095,"Sc":7096,"Ġconflict":7097,"Ġselecting":7098,"Ġ70":7099,"Ġdependency":7100,"ĠConsider":7101,"Ġalleged":7102,"ĠSan":7103,"ĠBleepingComputer":7104,"ĠJapan":7105,"Ġengineer":7106,"Ġexha":7107,"Ġviewed":7108,"scape":7109,"Ġmaterials":7110,"Ġregularly":7111,"ĠExamples":7112,"ĠMich":7113,"Ġpropri":7114,"Ġprecisely":7115,"Ġserves":7116,"Ġdrives":7117,"Ġcorrel":7118,"ĠSk":7119,"Ġdesigns":7120,"Ġmotion":7121,"trained":7122,"ulus":7123,"Ġthroughput":7124,"Ġ2004":7125,"IDS":7126,"ĠBre":7127,"Ġviolation":7128,"ABIL":7129,"Ġshadow":7130,"Ġmodes":7131,"Ġrepresentative":7132,"Ġsandbox":7133,"Ġworkers":7134,"Ġtriggers":7135,"istry":7136,"ĠTim":7137,"Ġsanit":7138,"Ġsimulated":7139,"Ġmere":7140,"Ġinfrastructures":7141,"ĠIndeed":7142,"><":7143,"nergy":7144,"END":7145,"Ġcharge":7146,"XX":7147,"Ġoccurre":7148,"Ġdetectors":7149,"ralized":7150,"Ġinsights":7151,"Ġphysically":7152,"ĠSMS":7153,"Ġdeviation":7154,"Ġparad":7155,"Ġbanks":7156,"Ġidentities":7157,"arth":7158,"ARE":7159,"Ġmeeting":7160,"TE":7161,"Ġfuzzing":7162,"ĠStandard":7163,"Ġda":7164,"ĠAN":7165,"Ġhypothesis":7166,"Ġpreced":7167,"eless":7168,"Ġwindows":7169,"Ġ1000":7170,"war":7171,"lude":7172,"Ġconcent":7173,"Ġpayloads":7174,"ĠIts":7175,"base":7176,"etic":7177,"Ġlocally":7178,"Ġmus":7179,"ĠMand":7180,"ample":7181,"Ġarrest":7182,"utive":7183,"aper":7184,"Ġmodeled":7185,"Ġisolation":7186,"ste":7187,"Ġoracle":7188,"Gu":7189,"Ġsubmit":7190,"ĠNumber":7191,"RI":7192,"Ġdetermines":7193,"Ġce":7194,"ĠIMP":7195,"Ġunexpected":7196,"Ġ128":7197,"Ġcars":7198,"Ġsaved":7199,"Ġconditional":7200,"Cont":7201,"Ġattempting":7202,"Ġdirections":7203,"ĠDifferent":7204,"oday":7205,"ircraft":7206,"Ġdiversity":7207,"Ġbattery":7208,"Ġtrends":7209,"Ġmanif":7210,"ĠObject":7211,"Ġdeleg":7212,"init":7213,"download":7214,"Ġfi":7215,"Ġalarm":7216,"Ġcolumns":7217,"ael":7218,"Ġwish":7219,"Ġsoft":7220,"igm":7221,"CRIP":7222,"ĠGovernment":7223,"fare":7224,"ĠRAM":7225,"Ġincent":7226,"Ġretail":7227,"Ġanswers":7228,"eck":7229,"kernel":7230,"hedule":7231,"domain":7232,"Ġepoch":7233,"inf":7234,"akers":7235,"Ġbiggest":7236,"Ġbrowsing":7237,"Ġdeleted":7238,"Ġjournal":7239,"ino":7240,"izer":7241,"Ġdoub":7242,"Ġcorrectness":7243,"ĠBY":7244,"Ġpartially":7245,"Ġpositions":7246,"Ġillustrates":7247,"rok":7248,"irth":7249,"oriented":7250,"Ġresulted":7251,"MM":7252,"ĠGAN":7253,"ĠAssoci":7254,"Ġconsiders":7255,"fd":7256,"sg":7257,"Ġnotification":7258,"elling":7259,"Ġdemonstrates":7260,"Ġfinds":7261,"ĠSIM":7262,"Ġstakeholders":7263,"Ġmenu":7264,"bird":7265,"ATE":7266,"Ġconsisting":7267,"ĠProv":7268,"Ġmarked":7269,"Ġagree":7270,"Ġreaders":7271,"Ġstraightforward":7272,"ĠConsequ":7273,"ĠProf":7274,"Ġspatial":7275,"ĠList":7276,"ĠNS":7277,"Ġmodifying":7278,"Ġ2022":7279,"Le":7280,"Ġpassing":7281,"+----------------":7282,"Ġaccident":7283,"mat":7284,"Ġunus":7285,"ĠRFC":7286,"Ġgranted":7287,"ĠAdditional":7288,"Ġobtaining":7289,"ĠVI":7290,"comm":7291,"https":7292,"Ġphenomen":7293,"module":7294,"Ġdepartment":7295,"ĠIR":7296,"ularity":7297,"levant":7298,"Ġchat":7299,"block":7300,"Ġconstantly":7301,"arter":7302,"architect":7303,"Ġreferen":7304,"cgi":7305,"Ġfamilies":7306,"sm":7307,"bot":7308,"Ġrecognized":7309,"GAN":7310,"worth":7311,"ĠLocal":7312,"Ġexamined":7313,"Ġsigning":7314,"sych":7315,"Ġrapidly":7316,"Ġrecipient":7317,"Ġexponential":7318,"driven":7319,"ĠUSA":7320,"Ġdisclosed":7321,"Ġdefe":7322,"Ġuniversal":7323,"Ġfresh":7324,"Ġshif":7325,"Ġcollecting":7326,"Ġacquire":7327,"Ġdimensions":7328,"ĠAvailable":7329,"ĠResNet":7330,"Ġinspect":7331,"Ġpersistent":7332,"Ġforwarding":7333,"STM":7334,"ĠNever":7335,"Ġfocusing":7336,"Ġsociety":7337,"ĠOption":7338,"ĠIDs":7339,"Ġheaders":7340,"Ġovercome":7341,"aaS":7342,":\\":7343,"ĠEst":7344,"Ġtunnel":7345,"Ġgreatly":7346,"Ġacceptable":7347,"ipt":7348,"ĠDefinition":7349,"ĠSun":7350,"hark":7351,"Ġpublis":7352,"Ġnuclear":7353,"Ġvariation":7354,"ĠPIN":7355,"rook":7356,"ki":7357,"Ġdrug":7358,"Ġrebo":7359,"ĠAgain":7360,"Hub":7361,"ĠPM":7362,"ius":7363,"ocument":7364,"ĠVER":7365,"Ġproprietary":7366,"Ġcombinations":7367,"Ġthreads":7368,"Ar":7369,"ĠTrend":7370,"However":7371,"ĠDan":7372,"apping":7373,"Ġletters":7374,"ĠSee":7375,"Ġrealized":7376,"Ġdeception":7377,"ĠScript":7378,"ĠRef":7379,"ĠMean":7380,"connected":7381,"ABILITY":7382,"Ġnoticed":7383,"Ġimmediate":7384,"Ġreact":7385,"Ġsole":7386,"Ġdisplays":7387,"ĠPerform":7388,"Ġbriefly":7389,"Ġcitizens":7390,"Ġimproves":7391,"ĠMag":7392,"itten":7393,"Ġsuspect":7394,"ĠHome":7395,"Ġanomalies":7396,"unct":7397,"LAN":7398,"Ġnar":7399,"Ġexperienced":7400,"===":7401,"Ġtitle":7402,"onymous":7403,"Ġhijack":7404,"ĠCross":7405,"Ġsymbol":7406,"Ġscheduling":7407,"books":7408,"Ġ35":7409,"Ġvariations":7410,"Ġwomen":7411,"Ġdestr":7412,"network":7413,"Ġreads":7414,"ĠFunction":7415,"Ġindustries":7416,"Ġsecondary":7417,"Ġglob":7418,"ĠSpect":7419,"CRIPTION":7420,"plements":7421,"ĠNT":7422,"Ġargue":7423,"ecomm":7424,"Ġpow":7425,"Ġcameras":7426,"ĠLem":7427,"ĠMP":7428,"Ġahead":7429,"Ġheter":7430,"orter":7431,"Ġentered":7432,"ĠThings":7433,"rees":7434,"ireshark":7435,"bd":7436,"Ġseeing":7437,"Ġenvironmental":7438,"bal":7439,"Ġwilling":7440,"Ġstoring":7441,"common":7442,"Ġhandsh":7443,"ĠJournal":7444,"Ġsimulations":7445,"pervised":7446,"Ġexplains":7447,"Ġrealize":7448,"que":7449,"Ġassumes":7450,"Ġtells":7451,"Wh":7452,"aser":7453,"Ġloading":7454,"Ġdeterministic":7455,"Ġsensitivity":7456,"Ġcash":7457,"ĠAgency":7458,"licate":7459,"ĠSYN":7460,"ĠWithout":7461,"Ġtransferred":7462,"ĠVal":7463,"Ġleader":7464,"pread":7465,"iling":7466,"ĠInvest":7467,"ĠKnow":7468,"ĠCON":7469,"Ġeliminate":7470,"ĠStore":7471,"arse":7472,"Ġsubmitted":7473,"aker":7474,"Ġchoices":7475,"Ġaddressing":7476,"ĠMonitor":7477,"ĠPatch":7478,"Ġlimitation":7479,"uous":7480,"Ġblind":7481,"Ġfacility":7482,"Ġpossess":7483,"Ġfashion":7484,"Ġignore":7485,"Ġaircraft":7486,"Ġemergency":7487,"Ġcontrolling":7488,"File":7489,"rad":7490,"Ġ95":7491,"Key":7492,"Ġimplements":7493,"Ġevasion":7494,"Ġunn":7495,"Ġindicators":7496,"ĠDESCRIPTION":7497,"Ġvariance":7498,"comes":7499,"Ġnight":7500,"attle":7501,"iment":7502,"dimensional":7503,"Ġapproximate":7504,"Ġincrement":7505,"DE":7506,"irms":7507,"orage":7508,"ĠRun":7509,"ĠLine":7510,"ĠEnd":7511,"Ġapt":7512,"aware":7513,"Ġpresentation":7514,"Ġfairly":7515,"Ġmapped":7516,"Ġequilibrium":7517,"idespread":7518,"256":7519,"ĠConsequently":7520,"Ġdownloading":7521,"ĠAmong":7522,"Ġmaximize":7523,"Ġhighlighted":7524,"Ġheavily":7525,"Ġinterference":7526,"ĠWr":7527,"Ġstealing":7528,"plex":7529,"ouncil":7530,"Ġrace":7531,"ĠLow":7532,"ĠExchange":7533,"Ġmeta":7534,"uming":7535,"_{":7536,"Ġapart":7537,"ĠBi":7538,"Ġschedule":7539,"Ġseemed":7540,"ipp":7541,"Ġgathering":7542,"ĠRelease":7543,"ĠIDA":7544,"rew":7545,"Ġbegins":7546,"FC":7547,"Ġexecutive":7548,"Ġwaiting":7549,"BR":7550,"ĠPresident":7551,"Ġcompl":7552,"ĠSearch":7553,"Ġcontribution":7554,"ĠDetails":7555,"IE":7556,"Ġtalking":7557,"Ġconsequence":7558,"ĠContent":7559,"Ġartifact":7560,"ometimes":7561,"Ġecosystem":7562,"Ġcanc":7563,"Ġhandler":7564,"Ġassignment":7565,"Att":7566,"root":7567,"IPS":7568,"Ġintroducing":7569,"fill":7570,"ĠFP":7571,"Ġrein":7572,"Ġforced":7573,"Ġrevenue":7574,"orough":7575,"ĠBen":7576,"Ġenterprises":7577,"ĠKing":7578,"hole":7579,"ĠIM":7580,"enty":7581,"Ġafore":7582,"Ġcritic":7583,"Ġreveals":7584,"Ġauthenticate":7585,"ĠInstall":7586,"Ġattempted":7587,"Ġfragment":7588,"Ġdirectories":7589,"ĠLib":7590,"ĠVMware":7591,"Ġfunds":7592,"ĠWill":7593,"netic":7594,"AAAAAAAA":7595,"Ġtemplate":7596,"Ġimplications":7597,"ĠIOS":7598,"ĠAddress":7599,"Ġthank":7600,"ename":7601,"ĠARP":7602,"Ġevade":7603,"Ġethical":7604,"Ġoppos":7605,"Ġstructured":7606,"ĠEvent":7607,"Ġ-":7608,"Ġinstrument":7609,"anches":7610,"istence":7611,"ogeneous":7612,"Ġinspection":7613,"Ġmob":7614,"Ġrounds":7615,"Ġresid":7616,"ĠArt":7617,"Ġbul":7618,"lined":7619,"Ġsubsystem":7620,"ĠEve":7621,"Ġspecifies":7622,"Ġcybercrime":7623,"ynamic":7624,"Ġstress":7625,"Ġcloser":7626,"ĠCopy":7627,"ĠSOLUTION":7628,"Ġsusceptible":7629,"ĠReal":7630,"Ġmax":7631,"Ġleveraging":7632,"ĠBig":7633,"Ġreconnaissance":7634,"fa":7635,"ĠDenial":7636,"Ġneighbors":7637,"ĠGermany":7638,"ishes":7639,"Ġsurround":7640,"Ġabstraction":7641,"Ġbelieved":7642,"river":7643,"ought":7644,"Ġcircumstances":7645,"alert":7646,"alog":7647,"ĠMax":7648,"dec":7649,"Ġviruses":7650,"email":7651,"Ġdescribing":7652,"Ġcompatible":7653,"Ġprohib":7654,"ĠTraining":7655,"iations":7656,"Ġlives":7657,"Ġcombining":7658,"forcement":7659,"rastructure":7660,"Ġhandles":7661,"GG":7662,"utor":7663,"Ġconfig":7664,"Ġstuff":7665,"Ġwidespread":7666,"rices":7667,"ĠIntrusion":7668,"Ġcaptures":7669,"powerpc":7670,"Ġbooks":7671,"ĠDomain":7672,"redict":7673,"Ġaggregation":7674,"2007":7675,"ĠEnt":7676,"Ġsuspected":7677,"Ġsufficiently":7678,"Ġformally":7679,"Ġsubred":7680,"Res":7681,"Ġtemporary":7682,"Ġexhaust":7683,"Ġconj":7684,"Ġreplacement":7685,"Ġdiagn":7686,"empor":7687,"liers":7688,"ĠGlobal":7689,"Windows":7690,"Ġabsence":7691,"person":7692,"Ġspoofed":7693,"Ġkeyst":7694,"Ġtelephone":7695,"Ġtamper":7696,"DC":7697,"ĠNAT":7698,"Ġaffecting":7699,"ĠSVM":7700,"Ġsatell":7701,"Ġflexibility":7702,"Ġrepresentations":7703,"Ġsatisfies":7704,"JDK":7705,"Data":7706,"ĠNOT":7707,"ĠAppro":7708,"Ġaforementioned":7709,"Ġmixed":7710,"Ġsuite":7711,"ĠCompar":7712,"size":7713,"Ġunsu":7714,"rier":7715,"Ġsafegu":7716,"KS":7717,"stood":7718,"Ġcivil":7719,"ĠSDN":7720,"Ġdenoted":7721,"ĠAf":7722,"irable":7723,"Ġdigit":7724,"Ġspecialized":7725,"Ġenhanced":7726,"Ġwhatever":7727,"ĠSI":7728,"ĠESX":7729,"So":7730,"aked":7731,"athered":7732,"location":7733,"ĠCommission":7734,"vuln":7735,"Ġdebugger":7736,"Ġcycles":7737,"ĠGraph":7738,"corporate":7739,"Ġmeasuring":7740,"Ġadministration":7741,"WOR":7742,"gment":7743,"Ġachieving":7744,"rase":7745,"Ġassuming":7746,"Ġmeaningful":7747,"Ġalign":7748,"Ġpointed":7749,"Ġdeath":7750,"ĠBulletin":7751,"Ġcovers":7752,"formed":7753,"Ġexplored":7754,"Ġespionage":7755,"Ġinters":7756,"oom":7757,"Ġsearches":7758,"AE":7759,"Ġsatisfied":7760,"Ġinfinite":7761,"Ġvisibility":7762,"Ġsniff":7763,"Ġflight":7764,"Ġturns":7765,"Ġwarrant":7766,"Ab":7767,"Ġcomplement":7768,"ĠUnix":7769,"Ġelev":7770,"Ġmarkets":7771,"Ġleaks":7772,"ĠUnion":7773,"ĠME":7774,"Ġexploitable":7775,"ĠMemory":7776,"Ġbranches":7777,"ĠSIGN":7778,"ĠNeural":7779,"Ġlabor":7780,"One":7781,"ĠICMP":7782,"ga":7783,"ĠPoint":7784,"Ġfight":7785,"after":7786,"Ġfirms":7787,"Ġsigns":7788,"Ġdelays":7789,"Ġintegrate":7790,"Ġdownloads":7791,"Ġlinux":7792,"ĠFind":7793,"Ġcompetition":7794,"Ġcyberattacks":7795,"ĠNews":7796,"Ġvot":7797,"aks":7798,"Ġversus":7799,"Ġ).":7800,"Ġwire":7801,"ĠEthere":7802,"osh":7803,"Ġcatch":7804,"Ġoperates":7805,"ĠThose":7806,"adding":7807,"orms":7808,"Ġjobs":7809,"Ġoccup":7810,"Ġpand":7811,"ULL":7812,"Ġstealthy":7813,"Ġcircuits":7814,"ĠDavid":7815,"Ġsymbols":7816,"ĠARM":7817,"Ġcognitive":7818,"Ġacquisition":7819,"Ġsubt":7820,"Ġacademic":7821,"Ġexplanation":7822,"ĠApplications":7823,"Ġmor":7824,"BP":7825,"Ġtraject":7826,"Ġspaces":7827,"Ġjoin":7828,"Ġdialog":7829,"Ġcandidates":7830,"ĠCI":7831,")-":7832,"ĠBar":7833,"Ġsolved":7834,"output":7835,"ĠCOVID":7836,"TA":7837,"licity":7838,"abase":7839,"Ġpointers":7840,"wn":7841,"onomy":7842,"Ġcapital":7843,"Ġperceived":7844,"Ġmys":7845,"alls":7846,"DPR":7847,"Ġimpacted":7848,"ashes":7849,"shot":7850,"Ġaimed":7851,"col":7852,"Ġentering":7853,"Ġconducting":7854,"ĠSGX":7855,"office":7856,"Ġconsent":7857,"Ġflash":7858,"Ġmes":7859,"By":7860,"Ns":7861,"ws":7862,"Ġneurons":7863,"Ġcompression":7864,"ĠNorm":7865,"Ġrig":7866,"Ġsho":7867,"ags":7868,"factor":7869,"########":7870,"Ġnumerical":7871,"Ġfelt":7872,"virt":7873,"ham":7874,"Ġunlikely":7875,"Con":7876,"ĠLAN":7877,"Ġtransferability":7878,"Ġsecurely":7879,"Ġsimulate":7880,"Ġtestbed":7881,"Ġthorough":7882,"Ġscams":7883,"ĠAud":7884,"Ġbehavioral":7885,"syn":7886,"ĠGNU":7887,"road":7888,"Ġsocket":7889,"Ġgathered":7890,"Ġwave":7891,"ĠPS":7892,"Ġsex":7893,"Ġoptimize":7894,"Ġiterative":7895,"ĠLemma":7896,"ACT":7897,"Ġfrequent":7898,"Ġprime":7899,"ICAL":7900,"ĠEmp":7901,"ĠDirectory":7902,"Ġroughly":7903,"Ġdestroy":7904,"Ġreferenced":7905,"ĠDP":7906,"but":7907,"ĠBuild":7908,"Ġvoting":7909,"Ġpatients":7910,"ĠCour":7911,"Ġinterpretation":7912,"that":7913,"ĠMail":7914,"Ġplain":7915,"berspace":7916,"ĠBank":7917,"rent":7918,"ĠDISC":7919,"Ġplane":7920,"ĠEthereum":7921,"ĠGood":7922,"ĠLaw":7923,"ilot":7924,"oman":7925,"ĠOP":7926,"critical":7927,"Ġ========":7928,"mem":7929,"Ġdefenders":7930,"Ġleaves":7931,"uts":7932,"eper":7933,"Ġtrojan":7934,"ellect":7935,"Ġresilient":7936,"Ġutilizing":7937,"ĠLayer":7938,"Ġlegis":7939,"ĠKn":7940,"He":7941,"Ġorganis":7942,"ĠPeople":7943,"ocket":7944,"ĠStrategies":7945,"Ġanalyses":7946,"ĠScore":7947,"Ġinfo":7948,"how":7949,"enter":7950,"new":7951,"ĠOpt":7952,"Ġscientific":7953,"Ġpipeline":7954,"Ġsale":7955,"Ġcareer":7956,"LU":7957,"Ġpromising":7958,"Ġmim":7959,"ĠPrivate":7960,"Ġeavesdro":7961,"ĠHacker":7962,"gs":7963,"Ġcontribute":7964,"config":7965,"bc":7966,"ĠProof":7967,"Ġphp":7968,"Ġopposed":7969,"ĠJS":7970,"Ġconcurrent":7971,"âĶģâĶģâĶģâĶģ":7972,"Ġconsistency":7973,"ĠXOR":7974,"ocr":7975,"Ġ33":7976,"Ġexpressions":7977,"Ġlocate":7978,"ĠDevelopment":7979,"Ġantic":7980,"ĠDownload":7981,"Ġaid":7982,"Ġsecuring":7983,"LY":7984,"Ġtransformations":7985,"Ġlocked":7986,"olean":7987,"cve":7988,"door":7989,"Ġencount":7990,"ĠWhite":7991,"Ġscanner":7992,"Ġconsole":7993,"Ġboundaries":7994,"Ġrelying":7995,"chers":7996,"ensors":7997,"ĠOnline":7998,"ĠComputing":7999,"Ġsmartphones":8000,"Ġsust":8001,"Ġmaintains":8002,"Ġsemi":8003,"ĠUI":8004,"Ġisolated":8005,"iders":8006,"Ġreviewed":8007,"Ġfreedom":8008,"Ġlandscape":8009,"Ġsentence":8010,"Ġsynthetic":8011,"Ġdecreases":8012,"ĠGitHub":8013,"Ġease":8014,"Ġamb":8015,"Ġbelonging":8016,"blem":8017,"ĠCong":8018,"ĠHar":8019,"Ġmotivation":8020,"bl":8021,"airs":8022,"Ġsegments":8023,"Ġsnap":8024,"ĠImplement":8025,"Ġconvergence":8026,"Ġsubsequently":8027,"Ġidentifiers":8028,"Ġcraw":8029,"Ġphoto":8030,"Ġpin":8031,"ĠPassword":8032,"alent":8033,"anted":8034,"Ġsurv":8035,"Ġarchive":8036,"Ġmotivated":8037,"ĠLook":8038,"Ġescalation":8039,"Ġhoriz":8040,"ĠLa":8041,"ĠNevertheless":8042,"ulent":8043,"cap":8044,"written":8045,"dk":8046,"Ġfig":8047,"ĠOperating":8048,"Ġformats":8049,"Ġsecrecy":8050,"Ġdensity":8051,"ĠCF":8052,"Ġoptimized":8053,"Ġparsing":8054,"Ġconvolutional":8055,"ĠEnergy":8056,"'ll":8057,"ĠBritish":8058,"Ġunlock":8059,"Ġmoves":8060,"ĠDL":8061,"Ġhandshake":8062,"Ġip":8063,"Ġsubstitute":8064,"ĠCa":8065,"ĠEXP":8066,"pha":8067,"sarge":8068,"krain":8069,"Ġoutcomes":8070,"well":8071,"ĠCanada":8072,"Ġspecies":8073,"shop":8074,"ĠOpenJDK":8075,"Ġassurance":8076,"Ġusual":8077,"ĠCreate":8078,"Ġunw":8079,"Ġstreams":8080,"Ġstick":8081,"Ġinformed":8082,"techn":8083,"Security":8084,"Ġdepart":8085,"Ġbreakpoint":8086,"NER":8087,"function":8088,"Ġ45":8089,"secure":8090,"Ġhelped":8091,"IND":8092,"ĠOpenSSL":8093,"BSD":8094,"Ġaudience":8095,"dat":8096,"ĠIndia":8097,"Ġranges":8098,"Ġelectrical":8099,"Ġthrow":8100,"Ġing":8101,"Ġsolid":8102,"emy":8103,"Ġserved":8104,"Ġpsych":8105,"loys":8106,"Ġcareful":8107,"ora":8108,"ĠReddit":8109,"ĠPi":8110,"Ġseparately":8111,"Ġ802":8112,"Ġfaults":8113,"Ġrecording":8114,"ĠSR":8115,"Ġsenior":8116,"ecting":8117,"Ġstories":8118,"Ġexpose":8119,"ĠHist":8120,"Ġsynchronization":8121,"products":8122,"Ġbund":8123,"Ġapproximation":8124,"Ġcommunicating":8125,"Ġmouse":8126,"Ġusability":8127,"300":8128,"Ġpatching":8129,"dependent":8130,"Ġsomewhat":8131,"bf":8132,"ĠTel":8133,"ĠGerman":8134,"ĠFOR":8135,"ashington":8136,"Ġbrain":8137,"Ġkeeps":8138,"Ġ================================":8139,"iphers":8140,"client":8141,"Ġcrow":8142,"Ġwrites":8143,"Ġflags":8144,"ĠPerson":8145,"dc":8146,"Ġdual":8147,"->":8148,"Ġmoder":8149,"Ġtweets":8150,"Ġpopularity":8151,"Ġpaying":8152,"ĠArchitect":8153,"Ġtravers":8154,"Ġmessaging":8155,"ĠDNNs":8156,"Ġinner":8157,"aby":8158,"roll":8159,"losure":8160,"inds":8161,"Ġplaying":8162,"ĠDesktop":8163,"ĠSil":8164,"Ġvalidity":8165,"ĠAltern":8166,"Ġequipped":8167,"Ġhypervisor":8168,"ĠCap":8169,"Ġrespondents":8170,"Ġconclusion":8171,"AF":8172,"Ġraise":8173,"ales":8174,"Ġsyn":8175,"field":8176,"Ġintervals":8177,"ĠPowerShell":8178,"ĠThough":8179,"Ġinnovation":8180,"Ġdollars":8181,"gn":8182,"Ġseason":8183,"Ġnewer":8184,"Ġlegacy":8185,"ara":8186,"ĠWik":8187,"Ph":8188,"enger":8189,"Ġreser":8190,"Tube":8191,"Ġsegmentation":8192,"AIL":8193,"Ġdiagram":8194,"anks":8195,"Ġguaranteed":8196,"Ġanywhere":8197,"ĠAdvisories":8198,"ĠResults":8199,"Ġbiometric":8200,"ĠACM":8201,"Ġanten":8202,"Ġperman":8203,"label":8204,"Ġpayments":8205,"ĠUkrain":8206,"Ġviolations":8207,"Ġanticip":8208,"ta":8209,"cher":8210,"Ġheart":8211,"Ġincons":8212,"ĠChen":8213,"Ġofficials":8214,"ĠCity":8215,"alty":8216,"Ġbotnets":8217,"ĠHuman":8218,"Ġscalability":8219,"ĠAffected":8220,"ellectual":8221,"Ġconce":8222,"uitively":8223,"Ġkeywords":8224,"Ġadvice":8225,"ĠCase":8226,"401":8227,"ested":8228,"Ġrandomized":8229,"Ġcaught":8230,"Ġregulatory":8231,"Ġsubstantial":8232,"Ġplus":8233,"Ġpose":8234,"Ġvital":8235,"umes":8236,"Ġours":8237,"Ġprepar":8238,"then":8239,"Ġsecured":8240,"ĠReview":8241,"Ġgreen":8242,"ĠBayesian":8243,"ĠDH":8244,"Ġunc":8245,"Ġther":8246,"Man":8247,"Ġorders":8248,"Ġconversation":8249,"ĠWashington":8250,"ĠWireshark":8251,"Ġqueue":8252,"Ġtyping":8253,"Ġlisting":8254,"Log":8255,"enabled":8256,"encrypted":8257,"Ġinitialization":8258,"amd":8259,"ĠChrist":8260,"Ġends":8261,"ĠToday":8262,"Ġclar":8263,"Commerce":8264,"001":8265,"Ġmusic":8266,"Ġtack":8267,"Ġpull":8268,"Os":8269,"Ġeyes":8270,"CA":8271,"ests":8272,"ĠOptional":8273,"Ġcenters":8274,"ĠPrior":8275,"ĠAM":8276,"Ġformed":8277,"sys":8278,"Ġequations":8279,"ĠReference":8280,"Ġ!":8281,"Ġdisclose":8282,"Ġbreaking":8283,"Ġdefending":8284,"Ġheavy":8285,"ĠHaving":8286,"Ġsurprising":8287,"Ġunderstood":8288,"Ġlose":8289,"Ġreaches":8290,"inder":8291,"ĠMarkov":8292,"Ġchose":8293,"ĠDB":8294,"effic":8295,"Ġreplacing":8296,"Ġconvert":8297,"Ġincorporate":8298,"Ġcontexts":8299,"Ġdebugging":8300,"Ġuploaded":8301,"Ġdecentralized":8302,"empl":8303,"ĠCAP":8304,"ĠAng":8305,"xml":8306,"ĠYouTube":8307,"Ġpermit":8308,"ĠSubscribe":8309,"Ġadvise":8310,"Ġremoval":8311,"Ġsimulator":8312,"lists":8313,"Ġunint":8314,"rian":8315,"admin":8316,"Ġmerely":8317,"ĠEvalu":8318,"ĠLabor":8319,"Cs":8320,"Ġppc":8321,"Ġpartner":8322,"ĠDevice":8323,"Ġperiods":8324,"hemical":8325,"isa":8326,"Ġcoin":8327,"Ġtwice":8328,"ĠDepending":8329,"Ġassistance":8330,"ford":8331,"Ġundet":8332,"UND":8333,"Ġhistorical":8334,"')":8335,"Ġ800":8336,"Ġchains":8337,"VPN":8338,"ĠVe":8339,"Ġyoung":8340,"Ġreply":8341,"Ġowned":8342,"Ġhelping":8343,"pk":8344,"protected":8345,"Ġwebpage":8346,"rob":8347,"Ġrelax":8348,"ĠEN":8349,"ĠSoph":8350,"AGE":8351,"Ġcorrupted":8352,"ĠResear":8353,"Ġraised":8354,"Ġgaining":8355,"disc":8356,"Ġrestore":8357,"ĠRO":8358,"ils":8359,"Ġestablishing":8360,"ashed":8361,"Ġconnects":8362,"echo":8363,"Ġprogrammer":8364,"Ġtreatment":8365,"ĠEthernet":8366,"ĠSwit":8367,"ĠPaper":8368,"opens":8369,"ĠInfrastructure":8370,"ĠAccount":8371,"Ġ//":8372,"Ġcompromising":8373,"edu":8374,"Ġjamming":8375,"Ġ36":8376,"ĠEncryption":8377,"SD":8378,"Ġvirt":8379,"Ġpermitted":8380,"Ġsimplicity":8381,"ĠRad":8382,"Ġpromin":8383,"Ġforums":8384,"essus":8385,"Ġresistance":8386,"Ġperturbed":8387,"Ġparticipate":8388,"Ġunp":8389,"Ġtreated":8390,"sum":8391,"Ġcomputationally":8392,"rem":8393,"Ġforth":8394,"ĠNone":8395,"icial":8396,"privile":8397,"Ġdemands":8398,"rated":8399,"effective":8400,"Def":8401,"pecified":8402,"eting":8403,"ĠPCI":8404,"Ġoblig":8405,"Ġpasses":8406,"ĠWireless":8407,"Ġprox":8408,"ĠMir":8409,"ĠPub":8410,"Ġofficer":8411,"ĠDistribution":8412,"public":8413,"Ġcourses":8414,"Ġendpoints":8415,"ĠSolar":8416,"Ġprotections":8417,"BZ":8418,"preter":8419,"ĠTur":8420,"ias":8421,"Ġdisturb":8422,"lood":8423,"Ġtransitions":8424,"Ġcontacts":8425,"Ġring":8426,"You":8427,"Ġlowest":8428,"isy":8429,"Ġeconomy":8430,"Ġske":8431,"Ã©":8432,"Ġhiding":8433,"izable":8434,"ĠColl":8435,"Ġprofit":8436,"ao":8437,"ris":8438,"Ġhab":8439,"Ġ75":8440,"Ġisolate":8441,"Ġencounter":8442,"ĠStatus":8443,"Ġdirector":8444,"sim":8445,"ĠLock":8446,"coming":8447,"ĠCompany":8448,"MAC":8449,"ĠCustomers":8450,"lackware":8451,"Ġexcell":8452,"Ġpublish":8453,"Ġ98":8454,"ithmet":8455,"Ġabnormal":8456,"'.":8457,"Ġspear":8458,"js":8459,"Ġdrops":8460,"ĠSummary":8461,"ĠBI":8462,"arms":8463,"Ġ(@":8464,"Ġaggregate":8465,"Ġsimpler":8466,"ĠFirewall":8467,"Ġattachments":8468,"Ġincorrectly":8469,"ĠTele":8470,"ermark":8471,"Ġupgrades":8472,"ĠSecret":8473,"Ġwal":8474,"ĠSpectre":8475,"Ġemot":8476,"Ġquantitative":8477,"Ġhijacking":8478,"etime":8479,"Ġrational":8480,"Ġinvent":8481,"Ġlimiting":8482,"ĠMichael":8483,"rojans":8484,"Ġlearns":8485,"Ġlicens":8486,"vention":8487,"di":8488,"Ġutilities":8489,"ĠMedia":8490,"ĠTesting":8491,"ĠRecall":8492,"Ġ34":8493,"igen":8494,"RPMS":8495,"Ġranging":8496,"ULNER":8497,"Ġdefinite":8498,"These":8499,"Ġenj":8500,"ĠĠ":8501,"UST":8502,"Ġlistening":8503,"Ġworkload":8504,"Ġcopied":8505,"bra":8506,"nv":8507,"Ġparticipant":8508,"Ġpeers":8509,"coded":8510,"Ġunf":8511,"ament":8512,"ĠJo":8513,"Ġinserted":8514,"Ġaren":8515,"Ġscene":8516,"gres":8517,"Ġreuse":8518,"depth":8519,"Ġfraudulent":8520,"Ġdesigners":8521,"ansomware":8522,"ĠMessage":8523,"Ġmaybe":8524,"Ġhierarchy":8525,"Ġinitiate":8526,"ecommun":8527,"Ġcomputes":8528,"Ġinsu":8529,"she":8530,"Ġbounty":8531,"Ġvert":8532,"ĠExc":8533,"Ġconcl":8534,"ĠDem":8535,"mode":8536,"Ġangle":8537,"PT":8538,"ĠTool":8539,"viously":8540,"Int":8541,"Ġvote":8542,"ĠImport":8543,"ĠDon":8544,"ulletins":8545,"azine":8546,"imeter":8547,"ĠEquation":8548,"Ġproactive":8549,"Ġflood":8550,"Ġciphers":8551,"Ġplugin":8552,"Ġunnecess":8553,"ĠHel":8554,"105":8555,"ĠAttackers":8556,"Ġrootkit":8557,"Ġstructural":8558,"istingu":8559,"Ġinterpreted":8560,"ools":8561,"uine":8562,"Ġtrial":8563,"ĠAnonymous":8564,"ĠKorea":8565,"ĠDirector":8566,"ĠScan":8567,"ĠJB":8568,"aid":8569,"lets":8570,"ĠAz":8571,"Ġexisted":8572,"Ġconstrained":8573,"ĠKer":8574,"Ġtight":8575,"Ġrows":8576,"ĠMad":8577,"ea":8578,"Ġprovision":8579,"Ġrandomization":8580,"Ġpanel":8581,"Ġdistribute":8582,"Rep":8583,"Ġworkaround":8584,"ART":8585,"training":8586,"Ġ48":8587,"Ġ256":8588,"Ġgadgets":8589,"unting":8590,"ĠSometimes":8591,"ĠUP":8592,"Ġ2001":8593,"ĠStandards":8594,"ĠNode":8595,"orphic":8596,"-------":8597,"ĠHyper":8598,"var":8599,"underbird":8600,"ahoo":8601,"gen":8602,"ĠSV":8603,"Ġdegrees":8604,"Au":8605,"Ġgraphical":8606,"When":8607,"Ġnegot":8608,"About":8609,"stable":8610,"Ġhex":8611,"Ġnonlinear":8612,"Ġcertified":8613,"Guard":8614,"Ġarise":8615,"script":8616,"pet":8617,"ĠEM":8618,"Ġevic":8619,"ĠLanguage":8620,"ycle":8621,"GS":8622,"Ġtechnological":8623,"ĠSoci":8624,"ĠUNIX":8625,"ĠVULNER":8626,"Ġconstit":8627,"iger":8628,"/--------------------------------------------------------------------":8629,"Ġcollision":8630,"Ġmas":8631,"Ġunusual":8632,"400":8633,"Ġaccomplish":8634,"Ġrandomness":8635,"Ġconcerning":8636,"ften":8637,"Ġrepeat":8638,"Ġselling":8639,"bus":8640,"Ġfunctionalities":8641,"bg":8642,"ĠMitig":8643,"Ġexperiences":8644,"Ġsquare":8645,"ounder":8646,"Ġvisited":8647,"ithmetic":8648,"Ġvan":8649,"Ġfoundation":8650,"ĠGDPR":8651,"ĠVend":8652,"onic":8653,"ĠInterest":8654,"istance":8655,"Ġfem":8656,"Ġcompens":8657,"Be":8658,"agon":8659,"Ġsimilarly":8660,"Ġarm":8661,"ĠDark":8662,"ĠGen":8663,"ĠSuper":8664,"Ġadjac":8665,"ĠHacking":8666,"Ġrarely":8667,"local":8668,"ĠPhysical":8669,"Ġverifying":8670,"Ġextens":8671,"dfsg":8672,"ĠGrad":8673,"Ġvisualization":8674,"TLS":8675,"ĠâĪ":8676,"Ġdram":8677,"ĠDev":8678,"Ġneglig":8679,"Ġunspecified":8680,"104":8681,"encing":8682,"ott":8683,"ĠBel":8684,"Ġdisruption":8685,"house":8686,"Ġscientists":8687,"Ġlies":8688,"Ġannual":8689,"ĠParty":8690,"Time":8691,"Ġbasically":8692,"ĠAuto":8693,"Ġinsufficient":8694,"uning":8695,"Ġprobe":8696,"Ġputting":8697,"Ġscanners":8698,"Ġaccordingly":8699,"oad":8700,"ĠLight":8701,"Ġrecru":8702,"ĠDi":8703,"Ġplayed":8704,"Ġgran":8705,"eland":8706,"ĠCall":8707,"Final":8708,"ĠTrue":8709,"URL":8710,"NG":8711,"ĠPOST":8712,"Lab":8713,"Ġmisle":8714,"Ġreconstruction":8715,"rooks":8716,"ĠVII":8717,"Ġlatent":8718,"ĠGET":8719,"neg":8720,"Ġcomputations":8721,"analysis":8722,"Ġwhom":8723,"Ġwit":8724,"exec":8725,"Ġplanned":8726,"random":8727,"Ġdescriptions":8728,"ĠLim":8729,"Ġcores":8730,"Id":8731,"zero":8732,"ĠMor":8733,"uctive":8734,"lt":8735,"know":8736,"Ġap":8737,"ĠSAP":8738,"artic":8739,"Ġincur":8740,"Ġspeaking":8741,"ĠLSTM":8742,"Ġsuffer":8743,"oken":8744,"ĠCred":8745,"byte":8746,"Ġseparation":8747,"Ġcapturing":8748,"CL":8749,"Ġnaturally":8750,"Ġyields":8751,"Ġcomparable":8752,"Ġprepare":8753,"Ġconsiderable":8754,"Ġcalculation":8755,"IFY":8756,"serv":8757,"Ġobst":8758,"Ġple":8759,"Add":8760,"Ġsynthes":8761,"ĠTools":8762,"Ġconvenient":8763,"Ġsupervised":8764,"Ġcooperation":8765,"Ġreaching":8766,"Ġtransfers":8767,"Ġperception":8768,"Ġdiscard":8769,"ĠTraffic":8770,"Ġrich":8771,"Ġgaps":8772,"ĠACK":8773,"mes":8774,"icing":8775,"Ġpredictive":8776,"bert":8777,"iliary":8778,"Ġdisconn":8779,"pers":8780,"Ġdriven":8781,"Ġ2002":8782,"ĠSuccessful":8783,"sign":8784,"Point":8785,"Ġleveraged":8786,"ĠDS":8787,"ĠKernel":8788,"Name":8789,"Ġspyware":8790,"Ġmutual":8791,"Ġcyberspace":8792,"Flow":8793,"Ġpreferred":8794,"ĠAfric":8795,"writing":8796,"Ġparadigm":8797,"Ġrecovered":8798,"Ġthanks":8799,"ĠNmap":8800,"Ġ300":8801,"Ġinvestigations":8802,"Ġ1990":8803,"Ġpreserve":8804,"Ġpros":8805,"making":8806,"arious":8807,"Ġdissem":8808,"Ġhierarchical":8809,"Ġtransportation":8810,"Ġadapted":8811,"ĠView":8812,"left":8813,"pan":8814,"RT":8815,"Ġmatrices":8816,"Ġperm":8817,"king":8818,"Ġcongest":8819,"Ġproducing":8820,"uxiliary":8821,"ĠAustralia":8822,"Ġlaunching":8823,"Ġperiodically":8824,"Ġcompatibility":8825,"Ġbuilds":8826,"seen":8827,"ĠFil":8828,"DM":8829,"Ġsubscription":8830,"Ġsink":8831,"Ġmeter":8832,"Ġorganisation":8833,"ĠâĢ¦":8834,"rel":8835,"Ġdeeper":8836,"Ġoccurrence":8837,"Ġtruly":8838,"Ġvice":8839,"win":8840,"Ġdrone":8841,"Ġbelongs":8842,"click":8843,"ĠStackCommerce":8844,"Ġcharacteristic":8845,"ague":8846,"Ġfunding":8847,"ĠTimes":8848,"CN":8849,"Ġkit":8850,"uition":8851,"Ġdiscussions":8852,"itories":8853,"ana":8854,"Ġgraphics":8855,"Ġbirth":8856,"Ġexcess":8857,"Press":8858,"Ġtrap":8859,"Ġresidual":8860,"Ġbrings":8861,"Ġfaces":8862,"Ġfacts":8863,"Ġgenuine":8864,"ĠMake":8865,"Ġforecast":8866,"ĠLeg":8867,"ĠCost":8868,"grained":8869,"ostic":8870,"Ġranking":8871,"Ġagreed":8872,"AND":8873,"Ġrepeatedly":8874,"ĠSpecial":8875,"Ġengage":8876,"Ġrelays":8877,"Ġoverwrite":8878,"Ġcompile":8879,"Ġopinion":8880,"Ġsystematic":8881,"ĠRC":8882,"middle":8883,"ĠMTD":8884,"iences":8885,"Ġexpans":8886,"Ġcracking":8887,"usr":8888,"ulo":8889,"Ġbelief":8890,"Ġsolely":8891,"ĠTL":8892,"Ġinvestigating":8893,"iii":8894,"hard":8895,"ĠIss":8896,"They":8897,"FL":8898,"Ġcurves":8899,"Ġassessments":8900,"Ġkeyword":8901,"ĠRS":8902,"Ġstrictly":8903,"Ġpoisoned":8904,"ĠLater":8905,"ĠCommunication":8906,"ĠDefinitions":8907,"Ġheight":8908,"Ġsubreddit":8909,"Ġatomic":8910,"Ġnotifications":8911,"Ġtransparent":8912,"Ġnavigation":8913,"Ġcum":8914,"virus":8915,"Ġnarrow":8916,"(),":8917,"iled":8918,"ĠFIG":8919,"aaaa":8920,"Ġfrequencies":8921,"iltr":8922,"ĠCorporation":8923,"IB":8924,"ĠHu":8925,"Ġfulfill":8926,"Ġmobility":8927,"Ġencourage":8928,"ailed":8929,"Ġcollaborative":8930,"Ġcaches":8931,"Ġusernames":8932,"Ġfinished":8933,"Ġattachment":8934,"build":8935,"utable":8936,"ĠTerm":8937,"antic":8938,"Ġinjecting":8939,"Ġproposal":8940,"Ġliving":8941,"ĠNat":8942,"Ġhappening":8943,"ĠDynamic":8944,"ĠExecution":8945,"Ġfacing":8946,"ese":8947,"Ġfingerprinting":8948,"Ġdistances":8949,"ĠPerformance":8950,"ĠSophos":8951,"Ġcaller":8952,"onsored":8953,"Ġreject":8954,"dem":8955,"ĠRL":8956,"ĠFort":8957,"Ġoptical":8958,"ĠBlue":8959,"ĠCrypto":8960,"Ġdepicted":8961,"Ġ01":8962,"Ġrend":8963,"Ġsampled":8964,"ĠAdministr":8965,"engine":8966,"iques":8967,"Ġcities":8968,"ĠForce":8969,"Ġinfiltr":8970,"ĠINF":8971,"Ġinclusion":8972,"Ġchart":8973,"Ġconsistently":8974,"Ġintellectual":8975,"(\"":8976,"ait":8977,"ĠProcessing":8978,"IoT":8979,"asure":8980,"ĠVULNERABILITY":8981,"Ġgarb":8982,"elled":8983,"Ġnotation":8984,"ĠSpace":8985,"essor":8986,"Ġoperated":8987,"CD":8988,"ĠDay":8989,"learning":8990,".âĢĿ":8991,"ĠOverall":8992,"Ġaver":8993,"Ġlisten":8994,"Ġmaliciously":8995,"ĠNULL":8996,"Ġgang":8997,"Ġequivalence":8998,"ASE":8999,"ica":9000,"Ġaggress":9001,"cover":9002,"Ġgains":9003,"Ġ65":9004,"Ġ()":9005,"firefox":9006,"Ġtrustworth":9007,"Ġecho":9008,"emp":9009,"Ġpadding":9010,"ĠClick":9011,"ĠDiff":9012,"Ġmovie":9013,"Ġprimitives":9014,"Ġbenchmarks":9015,"Ġflooding":9016,"lean":9017,"Ġdrawn":9018,"ĠWell":9019,"Ġgeneralization":9020,"direct":9021,"Im":9022,"UB":9023,"Ġcountermeasure":9024,"Critical":9025,"Ġconstructs":9026,"ĠCopyright":9027,"Ġ42":9028,"Table":9029,"Ġlove":9030,"vm":9031,"ĠCommit":9032,"ITLE":9033,"allow":9034,"ISA":9035,"gl":9036,"ĠWithin":9037,"ĠAssess":9038,"tra":9039,"aten":9040,"Ġquad":9041,"nb":9042,"valid":9043,"Ġstopped":9044,"acon":9045,"Ġouts":9046,"Ġindicator":9047,"Is":9048,"Ġconform":9049,"Ġregulation":9050,"Ġcharacterize":9051,"ĠWorkstation":9052,"Ġplays":9053,"ĠATM":9054,"Ġcircumvent":9055,"wart":9056,"Ġspending":9057,"ja":9058,"ubscribe":9059,"Ġpandemic":9060,"Ġlets":9061,"EA":9062,"Ps":9063,"Ġstations":9064,"Service":9065,"ĠAVAIL":9066,"ĠGuard":9067,"ĠOffic":9068,"Ġpuzz":9069,"Ġtransformed":9070,"typ":9071,"Ġconclusions":9072,"Ġcast":9073,"Ġfacial":9074,"Ġartifacts":9075,"Ġbridge":9076,"char":9077,"Ġdeliber":9078,"Ġcorrelated":9079,"ĠAgent":9080,"Pass":9081,"Ġdelet":9082,"Ġmeters":9083,"Ġdecrypted":9084,"Ġmedian":9085,"subscribe":9086,"Ġfold":9087,"Ġcoordination":9088,"Ġordered":9089,"ĠAnti":9090,".--------------------------------------------------------------------":9091,"date":9092,"Ġconjunction":9093,"Ġutilizes":9094,"Ġcompetitive":9095,"ĠTH":9096,"Ġoccurring":9097,"Ġ37":9098,"ĠSMB":9099,"Ġrecur":9100,"Ġneut":9101,"Ġpromote":9102,"vironment":9103,"storms":9104,"From":9105,"modules":9106,"Ġdigits":9107,"Ġpresident":9108,"Ġnice":9109,"ĠJe":9110,"interference":9111,"Ġfear":9112,"uracy":9113,"ĠBot":9114,"ronics":9115,"pres":9116,"Ġnom":9117,"Ġbigger":9118,"ĠTypically":9119,"ĠNessus":9120,"ems":9121,"ĠDatabase":9122,"Ġseparated":9123,"Tech":9124,"ka":9125,"Microsoft":9126,"Ġequally":9127,"Uns":9128,"Box":9129,"ĠCongress":9130,"otic":9131,"Ġdiscusses":9132,"riend":9133,"Qu":9134,"ini":9135,"2006":9136,"mozilla":9137,"'re":9138,"Ġexcellent":9139,"Ġadequate":9140,"Ġcommitment":9141,"ĠAVAILABLE":9142,"Ġarithmetic":9143,"cal":9144,"ĠHom":9145,"Ġbuck":9146,"Ġdifferently":9147,"wd":9148,"Ġavoiding":9149,"ĠBurp":9150,"Ġoptional":9151,"controlled":9152,"Ġboost":9153,"))":9154,"ĠTom":9155,"Web":9156,"System":9157,"ĠmacOS":9158,"Ġunav":9159,"Ġquantify":9160,"istinguish":9161,"rench":9162,"search":9163,"ĠEar":9164,"target":9165,"Ġscalable":9166,"ĠLLC":9167,"Ġwatermark":9168,"ĠLic":9169,"Ġprimitive":9170,"ĠResearchers":9171,"ĠVERIFY":9172,"Ġautomate":9173,"ĠTrump":9174,"ĠRight":9175,"ĠProblem":9176,"ĠCouncil":9177,"Ġca":9178,"Ġanomalous":9179,"ĠZe":9180,"Ġmir":9181,"ĠLive":9182,"Ġformulation":9183,"Ġvirtualization":9184,"Ġtaint":9185,"havi":9186,"Ġenforced":9187,"sensitive":9188,"Ġcombines":9189,"Ġchooses":9190,"this":9191,"gresql":9192,"ĠSat":9193,"Ġencrypting":9194,"ĠÂ":9195,"ĠFast":9196,"Ġstock":9197,"Ġtrivial":9198,"Ġhub":9199,"Ġdecade":9200,"</":9201,"Ġdraft":9202,"Ġincomplete":9203,"ĠVirus":9204,"255":9205,"Ġhur":9206,"Ġbuff":9207,"liminary":9208,"Ġoffensive":9209,"also":9210,"tically":9211,"nes":9212,"Ġgeneralized":9213,"ĠMot":9214,"Eye":9215,"Ġheuristic":9216,"ĠMalicious":9217,"Ġheard":9218,"Ġexhibit":9219,"Ġmerch":9220,"Ġheat":9221,"ĠDu":9222,"Ġworry":9223,"hether":9224,"IV":9225,"ih":9226,"mitre":9227,"Ġ================":9228,"riva":9229,"Ġposture":9230,"Ġcentr":9231,"Ġrestriction":9232,"ĠInitial":9233,"advant":9234,"Ġdiscipl":9235,"stormsecurity":9236,"index":9237,"CPS":9238,"Ġmacro":9239,"ref":9240,"istant":9241,"gebra":9242,"uate":9243,"ĠRather":9244,"Ġgoods":9245,"Ġbroader":9246,"Ġnotable":9247,"Ġwarfare":9248,"Str":9249,"vi":9250,"Ġfourth":9251,"ĠBra":9252,"Ġfaced":9253,"Ġroutes":9254,"Ġmistakes":9255,"Ġgrab":9256,"pir":9257,"Ġpartnership":9258,"unc":9259,"Ġgates":9260,"packetstormsecurity":9261,"Ġcounts":9262,"Ġhoneypot":9263,"Ġproposes":9264,"ithub":9265,"Ġ41":9266,"Ġinspired":9267,"ICS":9268,"comput":9269,"Ġcharacterized":9270,"Ġparents":9271,"ĠAnn":9272,"requency":9273,"Ġobviously":9274,"CVSS":9275,"Ġemploys":9276,"ĠArchitecture":9277,"ĠHand":9278,"Ġactuators":9279,"ĠDate":9280,"Ġticket":9281,"ĠRich":9282,"Ġfather":9283,"ĠGB":9284,"alone":9285,"Ġpurchased":9286,"Ġconfusion":9287,"ĠInvestig":9288,"Ġvalidated":9289,"Attack":9290,"Ġcasc":9291,"Ġsummarized":9292,"Ġdamages":9293,"entest":9294,"Ġauxiliary":9295,"IME":9296,"Ġenjoy":9297,"Ġepis":9298,"merce":9299,"ailability":9300,"ĠTO":9301,"Ġweapons":9302,"Ġcool":9303,"ICE":9304,"Ġuniversity":9305,"ĠNotes":9306,"Ġencountered":9307,"KI":9308,"henticated":9309,"ĠTechnologies":9310,"Ġphenomenon":9311,"Ġresponsibilities":9312,"vol":9313,"Ġexpanded":9314,"ĠBoot":9315,"pur":9316,"Ġpert":9317,"Ġnine":9318,"Ġoutlined":9319,"INAL":9320,"ĠVMs":9321,"ĠRest":9322,"ebooks":9323,"Ġremark":9324,"Ġgenerative":9325,"Ġ56":9326,"Ġauditing":9327,"Ġclassic":9328,"Ġbehalf":9329,"EGIN":9330,"iary":9331,"Ġactivated":9332,"Ġignored":9333,"Ġdoct":9334,"parameters":9335,"Ġanim":9336,"Ġscheduled":9337,"rich":9338,"Ġbitcoin":9339,"Ġacting":9340,"Ġdoz":9341,"isp":9342,"ĠVari":9343,"Ġexceptions":9344,"ĠInjection":9345,"ĠEdge":9346,"ĠCourt":9347,"CK":9348,"Ġmanipulated":9349,"Ġapproved":9350,"Ġpurs":9351,"ĠKingdom":9352,"Ġimportantly":9353,"rict":9354,"ROM":9355,"Ġpercept":9356,"Ġunnecessary":9357,"Go":9358,"rs":9359,"Ġaccord":9360,"Type":9361,"ĠHouse":9362,"iest":9363,"Ġleadership":9364,"ĠFalse":9365,"Ġrh":9366,"Ġdisapp":9367,"Ġelectricity":9368,"libc":9369,"ustration":9370,"Ġsatellite":9371,"Ġpain":9372,"Ġintuition":9373,"Ġdaemon":9374,"Ġdut":9375,"Ġchief":9376,"Ġadvised":9377,"Ġprotects":9378,"ĠPract":9379,"Ġvertex":9380,"ĠFranc":9381,"onents":9382,"ĠYes":9383,"ĠiPad":9384,"non":9385,"Ġstartup":9386,"essage":9387,"ondon":9388,"ANET":9389,"Ġorganisations":9390,"room":9391,"tices":9392,"Ġdise":9393,"ĠTransport":9394,"posed":9395,"itud":9396,"Ġprinted":9397,"ĠSMTP":9398,"Ġcommitted":9399,"Ġcostly":9400,"USE":9401,"Ġaward":9402,"arest":9403,"ommod":9404,"Ġmitigations":9405,"Ġexecutives":9406,"129":9407,"Ġfilename":9408,"BEGIN":9409,"apes":9410,"Ġmethodologies":9411,"Ġtaxonomy":9412,"Ġminers":9413,"RA":9414,"ynchronous":9415,"cident":9416,"Ġminimizing":9417,"crib":9418,"ban":9419,"Ġeverybody":9420,"asive":9421,"Ġasks":9422,"ĠAB":9423,"ĠSOC":9424,"ĠRegard":9425,"quer":9426,"Based":9427,"kits":9428,"dig":9429,"arency":9430,"ĠNEVER":9431,"Ġannouncement":9432,"Ġstead":9433,"Ġconsec":9434,"Ġprogrammers":9435,"ball":9436,"Ġvaries":9437,"Ġconserv":9438,"Ġpictures":9439,"Ġtracked":9440,"Ġwitness":9441,"ĠCPUs":9442,"Ġsurrounding":9443,"Ġleverages":9444,"ĠCN":9445,"Ġbackward":9446,"Ġnoarch":9447,"Ġneighborhood":9448,"ĠFrance":9449,"urity":9450,"Ġcyberattack":9451,"ĠPy":9452,"Ġevolving":9453,"Ġfilesystem":9454,"Ġrewards":9455,"limited":9456,"Ġfingerprints":9457,"ĠStorage":9458,"frame":9459,"cious":9460,"erving":9461,"Ġspecifying":9462,"RS":9463,"Ġtimely":9464,"Ġnoisy":9465,"inet":9466,"Ġpredefined":9467,"ĠUpon":9468,"Ġboxes":9469,"Ġpump":9470,"Ġedit":9471,"acles":9472,"Ġicon":9473,"WARE":9474,"Ġexpansion":9475,"ĠMB":9476,"Ġauthenticity":9477,"Ġextends":9478,"unsubscribe":9479,"riber":9480,"Ġcounterpart":9481,"ĠYet":9482,"QU":9483,"ĠGate":9484,"urch":9485,"110":9486,"Ġgone":9487,"Ġaccommod":9488,"Ġengagement":9489,"ĠEffect":9490,"Ġkeylog":9491,"Ġbackdoors":9492,"Ġinitiated":9493,"MB":9494,"Ġfed":9495,"Ġnoting":9496,"Unsubscribe":9497,"Ġchances":9498,"Ġpreceding":9499,"Criticality":9500,"HN":9501,"Ġhighlights":9502,"ĠCompared":9503,"Ġcrimes":9504,"Ġrated":9505,"ITE":9506,"ĠOW":9507,"ifer":9508,"128":9509,"Ġweighted":9510,"privileged":9511,"ĠVector":9512,"Ġdecades":9513,"Ġattest":9514,"Ġholding":9515,"Ġoccasion":9516,"Ġdistortion":9517,"zip":9518,"ĠRout":9519,"Ġmodular":9520,"Ġarrang":9521,"Ġexploration":9522,"Ġprominent":9523,"Ġhole":9524,"estern":9525,"Ob":9526,"python":9527,"Ġhear":9528,"Ġmultiplication":9529,"ĠBell":9530,"Ġstands":9531,"idering":9532,"Ġextracting":9533,"Ġguys":9534,"Ġcarrying":9535,"Ġont":9536,"Ġfab":9537,"Ġconsiderations":9538,"uses":9539,"ĠLabs":9540,"Ġobfuscated":9541,"nvd":9542,"rip":9543,"Ġexamining":9544,"Ġcompares":9545,"Ġfee":9546,"Ġviewing":9547,"outs":9548,"ĠShell":9549,"ĠRecently":9550,"plain":9551,"Ġdefeat":9552,"Ġdiffers":9553,"model":9554,"Ġtracks":9555,"Ġsafely":9556,"Ġ38":9557,"Ġtracing":9558,"Ġsummarize":9559,"libs":9560,"Ġunsafe":9561,"ĠUAVs":9562,"Ġconverted":9563,"ĠYahoo":9564,"Ġseeking":9565,"Ġjail":9566,"ĠPhishing":9567,"information":9568,"Ġaw":9569,"Ġbeneficial":9570,"cisa":9571,"CO":9572,"Ġturning":9573,"dden":9574,"Ġoutperforms":9575,"ado":9576,"jdk":9577,"tools":9578,"Ġincorporated":9579,"Ġfigures":9580,"Ġownership":9581,"ista":9582,"Ġelabor":9583,"exploit":9584,"Ġcombat":9585,"ĠIdentity":9586,"Ġloader":9587,"?\"":9588,"Ġminute":9589,"iance":9590,"aur":9591,"ĠPath":9592,"lor":9593,"Ġprol":9594,"Ġcoordinated":9595,"Ġcontinuity":9596,"ĠNCC":9597,"192":9598,"Ġlaser":9599,"ĠCFI":9600,"ipedia":9601,"ĠIE":9602,"Ġtermination":9603,"Ġsynthesis":9604,",âĢĿ":9605,"ĠCM":9606,"Ġemerged":9607,"Ġperfectly":9608,"Ġproxies":9609,"Ġdefinitely":9610,"ĠAlternatively":9611,"ĠIsra":9612,"ĠAssociation":9613,"Ġaffor":9614,"Ġcollects":9615,"ĠFiles":9616,"Ġheterogeneous":9617,"ula":9618,"Lib":9619,"rovers":9620,"Ġfeasibility":9621,"stage":9622,"ĠCRIT":9623,"Ġsudden":9624,"Ġcategorized":9625,"Ġaccum":9626,"bps":9627,"isons":9628,"ĠKeep":9629,"Ġrobots":9630,"Ġminer":9631,"Ġpreferences":9632,"Ġglobally":9633,"pus":9634,"ĠDel":9635,"ĠOrig":9636,"ĠQual":9637,"ĠTransfer":9638,"Ġprevented":9639,"oon":9640,"Ġcovering":9641,"ĠAzure":9642,"boss":9643,"Ġrequesting":9644,"Ġinfections":9645,"TITLE":9646,"Ġ43":9647,"ĠNN":9648,"ĠHE":9649,"Ġresolved":9650,"Ġtelevision":9651,"Ġforget":9652,"Ġcorpor":9653,"reate":9654,"Ġreflected":9655,"rt":9656,"ĠLondon":9657,"ncies":9658,"syngress":9659,"Ġovers":9660,"ĠAMD":9661,"onds":9662,"asy":9663,"Ġnormalized":9664,"ĠTCB":9665,"Pack":9666,"Ġdecoy":9667,"theore":9668,"Ġodd":9669,"Ġprobing":9670,"lands":9671,"iverse":9672,"ĠWilli":9673,"uple":9674,"ĠSnort":9675,"Ġgenerators":9676,"ĠSociety":9677,"ects":9678,"lott":9679,"relevant":9680,"ĠReli":9681,"Ġutilization":9682,"ĠSing":9683,"FGSM":9684,"inated":9685,"Ġpun":9686,"Ġquarter":9687,"Ġcentury":9688,"Ġformulas":9689,"SRPMS":9690,"Ġpredicate":9691,"Ġdisadvant":9692,"ĠOl":9693,"ĠBat":9694,"ĠIndustry":9695,"ĠCRITICAL":9696,"ĠRoot":9697,"Ġretrieved":9698,"Ġhaz":9699,"ĠCertific":9700,"Ġconversations":9701,"Ġadvoc":9702,"Ġexchanged":9703,"through":9704,"Ġsimplified":9705,"Ġ44":9706,"pg":9707,"ITH":9708,"Ġdeclared":9709,"ĠMySQL":9710,"Test":9711,"ĠRAT":9712,"Ġcrashes":9713,"urrencies":9714,"Linux":9715,"ĠSpr":9716,"Ġappearance":9717,"phishing":9718,"ĠCSS":9719,"Ġtemplates":9720,"iances":9721,"Ġsuit":9722,"pdf":9723,"Ġimagine":9724,"Ġpreliminary":9725,"licks":9726,"Ġoverw":9727,"ĠFlow":9728,"Ġcurrency":9729,"ĠEth":9730,"Ġindistinguish":9731,"Ġpushed":9732,"Ġdesk":9733,"ĠUnit":9734,"ĠClear":9735,"Ġpersistence":9736,"Ġrecognizing":9737,"ĠMart":9738,"Ġdrawback":9739,"ĠCond":9740,"TM":9741,"ĠFrench":9742,"ĠHardware":9743,"offs":9744,"View":9745,"Ġreplic":9746,"ried":9747,"Ġdesirable":9748,"Ġevolved":9749,"Ġdeny":9750,"Server":9751,"ĠDNA":9752,"Ġ1999":9753,"ĠLaboratory":9754,"IO":9755,"Ġreactive":9756,"Mod":9757,"acies":9758,"Ġbattle":9759,"Ġlots":9760,"Ġpublishing":9761,"jpp":9762,"ĠMeanwhile":9763,"Ġconvex":9764,"Ġperimeter":9765,"ĠPan":9766,"ĠEV":9767,"gery":9768,"[.":9769,"ĠRansomware":9770,"Ġinstitution":9771,"Ġwider":9772,"Ġ150":9773,"IZ":9774,"Ġ53":9775,"Ġabort":9776,"ĠORIG":9777,"ĠLu":9778,"-----":9779,"Ġprices":9780,"Ġloops":9781,"Ġspreading":9782,"ĠDM":9783,"ĠRecogn":9784,"ĠCOM":9785,"Ġweapon":9786,"Hash":9787,"ĠBasic":9788,"Ġeducational":9789,"Ġaccounting":9790,"city":9791,"Version":9792,"Ġmandatory":9793,"spar":9794,"Ġaccordance":9795,"Ġattractive":9796,"ĠBGP":9797,"ĠBer":9798,"Ġmistake":9799,"Ġvolumes":9800,"Ġoverlap":9801,"Ġordinary":9802,"Ġepochs":9803,"Ġcustomized":9804,"Ġdesigner":9805,"ĠBACK":9806,"Ġ400":9807,"Ġencode":9808,"No":9809,"Ġperiodic":9810,"Ġnegligible":9811,"Ġsmoot":9812,"ĠWang":9813,"ĠCentral":9814,"ĠZhang":9815,"Ġbomb":9816,"Ġwall":9817,"Ġredundant":9818,"ĠResource":9819,"ĠDistributed":9820,"258":9821,"Ġsomewhere":9822,"posium":9823,"ĠOperation":9824,"Ġcrooks":9825,"ario":9826,"articles":9827,"ĠFL":9828,"Ġwhit":9829,"Ġtyped":9830,"ĠMI":9831,"can":9832,"bounded":9833,"Ġclaiming":9834,"ammer":9835,"ĠFAT":9836,"Ġment":9837,"ĠVisual":9838,"ek":9839,"Ġscoring":9840,"ĠNort":9841,"ĠMain":9842,"uble":9843,"ĠFuture":9844,"nn":9845,"Ġinteracting":9846,"han":9847,"Ġteac":9848,"Ġworker":9849,"Ġprey":9850,"clear":9851,"Ġvisitors":9852,"Ġassessing":9853,"ĠWordPress":9854,"Ġhospital":9855,"Ġsmooth":9856,"Ġmailing":9857,"apache":9858,"Ġvertical":9859,"sn":9860,"ĠImproving":9861,"OV":9862,"Ġ55":9863,"Ġintrusions":9864,"ĠAk":9865,"ecycle":9866,"roke":9867,"Ġrigor":9868,"ĠPacket":9869,"ĠVGG":9870,"Ġgray":9871,"ĠDocument":9872,"Ġchips":9873,"ĠHackers":9874,"ĠJP":9875,"rones":9876,"Ġdeter":9877,"aping":9878,"STEM":9879,"Ġdates":9880,"ĠBelow":9881,"Ġunderground":9882,"inity":9883,"iable":9884,"Ġinher":9885,"ĠLat":9886,"ĠTask":9887,"ORM":9888,"poof":9889,"ogram":9890,"Ġredundancy":9891,"Ġopposite":9892,"ĠOff":9893,"ĠCommittee":9894,"isis":9895,"PE":9896,"Ġoverwhel":9897,"Ġconcluded":9898,"Ġinvoked":9899,"ĠThom":9900,"All":9901,"ĠMitigation":9902,"ĠVendor":9903,"Ġnetworked":9904,"Cloud":9905,"cond":9906,"Ġbreached":9907,"Ġnan":9908,"ĠAWS":9909,"ĠHot":9910,"ĠBL":9911,"CII":9912,"ĠBugs":9913,"Ġcoordinate":9914,"Ġprison":9915,"metry":9916,"Ġdisaster":9917,"Ġassociation":9918,"gradation":9919,"Ġselects":9920,"ĠOVER":9921,"Ġreaction":9922,"Ġmultic":9923,"ĠTS":9924,"ĠDO":9925,"Ġperpet":9926,"ĠTech":9927,"isted":9928,"Ġsparse":9929,"Ġended":9930,"Pl":9931,"ainment":9932,"ximity":9933,"Ġrecommendation":9934,"Ġafford":9935,"ĠKen":9936,"ĠEnvironment":9937,"ĠPU":9938,"Ġrendering":9939,"ĠScoring":9940,"Ġ96":9941,"ĠGreen":9942,"ĠMont":9943,"ĠGame":9944,"203":9945,"Ġguessing":9946,"ASP":9947,"En":9948,"Ġbanned":9949,"agent":9950,"Ġcongestion":9951,"ĠCL":9952,"Ġlie":9953,"ĠORIGINAL":9954,"Ġhel":9955,"Ġoil":9956,"plug":9957,"Ġnations":9958,"ĠMit":9959,"Ġang":9960,"abot":9961,"Ġevolve":9962,"iers":9963,"Ġcompletion":9964,"Ġpit":9965,"Ġfetch":9966,"Ġfeder":9967,"Ġbird":9968,"ATA":9969,"Ġwarnings":9970,"Ġexploring":9971,"Ġstrengthen":9972,"Ġprosec":9973,"ĠForens":9974,"ĠOtherwise":9975,"ĠLoad":9976,"Ġproductivity":9977,"Rs":9978,"ĠAbout":9979,"Ġgovernance":9980,"ĠRequest":9981,"Ġproving":9982,"patched":9983,"Ġattributed":9984,"ANS":9985,"Ġdepartments":9986,"ĠLicense":9987,"Ġstudying":9988,"ĠDHCP":9989,"ĠEduc":9990,"ĠCV":9991,"ĠNP":9992,"ĠComparison":9993,"Ġpeak":9994,"Ġstating":9995,"ĠImportant":9996,"Ġpartitions":9997,"Ġmatched":9998,"BN":9999,"ĠVers":10000,"Ġdie":10001,"LOIT":10002,"appro":10003,"nist":10004,"orig":10005,"ĠPal":10006,"Ġadjacent":10007,"ĠKB":10008,"ĠEcon":10009,"Ġdistill":10010,"ĠCurrently":10011,"Ġevaluations":10012,"bing":10013,"ĠGUI":10014,"Ġsnipp":10015,"Ġcellular":10016,"Ġinteroper":10017,"malware":10018,"ĠGold":10019,"Ġspeculative":10020,"Ġrepositories":10021,"ĠElectronic":10022,"itle":10023,"ĠPA":10024,"Ġtolerance":10025,"Ġinvariant":10026,"Ġmanipulating":10027,"ĠBIOS":10028,"Ġtends":10029,"url":10030,"istically":10031,"Ġgreatest":10032,"Ġcharges":10033,"And":10034,"Ġspeaker":10035,"osis":10036,"Ġforest":10037,"Ġunsupervised":10038,"Ġcontrovers":10039,"EST":10040,"ĠPlayer":10041,"Ġimproper":10042,"ĠBrowser":10043,"ĠRecent":10044,"Ġnearby":10045,"zing":10046,"Ġaccepts":10047,"Ġfont":10048,"Ġthresholds":10049,"stein":10050,"edy":10051,"Ġconsecutive":10052,"ĠSelect":10053,"Ġadvances":10054,"Tor":10055,"kin":10056,"onder":10057,"ALL":10058,"Ġvertices":10059,"Ġcomfort":10060,"ĠVPNs":10061,"Process":10062,"ĠEXPLOIT":10063,"zant":10064,"yl":10065,"Ġlegislation":10066,"Ġoffices":10067,"Ġ86":10068,"Ġmatters":10069,"Ġcharged":10070,"Ġmitigating":10071,"Ġassociate":10072,"ĠMA":10073,"ORT":10074,"Ġvisiting":10075,"Ġregularization":10076,"ĠSafari":10077,"Ġ97":10078,"Ġpulled":10079,"gue":10080,"openjdk":10081,"Ġintersection":10082,"00000000":10083,"Ġreflects":10084,"aled":10085,"ĠInterface":10086,"Ġplugins":10087,"Ġdecoding":10088,"ĠOperations":10089,"Ġreachable":10090,"ĠBet":10091,"Ġwear":10092,"ĠLIN":10093,"ĠEns":10094,"inement":10095,"Ġstrug":10096,"Ġbehave":10097,"Ġroutines":10098,"table":10099,"Ġmanages":10100,"ĠSimple":10101,"800":10102,"Ġmother":10103,"ĠOrganization":10104,"Ġpark":10105,"Ġdegradation":10106,"ĠGenerally":10107,"ĠHo":10108,"ĠJBoss":10109,"TY":10110,"Ġalgebra":10111,"utors":10112,"Ġattribution":10113,"Ġ39":10114,"holder":10115,"ĠSchool":10116,"Ġhashing":10117,"ENC":10118,"Ġcompilation":10119,"Ġissuing":10120,"NNs":10121,"inator":10122,"Ġarchitectural":10123,"DT":10124,"Ġthwart":10125,"ĠJames":10126,"amm":10127,"Ġdepos":10128,"ĠCSP":10129,"Ġviolate":10130,"Ġfet":10131,"Ġdot":10132,"Ġwallet":10133,"ĠSams":10134,"train":10135,"Ġpossibilities":10136,"Ġpilot":10137,"Ġintuitive":10138,"ĠAsia":10139,"Ġnonce":10140,"ĠText":10141,"Ġforcing":10142,"stat":10143,"raud":10144,"Rec":10145,"ĠPH":10146,"ĠWiFi":10147,"sol":10148,"Ġaltered":10149,"Ġporn":10150,"Ġharvest":10151,"Sim":10152,"Ġsounds":10153,"Ġterminate":10154,"indow":10155,"Ġ85":10156,"With":10157,"ĠBoolean":10158,"cut":10159,"Ġweather":10160,"Ġcalculating":10161,"Ġrevealing":10162,"Ġtrajectory":10163,"ĠSafe":10164,"Ġpractition":10165,"ĠChall":10166,"ĠThree":10167,"Ġwidth":10168,"Ġprincipals":10169,"ours":10170,"ĠTotal":10171,"fee":10172,"ĠAutomation":10173,"ĠFixed":10174,"Ġdeem":10175,"Or":10176,"Ġalarms":10177,"Ġupgraded":10178,"Ġgir":10179,"Ġplacement":10180,"Ġfusion":10181,"Ġlifetime":10182,"Ġaccomplished":10183,"Ġdisgu":10184,"ĠIntro":10185,"Bu":10186,"Ġfals":10187,"Ġcorner":10188,"ĠBrow":10189,"ĠKnowledge":10190,"Ġmisconf":10191,"risk":10192,"Ġcolors":10193,"Ġunwanted":10194,"life":10195,"Ġremainder":10196,"ethe":10197,"Ġexecutions":10198,"ĠLTS":10199,"ipe":10200,"Ġreadily":10201,"ĠContact":10202,"Ġpseudo":10203,"Ġdenied":10204,"Ġdanger":10205,"ĠMC":10206,"Ġstim":10207,"Ġmovements":10208,"inate":10209,"ĠĊ":10210,"ĠIPs":10211,"Ġtransmitting":10212,"ĠSIP":10213,"Ġ47":10214,"ĠSurve":10215,"Ġlightweight":10216,"ico":10217,"Ġcomply":10218,"Ġdescent":10219,"Ġstreaming":10220,"ĠConfiguration":10221,"AME":10222,"Ġsleep":10223,"okes":10224,"Ġtrouble":10225,"ĠSeries":10226,"ĠRemember":10227,"wan":10228,"ĠOutlook":10229,"Ġshopping":10230,"ĠDISCO":10231,"Ġconstructing":10232,"Ġdeals":10233,"Ġdiscussing":10234,"Ġslot":10235,"lang":10236,"Ġpublications":10237,"arg":10238,"ĠDrop":10239,"Ġ46":10240,"ĠOutput":10241,"axis":10242,"Ġreboot":10243,"Ġincome":10244,"users":10245,"beros":10246,"Ġmigration":10247,"Ġcorpus":10248,"GRO":10249,"TCP":10250,"usively":10251,"Ġcallback":10252,"IES":10253,"ĠMic":10254,"itics":10255,"Ġflat":10256,"Ġcarrier":10257,"rame":10258,"ĠAssessment":10259,"pert":10260,"----------":10261,"unctions":10262,"iday":10263,"ĠEq":10264,"Ġchemical":10265,"orse":10266,"Ġdeclar":10267,"Fig":10268,"scanning":10269,"ĠIntuitively":10270,"ĠIMPACT":10271,"itz":10272,"uthenticated":10273,"Ġgenetic":10274,"Ġrelates":10275,"ometrics":10276,"ĠDOS":10277,"Ġ|------------":10278,"friend":10279,"Ġfiled":10280,"outer":10281,"ĠSuite":10282,"Ġtweet":10283,"DUC":10284,"iative":10285,"ĠTrojans":10286,"Ġfloor":10287,"uid":10288,"Ġtester":10289,"loop":10290,"arp":10291,"ĠSolutions":10292,"Ġescape":10293,"Ġbid":10294,"ĠManufact":10295,"ĠWhy":10296,"ĠFR":10297,"ĠDevices":10298,"Ġarrested":10299,"ĠRemed":10300,"FP":10301,"Ġprogramm":10302,"Ġmargin":10303,"Kit":10304,"odies":10305,"ĠGmail":10306,"ĠSmall":10307,"HTML":10308,"Ġroll":10309,"ĠIntegrity":10310,"Ġscanned":10311,"Ġextensively":10312,"ĠValid":10313,"DL":10314,"tml":10315,"Ġparticipating":10316,"Ġtiny":10317,"Ġrepair":10318,"Ġhint":10319,"Ġapparently":10320,"Ġfreely":10321,"Ġobservable":10322,"Ġsubscrib":10323,"ĠHer":10324,"Ġargued":10325,"ĠError":10326,"Des":10327,"REA":10328,"Ġclicked":10329,"Ġfuel":10330,"Ġemploying":10331,"iki":10332,"ĠONLY":10333,"ĠUkraine":10334,"ĠSyn":10335,"Ġoutgoing":10336,"ĠMer":10337,"ĠJeff":10338,"acker":10339,"Ġsimplest":10340,"Ġbelieves":10341,"ĠSettings":10342,"Ġdivision":10343,"Ġintentionally":10344,"Ġrender":10345,"Ġremediation":10346,"Adv":10347,"uation":10348,"ĠACL":10349,"Ġoverflows":10350,"HSA":10351,"eness":10352,"ĠPop":10353,"Ġpredicting":10354,"Ġdropping":10355,"User":10356,"Ġremained":10357,"ported":10358,"ĠTrusted":10359,"Ġfalls":10360,"ĠSEL":10361,"nu":10362,"Ġscaling":10363,"anna":10364,"%),":10365,"apped":10366,"ĠPhase":10367,"struction":10368,"ĠScen":10369,"That":10370,"ĠLinked":10371,"ĠNCCIC":10372,"Ġarbitr":10373,"ĠPartic":10374,"Ġcontainers":10375,"iner":10376,"Ġsignificance":10377,"Open":10378,"Ġinvestigators":10379,"mas":10380,"ĠElectric":10381,"ĠQuest":10382,"Ġsafeguard":10383,"Ġasymmetric":10384,"CT":10385,"apters":10386,"advisory":10387,"Ġvelo":10388,"liant":10389,"Cy":10390,"rogate":10391,"iller":10392,"Note":10393,"Ġtelecommun":10394,"lini":10395,"Ġrogue":10396,"Ġlengths":10397,"Ġrevocation":10398,"ĠCOMP":10399,"ĠArmy":10400,"Ġanalyzes":10401,"ĠPROVID":10402,"Ġclicks":10403,"break":10404,"lebr":10405,"Ġobsc":10406,"Ġ78":10407,"Ġunauthenticated":10408,"Ġtransmitter":10409,"Ġlem":10410,"ben":10411,"chestr":10412,"ĠConv":10413,"theoretic":10414,"ĠPos":10415,"ĠAccuracy":10416,"gency":10417,"Ġunencrypted":10418,"Ġtelling":10419,"ĠIRC":10420,"Ġpersonally":10421,"ĠSen":10422,"Ġratings":10423,"teness":10424,"ĠModern":10425,"ĠLD":10426,"Ġ================================================================":10427,"âĢĻ,":10428,"Ġping":10429,"Ġobserver":10430,"ellman":10431,"ander":10432,"orrow":10433,"WE":10434,"lett":10435,"Ġinduced":10436,"ĠMinim":10437,"ĠBP":10438,"luded":10439,"rey":10440,"Ġtransparency":10441,"Ġcorporations":10442,"agues":10443,"bur":10444,"ĠWest":10445,"Ġbuildings":10446,"Ġtailored":10447,"bits":10448,"Ġexecutables":10449,"Ġ49":10450,"Ġdisassemb":10451,"Ġgrows":10452,"ĠArtificial":10453,"Ġtranslate":10454,"Ġwaste":10455,"string":10456,"ĠEvaluation":10457,"Ġperipher":10458,"vy":10459,"Ts":10460,"irty":10461,"CI":10462,"ĠReliability":10463,"ometer":10464,"Ġri":10465,"ĠRP":10466,"Ġediting":10467,"ideo":10468,"Ġpenalty":10469,"Ġalph":10470,"Ġspan":10471,"Ġreviewing":10472,"anda":10473,"Ġmisuse":10474,"ĠOK":10475,"ĠVo":10476,"Ġwriter":10477,"Ġindividually":10478,"Sp":10479,"Ġfat":10480,"sparc":10481,"Ġserving":10482,"aive":10483,"ĠLee":10484,"Ġ________________________________":10485,"IVE":10486,"Ġadvertisements":10487,"arks":10488,"Ġinfluenced":10489,"ĠBS":10490,"While":10491,"zantine":10492,"ĠExperim":10493,"zy":10494,"third":10495,"ĠAL":10496,"abet":10497,"alyst":10498,"eltdown":10499,"Ġthousand":10500,"ĠForm":10501,"Dbg":10502,"emporal":10503,"Ġvirtually":10504,"Ġagreements":10505,"Ġblood":10506,"Ġsustain":10507,"Ġconfirmation":10508,"ĠHead":10509,"Ġsubstantially":10510,"Ġ1998":10511,"Ġreinforcement":10512,"Ġportal":10513,"Ġcable":10514,"Ġpeace":10515,"card":10516,"ĠRule":10517,"ĠExpos":10518,"Ġpicked":10519,"ĠConsidering":10520,"Set":10521,"fellow":10522,"^{":10523,"liances":10524,"Ġinnoc":10525,"Ġ1980":10526,"Ġdoubt":10527,"ĠRemediation":10528,"Ġcollective":10529,"Ġunified":10530,"imp":10531,"Ġenemy":10532,"sv":10533,"ĠValue":10534,"YS":10535,"ĠChang":10536,"aj":10537,"ĠMaster":10538,"Ġrelating":10539,"Ġcompliant":10540,"Ġgold":10541,"Ġlookup":10542,"ĠLO":10543,"ilos":10544,"fitting":10545,"Ġtriggering":10546,"ĠBuilding":10547,"aset":10548,"vable":10549,"ĠAction":10550,"ecode":10551,"Ġsnapshot":10552,"ROP":10553,"Ġbinding":10554,"Ġpointing":10555,"oned":10556,"cven":10557,"cvename":10558,"ĠSafety":10559,"Ġposting":10560,"sets":10561,"Not":10562,"compl":10563,"ĠFA":10564,"Ġdecides":10565,"FTWARE":10566,"imedia":10567,"ko":10568,"aped":10569,"real":10570,"Ġwarned":10571,"lass":10572,"wood":10573,"Ġconsiderably":10574,"HERE":10575,"Ġ51":10576,"Ġremoves":10577,"Ġcensors":10578,"Ġhypothes":10579,"Ġpreprocessing":10580,"Ġgeograph":10581,"ĠSymposium":10582,"Ġpret":10583,"Ġlosing":10584,"havior":10585,"Ġparse":10586,"encoder":10587,"Ġfitness":10588,"Ġofficers":10589,"eros":10590,"ummy":10591,"Ġcollege":10592,"got":10593,"Ġsimilarities":10594,"aarch":10595,"Ġquantity":10596,"Ġbackups":10597,"raction":10598,"Ġdecreasing":10599,"ĠTrad":10600,"ĠChris":10601,"Ġrevers":10602,"Auth":10603,"Ġallegedly":10604,"Ġindication":10605,"DNS":10606,"Ġkids":10607,"ĠLL":10608,"ĠRate":10609,"ĠWITH":10610,"ĠModule":10611,"Ġordering":10612,"Ġconfident":10613,"ĠWhether":10614,"Ġreliably":10615,"().":10616,"Ġconferences":10617,"liv":10618,"ffff":10619,"Ġsees":10620,"entials":10621,"Ġexpectations":10622,"Ġdash":10623,"eek":10624,"match":10625,"idge":10626,"ĠSnow":10627,"ĠSuppose":10628,"ĠUpgrade":10629,"IFF":10630,"Ġ52":10631,"Ġdivide":10632,"Ġpad":10633,"Ġantenna":10634,"Ġproximity":10635,"ĠIO":10636,"ĠEL":10637,"Ġgrids":10638,"VIE":10639,"Ġreserved":10640,"erial":10641,"MT":10642,"+------------":10643,"ĠFinancial":10644,"ourced":10645,"ĠPROVIDED":10646,"ĠPrinc":10647,"efficients":10648,"Ġtrading":10649,"002":10650,"Ġresponding":10651,"ĠISPs":10652,"Ġinterpreter":10653,"quart":10654,"ĠFeature":10655,"Ġinvolvement":10656,"Ġinitialized":10657,"computer":10658,"BB":10659,"\").":10660,"hop":10661,"Ġapproval":10662,"ĠCam":10663,"Ġgram":10664,"Ġfiltered":10665,"Ġfavorite":10666,"ĠEXT":10667,".).":10668,"Ġradar":10669,"Ġrenew":10670,"Ġeigen":10671,"ĠGuide":10672,"hi":10673,"Ġimposed":10674,"Ġshorter":10675,"avas":10676,"Ġconversion":10677,"ĠSem":10678,"ĠSEE":10679,"Ġtransmissions":10680,"ĠGradient":10681,"Ġanalytical":10682,"ĠASCII":10683,"preserving":10684,"ĠAlexa":10685,"ĠPers":10686,"Bot":10687,"Ġcopying":10688,"ĠFour":10689,"ĠComb":10690,"ĠBuffer":10691,"ĠPSI":10692,"Ġengaged":10693,"Ġyes":10694,"126":10695,"Ġfuzzy":10696,"Ġ54":10697,"Control":10698,"ameter":10699,"ĠOften":10700,"Ġsimplify":10701,"Ġnewsp":10702,"Ġsolver":10703,"Ġslower":10704,"ĠRepublic":10705,"Ġtied":10706,"Ġdrones":10707,"otive":10708,"Ġworkstation":10709,"zi":10710,"Ġguy":10711,"ĠMode":10712,"concept":10713,"depend":10714,"Ġsmallest":10715,"ontal":10716,"GROUND":10717,"Ġslowly":10718,"Ġmissed":10719,"SO":10720,"Ġevident":10721,"Ġbreaks":10722,"Ġsentences":10723,"Ġschools":10724,"VIEW":10725,"agraph":10726,"bugzilla":10727,"Ġregistr":10728,"versely":10729,"software":10730,"Ġaggregated":10731,"Ġnotions":10732,"Ġinherently":10733,"ĠTex":10734,"Ġfamous":10735,"slackware":10736,"Ġreturning":10737,"Ġvoter":10738,"ĠSqu":10739,"Ġfixing":10740,"Ġwinning":10741,"SG":10742,"Ġpoll":10743,"rint":10744,"Ġmimic":10745,"ĠCount":10746,"ĠRy":10747,"Ġcumulative":10748,"EVM":10749,"ĠAttacker":10750,"ĠDET":10751,"Ġpresenting":10752,"hicle":10753,"Ġsaving":10754,"Ġplacing":10755,"Ġapplicability":10756,"Ġuniformly":10757,"ourcing":10758,"Ġdesignated":10759,"Ġincorporating":10760,"âĢĶâĢĶâĢĶâĢĶ":10761,"PG":10762,"Ġ[/":10763,"Ġputs":10764,"ĠAUT":10765,"Ġtroub":10766,"Ġmisclassification":10767,"Ġacceptance":10768,"Ġhoc":10769,"Ġbuffers":10770,"Ġpersons":10771,"Ġeavesdropping":10772,"ĠHomeland":10773,"Ġformation":10774,"Ġcontextual":10775,"Ġworkforce":10776,"Ġsatisfying":10777,"ĠSony":10778,"Ġphrase":10779,"Ġmodelling":10780,"Ġì":10781,"Ġrecursive":10782,"ATURE":10783,"Ġsake":10784,"Ġempirically":10785,"CNN":10786,"ĠCAPTC":10787,"Ġintensity":10788,"essional":10789,"reference":10790,"Ġlicensed":10791,"error":10792,"squ":10793,"ĠCard":10794,"Ġinev":10795,"ARD":10796,"va":10797,"Ġviable":10798,"ĠUnderstanding":10799,"ĠScient":10800,"Ġseriously":10801,"Ġcoupled":10802,"Ġlocking":10803,"Gr":10804,"Ġexplos":10805,"Ġreadings":10806,"Ġtotally":10807,"Ġcooperative":10808,"Ġallocate":10809,"ATIC":10810,"Ġmasking":10811,"Ġforwarded":10812,"fol":10813,"Ġmutation":10814,"ĠBad":10815,"OMER":10816,"Ġtranslated":10817,"Ġinterconn":10818,"Ġinvestments":10819,"Depth":10820,"Ġfa":10821,"Ġdifferentiate":10822,"Ġconceptual":10823,"Ġ?":10824,"ĠTake":10825,"Ġmental":10826,"etration":10827,"ĠEast":10828,"Ġsubsection":10829,"Ġexclusively":10830,"ĠPress":10831,"Ġencrypts":10832,"Ġunclear":10833,"Ġgender":10834,"Ġattend":10835,"ropri":10836,"Ġconsol":10837,"Ġresponded":10838,"Ġpowers":10839,"ĠPersonal":10840,"Ġuniversities":10841,"ĠProxy":10842,"Ġdefence":10843,"Ġembed":10844,"Ġclin":10845,"Ġfilled":10846,"Ġmanifest":10847,"ĠPet":10848,"Ġconflicts":10849,"threat":10850,"Crypt":10851,"ĠMarket":10852,"length":10853,"ĠJustice":10854,"Ġsuperior":10855,"Ġobtains":10856,"Ġho":10857,"WORD":10858,"pag":10859,"=====":10860,"ĠFull":10861,"zil":10862,"Ġdistinction":10863,"filter":10864,"ĠCompan":10865,"Ġcaching":10866,"Ġconcaten":10867,"Ġborder":10868,"Ġundetected":10869,"/):":10870,"Ġineffective":10871,"ĠSys":10872,"Ġcommunicated":10873,"Ġembeddings":10874,"home":10875,"ĠLong":10876,"Ġprone":10877,"Ġinstaller":10878,"Ġmitigated":10879,"tmp":10880,"points":10881,"Ġcriterion":10882,"itals":10883,"Ġadversarially":10884,"Ġholes":10885,"Ġpatent":10886,"sk":10887,"Ġcolleagues":10888,"Ġcausal":10889,"ĠDisco":10890,"Ġrent":10891,"ĠDE":10892,"ĠEdition":10893,"eterm":10894,"ĠAverage":10895,"Ġgaming":10896,"BO":10897,"Ġcorrected":10898,"iration":10899,"Ġretain":10900,"onor":10901,"ami":10902,"iating":10903,"Ġparser":10904,"%).":10905,"ĠSel":10906,"Ġchair":10907,"files":10908,"Ġintegrating":10909,"start":10910,"ĠInstagram":10911,"Ġpacked":10912,"gz":10913,"ĠPrivile":10914,"ĠFilter":10915,"Ġ57":10916,"ĠFre":10917,"Ġpreserving":10918,"Ġtuple":10919,"Ġcompressed":10920,"Ġconvenience":10921,"ĠInterestingly":10922,"Ġinstrumentation":10923,"Ġproblematic":10924,"dated":10925,"Ġblacklist":10926,"Ġinvoke":10927,"plan":10928,"rokes":10929,"Ġverifier":10930,"ĠVLAN":10931,"Ġfork":10932,"Ġoutage":10933,"Ġcompact":10934,"ĠVarious":10935,"Ġattestation":10936,"ĠDOM":10937,"Ġtransient":10938,"ĠCERT":10939,"peer":10940,"ĠCSI":10941,"ĠConc":10942,"Ġcoefficients":10943,"izon":10944,"Ġsuppliers":10945,"Work":10946,"Ġcalib":10947,"Ġprompted":10948,"password":10949,"away":10950,"orney":10951,"SMA":10952,"ida":10953,"Ġseemingly":10954,"Ġtrail":10955,"ĠBACKGROUND":10956,"Ġretrieval":10957,"ĠDiffie":10958,"Ġdense":10959,"Ġnotify":10960,"EAR":10961,"Ġadopting":10962,"ĠIPS":10963,"Ġcertifications":10964,"Ġ72":10965,"ĠCUST":10966,"Ġprofiling":10967,"eas":10968,"Ġsteady":10969,"ĠMedium":10970,"Ġtackle":10971,"Ġtesters":10972,"ainted":10973,"Ġarrive":10974,"Ġexercises":10975,"Ġinduce":10976,"avascript":10977,"ĠPlan":10978,"Ġvotes":10979,"ĠFac":10980,"ĠFireEye":10981,"ĠDISCOVER":10982,"Ġformulated":10983,"Ġsystematically":10984,"Ġinnovative":10985,"ĠWS":10986,"Ġmicroarchitect":10987,"Ġskilled":10988,"ĠCertificate":10989,"Ġranked":10990,"11258":10991,"Ġarrow":10992,"Ġstops":10993,"ĠWorkshop":10994,"apper":10995,"BF":10996,"Ġsubtle":10997,"ĠFact":10998,"Ġexposing":10999,"ĠREFER":11000,"ills":11001,"Ġrejected":11002,"ĠEss":11003,"ĠPoC":11004,"example":11005,"Ġundert":11006,"profile":11007,"Ġdramatically":11008,"Ġstar":11009,"Ġuseless":11010,"uris":11011,"asters":11012,"Ġsurrogate":11013,"Ġweaker":11014,"Ġextending":11015,"Ġdevelopments":11016,"ĠURI":11017,"utorial":11018,"BER":11019,"ĠMeltdown":11020,"Ġbeta":11021,"ĠPO":11022,"Ġworms":11023,"Ġrelate":11024,"itudes":11025,"Ġcontributed":11026,"Ġpentest":11027,"ENCES":11028,"sam":11029,"angle":11030,"URITY":11031,"Ġbuying":11032,"API":11033,"Ġmechanical":11034,"compass":11035,"Ġbag":11036,"purpose":11037,"Ġmagnetic":11038,"Ġfemale":11039,"Republic":11040,"ĠTuring":11041,"Ġbroadly":11042,"ĠRobust":11043,"Ġregards":11044,"keep":11045,"ĠNA":11046,"Ġcoordinates":11047,"bounds":11048,"erpreter":11049,"ĠDEP":11050,"press":11051,"ĠHol":11052,"ypots":11053,"Ġresponds":11054,"Ġnegatives":11055,"Pal":11056,"ĠConnect":11057,"ĠArab":11058,"Ġcalculations":11059,"Ġconsequently":11060,"CPU":11061,"Ġaf":11062,"ĠQuant":11063,"Ġfundament":11064,";&":11065,"Ġdub":11066,"Ġasynchronous":11067,"ĠPackage":11068,"Ġemerge":11069,"drop":11070,"ĠAvailability":11071,"ĠPolice":11072,"Ġimply":11073,"Ġconsume":11074,"input":11075,"****************":11076,"Ġexfiltration":11077,"Ġsupplement":11078,"ĠPL":11079,"Ġalongside":11080,"ĠEmploy":11081,"Ġepisode":11082,"ĠAdministration":11083,"olec":11084,"Ġmultipl":11085,"ĠSamsung":11086,"UU":11087,"Ġnavigate":11088,"ureau":11089,"Ġproposals":11090,"knowledge":11091,"Ġcrisis":11092,"unity":11093,"ĠMr":11094,"Ġvisits":11095,"ĠModer":11096,"ĠPP":11097,"Ġoverla":11098,"Ġarbitrarily":11099,"ĠExploitation":11100,"ĠGateway":11101,"oders":11102,"Ġgranularity":11103,"Ġregarded":11104,"CM":11105,"Ġprioritize":11106,"ĠTexas":11107,"ĠAE":11108,"yc":11109,"bi":11110,"ĠPOS":11111,"ĠKerberos":11112,"Ġplots":11113,"Ġlifecycle":11114,"ĠWHERE":11115,"ĠSIGNATURE":11116,"uesday":11117,"ruby":11118,"riz":11119,"Ġosc":11120,"ĠIndex":11121,"Our":11122,"Ġcached":11123,"Ġexamination":11124,"Ġnmap":11125,"ĠUnt":11126,"WA":11127,"Ġpurely":11128,"Ops":11129,"ĠTTP":11130,"Ġdecode":11131,"Ġcoefficient":11132,"Ġfolders":11133,"ĠUt":11134,"Ġvelocity":11135,"FW":11136,"ĠUsually":11137,"Ġpoorly":11138,"unks":11139,"Ġpermits":11140,"Val":11141,"Ġstandardized":11142,"146":11143,"Ġ________________________________________________________________":11144,"Ġblank":11145,"Ġlawy":11146,"Ġcatalog":11147,"isible":11148,"GR":11149,"Ġsubstitution":11150,"ĠStall":11151,"Ġwriters":11152,"2005":11153,"Ġbackend":11154,"Ġdelivering":11155,"ĠPark":11156,"ĠCUSTOMER":11157,"Ġdependence":11158,"ĠCat":11159,"Ġtampering":11160,"Afee":11161,"ĠChange":11162,"uli":11163,"ĠMandriva":11164,"KD":11165,"Ġencoder":11166,"Ġsides":11167,"agner":11168,"Ġcreative":11169,"Ġdisabling":11170,"Ġarms":11171,"Ġcontinuing":11172,"Ġdiscovering":11173,"Ġavoided":11174,"Ġformulate":11175,"Ġscammers":11176,"Ġidentifiable":11177,"ĠSNMP":11178,"Ġped":11179,"ĠASes":11180,"Ġsmoothing":11181,"alities":11182,"ĠOptim":11183,"Ġswitched":11184,"ĠStill":11185,"prem":11186,"ortunately":11187,"Ġnotified":11188,"ĠField":11189,"ĠAngel":11190,"nov":11191,"td":11192,"Ġgradually":11193,"Acc":11194,"Ġbulk":11195,"ĠCIA":11196,"\";":11197,"Ġchunk":11198,"Ġdiscriminator":11199,"ĠAuthority":11200,"rike":11201,"ĠProposition":11202,"HEL":11203,"Ġautomata":11204,"high":11205,"Ġprevalent":11206,"Ġbringing":11207,"ĠController":11208,"atile":11209,"Ġrect":11210,"parameter":11211,"lat":11212,"Ġexchanges":11213,"Ġmonthly":11214,"Ġqualitative":11215,"Ġreconf":11216,"ĠDecision":11217,"ĠBrazil":11218,"etheless":11219,"Ġappliances":11220,"ĠNET":11221,"ĠTP":11222,"ĠPerhaps":11223,"SSAGE":11224,"ĠJSON":11225,"Ġjoined":11226,"ĠVersions":11227,"ĠProducts":11228,"ĠDisclosure":11229,"Ġplants":11230,"ĠLinkedIn":11231,"generated":11232,"Do":11233,"Ġpredictable":11234,"Ġterrorist":11235,"Ġundes":11236,"______":11237,"Ġemulation":11238,"Ġopponent":11239,"Ġdeemed":11240,"At":11241,"Ġlibvirt":11242,"ram":11243,"ĠDefender":11244,"embles":11245,"Ġapprec":11246,"Cry":11247,"Ġscratch":11248,"Ġcelebr":11249,"Link":11250,"TT":11251,"xxxx":11252,"Ġadaptation":11253,"fold":11254,"ĠSmith":11255,"Ġwasn":11256,"ĠRev":11257,"ĠPCs":11258,"hy":11259,"Ġparagraph":11260,"Ġinternally":11261,"ĠContinu":11262,"Ġship":11263,"Ġscales":11264,"ĠSchne":11265,"bind":11266,"Ġfees":11267,"ĠIde":11268,"Ġshuff":11269,"uan":11270,".*":11271,"ĠUnivers":11272,"Ġball":11273,"Ġlinking":11274,"Ġtrip":11275,"Ġoverload":11276,"Ġpermanent":11277,"complete":11278,"Ġcited":11279,"van":11280,"ĠSal":11281,"vance":11282,"iguous":11283,"Ġposed":11284,"Ġ1995":11285,"Ġrecipients":11286,"Ġ101":11287,"format":11288,"Ġtransit":11289,"Ġasympt":11290,"ĠTes":11291,"lishes":11292,"ĠTuesday":11293,"ĠByzantine":11294,"organ":11295,"KB":11296,"Ġunstable":11297,"Ġdesire":11298,"ĠSession":11299,"ĠSand":11300,"Ġbiological":11301,"Ġleaking":11302,"Ġpuzzle":11303,"berry":11304,"Ġheuristics":11305,"ixel":11306,"Ġtips":11307,"ĠEarth":11308,"ĠREFERENCES":11309,"Ġsearched":11310,"Ġdestruction":11311,"ibm":11312,"node":11313,"Ġ`":11314,"ĠCur":11315,"Ġcas":11316,"values":11317,"ENDED":11318,"omorphic":11319,"Ver":11320,"ĠAuth":11321,"Ġzones":11322,"acer":11323,"Ġshot":11324,"Ġpremium":11325,"NC":11326,"Ġmagic":11327,"liest":11328,"mdvmes":11329,"losed":11330,"ĠBook":11331,"Ġtexts":11332,"ĠPerm":11333,"Ġportable":11334,"ĠRunning":11335,"ĠDF":11336,"Ġdisj":11337,"Ġwhitel":11338,"Ġprojection":11339,"Ġkernels":11340,"cha":11341,"Ġschema":11342,"Ġusable":11343,"Ġlateral":11344,"Ġmini":11345,"Ġson":11346,"CF":11347,"ĠPenetration":11348,"ĠCompanies":11349,"ĠISA":11350,"Ġlaptops":11351,"ĠLess":11352,"Ġdisease":11353,"ateral":11354,"ĠAdam":11355,"But":11356,"Ġhat":11357,"icate":11358,"orge":11359,"1000":11360,"ĠHistory":11361,"ĠJac":11362,"ĠRA":11363,"Ġglass":11364,"Ġ512":11365,"Ġimmune":11366,"ĠPI":11367,"HO":11368,"Ġbusy":11369,"Ġinitiatives":11370,"evin":11371,"urisd":11372,"ĠBill":11373,"Ġtor":11374,"ĠStallman":11375,"Ġera":11376,"count":11377,"ĠIndian":11378,"ĠWSN":11379,"overs":11380,"ĠSolaris":11381,"Ġcheap":11382,"ĠMiddle":11383,"estic":11384,"pi":11385,"Ġsorts":11386,"lar":11387,"/.":11388,"ĠChief":11389,"Ġprinter":11390,"Ġphilos":11391,"Ġplenty":11392,"Ġsyscall":11393,"mdk":11394,"Ġoutbound":11395,"ĠCache":11396,"Ġbodies":11397,"sa":11398,"Ġscheduler":11399,"response":11400,"dep":11401,"ĠAREA":11402,"ĠComplex":11403,"Ġincred":11404,"ĠDiv":11405,"Ġuncover":11406,"ĠSL":11407,"ĠDou":11408,"ĠShort":11409,"Ġ1996":11410,"Ġaugmented":11411,"ĠIncident":11412,"Ġ000":11413,"Ġhunting":11414,"idel":11415,"Ġexclusive":11416,"List":11417,"Ġsuppose":11418,"ĠNormal":11419,"Read":11420,"Ġflip":11421,"ĠTPM":11422,"ĠMatrix":11423,"Ġinstalls":11424,"tech":11425,"driver":11426,"rb":11427,"arian":11428,"Ġvac":11429,"150":11430,"Ġtemporarily":11431,"Ġdissemination":11432,"ola":11433,"ĠMonitoring":11434,"ĠSpam":11435,"Ġreceivers":11436,"stricted":11437,"Ġtens":11438,"Ġarrival":11439,"located":11440,"Ġourselves":11441,"Ġharmful":11442,"ĠBest":11443,"Ġconstants":11444,"Ġduplicate":11445,"ĠMirai":11446,"Ġelsewhere":11447,"ĠLooking":11448,"GI":11449,"ĠMESSAGE":11450,"ĠPT":11451,"imination":11452,"After":11453,"Ġopinions":11454,"Ġpet":11455,"Ġencompass":11456,"Ġincentive":11457,"ĠCSC":11458,"ĠJPEG":11459,"Ġenorm":11460,"ĠCho":11461,"Ġpref":11462,"ĠPattern":11463,"olation":11464,"Ġinterconnected":11465,"GE":11466,"ĠStreet":11467,"ront":11468,"Ġconvince":11469,"Ġeasiest":11470,"cost":11471,"Ġdecomposition":11472,"iffer":11473,"Ġwithdr":11474,"ĠINT":11475,"charge":11476,"Ġbundle":11477,"Ġpractitioners":11478,"Ġmalformed":11479,"constr":11480,"Ġpublisher":11481,"Ġpredicates":11482,"ĠWide":11483,"osc":11484,"Ġreceipt":11485,"Ġspin":11486,"ĠSIMATIC":11487,"ĠJack":11488,"Ġtraversal":11489,"Ġbott":11490,"inton":11491,"ĠDISCOVERED":11492,"Ġtricks":11493,"Ġunseen":11494,"ĠHD":11495,"proof":11496,"Ġpropagate":11497,"Ġabilities":11498,"ĠEXTENDED":11499,"ECTED":11500,"Ġconfiguring":11501,"Ġacceleration":11502,"viewadvisory":11503,"ĠCounter":11504,"Ġcontacted":11505,"Ġlaboratory":11506,"Track":11507,"otion":11508,"ille":11509,"ĠIncre":11510,".-":11511,"erry":11512,"Ġ58":11513,"ĠEmer":11514,"Line":11515,"ĠVista":11516,"Ġstopping":11517,"Ġshoot":11518,"Ġalternatives":11519,"Ġestablishment":11520,"Ġub":11521,"Ġns":11522,"ĠFortunately":11523,"ĠWal":11524,"ĠLOC":11525,"Ġinferred":11526,"Ġmorning":11527,"urate":11528,"Hellman":11529,"Ġcompromises":11530,"Ġposter":11531,"Ġproportional":11532,"ĠEducation":11533,"Co":11534,"ĠSYSTEM":11535,"Ġclosing":11536,"Ġ88":11537,"FTP":11538,"ĠUpdated":11539,"ĠCollect":11540,"Ġindirectly":11541,"Ġelections":11542,"Ġestablishes":11543,"Ġimpersonate":11544,"COM":11545,"lege":11546,"Ġadditionally":11547,"Total":11548,"Ġquadr":11549,"âĢĺ":11550,"Ġnorms":11551,"Ġinventory":11552,"Ġbed":11553,"Ġinstallations":11554,"ĠFed":11555,"orts":11556,"ĠAward":11557,"chains":11558,"Ġrevision":11559,"ĠCE":11560,"MF":11561,"Ġcommod":11562,"('":11563,"Ġenters":11564,"activ":11565,"first":11566,"Ġanch":11567,"ocal":11568,"Ġabused":11569,"ownt":11570,"Ġmounted":11571,"Ġmodifies":11572,"eg":11573,"livious":11574,"Ġfailing":11575,"ĠClassification":11576,"Ġdepicts":11577,"udeb":11578,"888":11579,"Ġaligned":11580,"Ġsuggestions":11581,"Ġfif":11582,"SB":11583,"oning":11584,"riers":11585,"Ġcontrad":11586,"ĠHong":11587,"Ġfly":11588,"Ġimpose":11589,"Ġfounded":11590,"ĠInitiative":11591,"Ġextortion":11592,"Ġdemonstrating":11593,"ĠOverview":11594,"ticle":11595,"Ġsyntact":11596,"Ġswe":11597,"ĠHam":11598,"Ġrecurs":11599,"Ġsignaling":11600,"ĠContract":11601,"crypt":11602,"Ġcalculus":11603,"ĠCirc":11604,"aler":11605,"Ġoriginating":11606,"ĠCarol":11607,"123":11608,"Ġdeliberately":11609,"Ġsatisfaction":11610,"Ġlocks":11611,"ĠFrancisco":11612,"Ġskip":11613,"Ġclosest":11614,"Ġreasonably":11615,"ĠSteve":11616,"Ġmine":11617,"ĠMass":11618,"ĠLibrary":11619,"ĠProb":11620,"screen":11621,"Ġpreserved":11622,"Ġ*/":11623,"api":11624,"Ġdominant":11625,"Ġtrustworthy":11626,"ĠMITIG":11627,"''":11628,"ĠBatman":11629,"ĠWhats":11630,"Ġpreparation":11631,"Ġcorrelations":11632,"ĠIll":11633,"utils":11634,"Ġ/*":11635,"ĠMcAfee":11636,"Ġwatching":11637,"Ġsuffered":11638,"Ġparticipation":11639,"ĠRFID":11640,"ĠKevin":11641,"Ġsexual":11642,"twitter":11643,"Ġtal":11644,"Ġdiffusion":11645,"law":11646,"Ġposes":11647,"Ġproc":11648,"Ġtactic":11649,"ĠChe":11650,"ĠCPSs":11651,"erve":11652,"Ġaccountability":11653,"Ġjurisd":11654,"Ġorient":11655,"thread":11656,"Ġsurveys":11657,"ĠWPA":11658,"Ġaccommodate":11659,"CON":11660,"Ġcensorship":11661,"ĠDocker":11662,"Ġdiscret":11663,"Ġwealth":11664,"Ġdiscount":11665,"auth":11666,"Ġemit":11667,"ĠKorean":11668,"Ġtechnically":11669,"ĠSDK":11670,"ĠExternal":11671,"ĠPrevious":11672,"Ġcompetitors":11673,"Ind":11674,"scan":11675,"Ġ66":11676,"Ġ2023":11677,"Ġsomebody":11678,"oj":11679,"ĠAfrica":11680,"Ġbeam":11681,"Ġkits":11682,"Ġfederated":11683,"Some":11684,"ANN":11685,"Ġfaulty":11686,"Ġconservative":11687,"ĠOTHER":11688,"Ġaggressive":11689,"Ġvent":11690,"ĠOVERVIEW":11691,"ĠAttrib":11692,"ĠRouter":11693,"ACE":11694,"Ġsitting":11695,"Ġenforcing":11696,"Ġhous":11697,"umption":11698,"Ġviolating":11699,"pay":11700,"tun":11701,"Ġdifficulties":11702,"Ġrul":11703,"Ġultimate":11704,"ĠRecognition":11705,"Ġtimeout":11706,"Ġaccepting":11707,"ĠBern":11708,"Ġgeneralize":11709,"Ġpseudonym":11710,"cache":11711,"Ġ__":11712,"owered":11713,"ĠExcel":11714,"Ġwoman":11715,"Ġmyself":11716,"Ġcommittee":11717,"Ġsurveyed":11718,"Ġcomprises":11719,"Ġassemb":11720,"Ġaffili":11721,"Ġ74":11722,"Ġbg":11723,"Ġindistinguishable":11724,"announce":11725,"ĠWed":11726,"ĠMT":11727,"Ġoverlook":11728,"Ġraises":11729,"sat":11730,"Ġsuggesting":11731,"Ġkid":11732,"Ġaugmentation":11733,"ture":11734,"Ġ365":11735,"ARC":11736,"oked":11737,"Ġdistributing":11738,"enn":11739,"0001":11740,"Ġenhancing":11741,"Ġcommission":11742,"Ġtimeline":11743,"Ġassessed":11744,"ĠWikipedia":11745,"ogen":11746,"Ġdummy":11747,"ĠExpress":11748,"Ġintervention":11749,"ĠHaw":11750,"Ġadditive":11751,"Ġunavailable":11752,"loss":11753,"Ġdetections":11754,"Ġdecoder":11755,"Ġburden":11756,"Ġintrins":11757,"ĠCentre":11758,"Ġalternate":11759,"fly":11760,"icit":11761,"Ġ94":11762,"Ġhotel":11763,"ATED":11764,"New":11765,"Ġteach":11766,"initial":11767,"appropri":11768,"igured":11769,"uce":11770,"Ġdrugs":11771,"Ġhardening":11772,"ĠApply":11773,"Ġgeo":11774,"Ġverifies":11775,"Ġevaluates":11776,"Ġcounting":11777,"quality":11778,"Ġbypassing":11779,"ĠWanna":11780,"ĠPhil":11781,"ĠWater":11782,"centric":11783,"pectives":11784,"tons":11785,"ĠLiu":11786,"ĠUC":11787,"ĠUlt":11788,"content":11789,"ĠSH":11790,"even":11791,"Ġspeeds":11792,"Ġaxis":11793,"Ġextracts":11794,"patible":11795,"Ġphysics":11796,"sized":11797,"aptive":11798,"ĠHash":11799,"Ġloose":11800,"Ġdemonstration":11801,"memory":11802,"Ġcontrary":11803,"Ġpriorities":11804,"Ġuniquely":11805,"ĠSIEM":11806,"ĠLin":11807,"Ġseeks":11808,"ĠLastly":11809,"Ġpromise":11810,"gre":11811,"Ġquerying":11812,"Ġanc":11813,"services":11814,"Ġsniffing":11815,"zz":11816,"Ġreflection":11817,"ĠLocation":11818,"Ġintercepted":11819,"String":11820,"Ġjointly":11821,"Ġtickets":11822,"Ġreplaces":11823,"DOS":11824,"ien":11825,"omp":11826,"astro":11827,"mys":11828,"ĠSite":11829,"ĠAmericans":11830,"osing":11831,"Ġliability":11832,"Ġfinish":11833,"Ġrock":11834,"Ġwired":11835,"ĠDebug":11836,"Ġdelayed":11837,"Ġinvestors":11838,"EFI":11839,"BE":11840,"ding":11841,"Ġoutdated":11842,"ĠProfessional":11843,"Ġarrays":11844,"Ġportions":11845,"Ġsomehow":11846,"Ġ250":11847,"Ġsubsets":11848,"Ġunpack":11849,"Ġpermutation":11850,"ĠMus":11851,"ette":11852,"Ġfunctioning":11853,"Ġbuses":11854,"Ġproves":11855,"ĠâĪĴ":11856,"oto":11857,"ĠGeorg":11858,"Ġidle":11859,"Ġuntargeted":11860,"Ġexcessive":11861,"Ġpreview":11862,"ĠCommunity":11863,"Ġdeleting":11864,"isec":11865,"ĠStarting":11866,"Ġdisassembly":11867,"ĠDRAM":11868,"Ġoverr":11869,"Ġdisplaying":11870,"liament":11871,"Ġdeviations":11872,"204":11873,"Ġmarking":11874,"Ġhaven":11875,"ĠMach":11876,"safe":11877,"ĠBal":11878,"'ve":11879,"Ġorchestr":11880,"Ġhang":11881,"---------------------------------------------------------------------":11882,"Ġunpatched":11883,"Ġchapters":11884,"Ġmigrate":11885,"2021":11886,"ĠManufacturing":11887,"ĠRequire":11888,"ĠBureau":11889,"targeted":11890,"Ġencaps":11891,"Ġfeeds":11892,"ĠESP":11893,"Ġpractically":11894,"ĠScripting":11895,"Ds":11896,"-----------":11897,"ĠNash":11898,"Ġdownt":11899,"Ġclassifying":11900,"Ġautomotive":11901,"OF":11902,"honest":11903,"Ġlatt":11904,"Ġbootstr":11905,"vation":11906,"GM":11907,"Ġlessons":11908,"Ġfeatured":11909,"Ġneighboring":11910,"Ġseam":11911,"Ġrestaur":11912,"Ġcontinually":11913,"Ġupstream":11914,"Ġbought":11915,"Ġaxi":11916,"Ġfeeling":11917,"Ġefficacy":11918,"Ġhoneypots":11919,"sen":11920,"apl":11921,"inking":11922,"Ġoutline":11923,"Ġearliest":11924,"Ġshield":11925,"aved":11926,"Ġwel":11927,"Ġappropriately":11928,"Ġslic":11929,"Ġconvey":11930,"AAAAAAAAAAAAAAAA":11931,"Ġencouraged":11932,"Ġ82":11933,"Ġlattice":11934,"Ġresistant":11935,"browser":11936,"Ġdrast":11937,"Ġemphasis":11938,"ĠAustralian":11939,"Ġdegr":11940,"Ġabsolutely":11941,"ĠComplete":11942,"Ġlocalization":11943,"ĠLR":11944,"Ġrelevance":11945,"ĠChannel":11946,"HTTP":11947,"apore":11948,"Ġprobes":11949,"edge":11950,"509":11951,"Ġconverge":11952,"Ġdeletion":11953,"ĠFlor":11954,"ĠTesla":11955,"Ġsoundness":11956,"Ġreachability":11957,"Ġinvisible":11958,"lessly":11959,"Ġoptimizing":11960,"Ġlacks":11961,"Ġsettle":11962,"Ass":11963,"Ġpartitioning":11964,"Ġunion":11965,"optimal":11966,"Ġmisclassified":11967,"ĠMITIGATION":11968,"Ġtheories":11969,"Ġbyt":11970,"20060":11971,"Ġreplies":11972,"Ġconstitute":11973,"ppers":11974,"Ġ68":11975,"Ġimplicitly":11976,"Ġbog":11977,"Ġreminds":11978,"uro":11979,"Ġjudge":11980,"ilder":11981,"Ġpreference":11982,"Ġcompeting":11983,"Ġpairing":11984,"Ġactuator":11985,"tar":11986,"blog":11987,"ĠFail":11988,"ĠCarlini":11989,"master":11990,"ĠBeyond":11991,"Ġouter":11992,"cmd":11993,"Ġapplet":11994,"Ġ77":11995,"Ġ83":11996,"Ġactivate":11997,"Ġexceeds":11998,"ĠIsrael":11999,"unte":12000,"Ġ93":12001,"Ġmagazine":12002,"github":12003,"Ġcrafting":12004,"gments":12005,"Ġfootprint":12006,"amily":12007,"oC":12008,"Ġvaried":12009,"Ġenhancements":12010,"Ġoptimizations":12011,"stations":12012,"ĠATTACK":12013,"ĠPayPal":12014,"ĠFigures":12015,"Ġassigning":12016,"Ġeax":12017,"Ġsabot":12018,"Ġtuning":12019,"sharing":12020,"Ġintegers":12021,"ĠExisting":12022,"Ġshop":12023,"Ġregional":12024,"])":12025,"ĠPLCs":12026,"Ġdict":12027,"Upd":12028,"changed":12029,"Ġ120":12030,"Ġmolec":12031,"ĠSov":12032,"Ġescalate":12033,"Ġversa":12034,"Ġbasics":12035,"Ġatoms":12036,"bon":12037,"Ġhomes":12038,"rating":12039,"Ġbunch":12040,"ĠAUC":12041,"Inst":12042,"Ġhostname":12043,"adays":12044,"Ġtcp":12045,"ĠEric":12046,"cv":12047,"Ġarises":12048,"ĠAllow":12049,"Ġeviction":12050,"Ġiteratively":12051,"Ġcorrection":12052,"Ġdecreased":12053,"Ġcovari":12054,"ĠASLR":12055,"Ġinterviews":12056,"Ġmarg":12057,"Out":12058,"SEC":12059,"ĠWagner":12060,"Ġdistillation":12061,"cision":12062,"ativity":12063,"ĠBlockchain":12064,"osec":12065,"Ġstatically":12066,"Ġdelegation":12067,"Locker":12068,"ĠiPod":12069,"ĠSnowden":12070,"Ġgiant":12071,"Ġwake":12072,"Me":12073,"show":12074,"ĠMartin":12075,"iler":12076,"oker":12077,"Ġsuspic":12078,"Ġtricked":12079,"Ġcircle":12080,"loyment":12081,"Ġproceeds":12082,"mn":12083,"ĠSignal":12084,"ĠWatch":12085,"oler":12086,"ĠUX":12087,"Ġmemor":12088,"ĠRSS":12089,"ĠBBC":12090,"1414":12091,"Ġmysql":12092,"Ġredirected":12093,"ĠCSRF":12094,"Ġsummarizes":12095,"ĠAnalytics":12096,"pages":12097,"upal":12098,"Ġreass":12099,"Ġhospitals":12100,"ĠBroad":12101,"ĠLP":12102,"Ġmature":12103,"Ġ1970":12104,"onald":12105,"div":12106,"Ġreferring":12107,"Ġsubnet":12108,"Ġcomposite":12109,"Ġcarries":12110,"Ġprovenance":12111,"processor":12112,"Ġjboss":12113,"Ġorth":12114,"Ġ1997":12115,"Ġassigns":12116,"ĠMiss":12117,"Ġshed":12118,"Ġmetal":12119,"istan":12120,"Ġinvariants":12121,"ĠSnap":12122,"Ġfragments":12123,"ĠWhatsApp":12124,"Ġemb":12125,"Ġdebate":12126,"Agent":12127,"2000":12128,"help":12129,"Ġnotably":12130,"Ġhappy":12131,"Ġunprivileged":12132,"iquit":12133,"Ġontology":12134,"Manager":12135,"Ġestimator":12136,"shell":12137,"Ġclone":12138,"Ġinconsist":12139,"Ġcryptosystem":12140,"Ġforwards":12141,"Ġrigorous":12142,"ĠMi":12143,"âĶģâĶģâĶģâĶģâĶģâĶģâĶģâĶģ":12144,"ularly":12145,"Ġhorizontal":12146,"iously":12147,"Ġ63":12148,"ĠWannaCry":12149,"Ġmeetings":12150,"Ġspokes":12151,"Ġ./":12152,"Ġabsor":12153,"Ġexponent":12154,"Ġsing":12155,"Ġoverlay":12156,"ĠMeterpreter":12157,"Ġ76":12158,"Ġtransferring":12159,"TH":12160,"ombie":12161,"ividual":12162,"Ġadvis":12163,"hern":12164,"Ġkm":12165,"Ġneutral":12166,"Ġstreet":12167,"ĠSingapore":12168,"Since":12169,"RB":12170,"Ġtap":12171,"inct":12172,"Ġbottlen":12173,"ypass":12174,"commerce":12175,"score":12176,"NS":12177,"Ġmainstream":12178,"Ġneuron":12179,"Ġentit":12180,"Ġexplaining":12181,"Requ":12182,"Ġcomplementary":12183,"bridge":12184,"ĠNOTE":12185,"Ġrefinement":12186,"craft":12187,"Ġterminated":12188,"Ġtank":12189,"Ġexpanding":12190,"Ġemployment":12191,"Ġdisput":12192,"Ġsudo":12193,"Ġemphasize":12194,"IEC":12195,"NA":12196,"ĠNav":12197,"lay":12198,"Ġinverse":12199,"microsoft":12200,"ĠInternal":12201,"ulators":12202,"ĠSensor":12203,"ĠDataset":12204,"plane":12205,"Ġreadable":12206,"Ġuncovered":12207,"ĠRichard":12208,"illing":12209,"Ġcharging":12210,"actively":12211,"thunderbird":12212,"Ġleaf":12213,"ĠSOFTWARE":12214,"ĠIssue":12215,"Ġlabeling":12216,"ĠGA":12217,"AST":12218,"ĠSingle":12219,"math":12220,"Ġdeployments":12221,"ĠASP":12222,"cribed":12223,"ĠCVEs":12224,"together":12225,"ĠCategory":12226,"ĠMandiant":12227,"Ġinacc":12228,"Ġconvention":12229,"rev":12230,"ĠDHS":12231,"Ġreleasing":12232,"dump":12233,"Ġexpectation":12234,"ĠEP":12235,"Ġaiming":12236,"Sign":12237,"domains":12238,"merc":12239,"ĠSelf":12240,"Ġhandlers":12241,"Ġhyperparameters":12242,"Ġmarks":12243,"Ġappoint":12244,"ĠMechan":12245,"ĠCrime":12246,"Ġinsertion":12247,"Ġrepet":12248,"ĠClean":12249,"FE":12250,"Ġ92":12251,"za":12252,"ĠIntroduction":12253,"ĠJapanese":12254,"Ġluck":12255,"llipt":12256,"_______":12257,"Ġprinting":12258,"ĠGR":12259,"Ġrestarted":12260,"Ġestimating":12261,"Ġcart":12262,"romag":12263,"ria":12264,"ĠWorking":12265,"Ġnearest":12266,"TV":12267,"ĠObama":12268,"Ġcommunicates":12269,"\">":12270,"ĠConfidential":12271,"Ġunpredict":12272,"ĠInfo":12273,"ĠJacob":12274,"lenny":12275,"Ġvoters":12276,"Ġpic":12277,"Node":12278,"Bl":12279,"acr":12280,"postgresql":12281,"Ġoriginated":12282,"ĠPeter":12283,"Ġadjusted":12284,"quarters":12285,"Ġinequ":12286,"eth":12287,"Ġfabric":12288,"NT":12289,"ĠCook":12290,"Ġperspectives":12291,"Ġunprotected":12292,"Ġtroubles":12293,"standard":12294,"Ġfriendly":12295,"ĠShadow":12296,"Of":12297,"facing":12298,"Ġincentives":12299,"Secure":12300,"ĠVir":12301,"Wr":12302,"ĠFPR":12303,"Ġenormous":12304,"Ġpace":12305,"ecom":12306,"tor":12307,"ĠNum":12308,"stack":12309,"Ġbeacon":12310,"entropy":12311,"ĠGrid":12312,"Aut":12313,"perty":12314,"Ġdeciding":12315,"ĠGal":12316,"adequ":12317,"Ġslice":12318,"Ġpredicts":12319,"Value":12320,"Ġ59":12321,"Ġgest":12322,"Ġinteroperability":12323,"ĠWestern":12324,"ĠASR":12325,"men":12326,"ĠFund":12327,"boxes":12328,"ĠCamp":12329,"private":12330,"Ġsurprise":12331,"Ġdoors":12332,"[.]":12333,"ĠCollege":12334,"aver":12335,"Ġdil":12336,"SL":12337,"Ġscrut":12338,"sed":12339,"Ġstem":12340,"Ġanyway":12341,"Ġteaching":12342,"mic":12343,"ĠBeing":12344,"ĠSIGNED":12345,"olar":12346,"Ġunused":12347,"Ġmoderate":12348,"hots":12349,"ĠEarly":12350,"eu":12351,"Ġmeets":12352,"ĠFDI":12353,"Ġsimultaneous":12354,"Ġkilled":12355,"itter":12356,"dy":12357,"reement":12358,"Ġkeystrokes":12359,"ĠRecon":12360,"losing":12361,"ĠRece":12362,"FFECTED":12363,"XSS":12364,"Ġmur":12365,"ĠLogic":12366,"Ġirrelevant":12367,"ĠServers":12368,"piracy":12369,"Ġinserting":12370,"coins":12371,"Ġexponentially":12372,"Ġprofessor":12373,"ĠLos":12374,"Ġinfeas":12375,"ĠAtl":12376,"irmware":12377,"Ġbridges":12378,"Ġsalt":12379,"ĠCrow":12380,"Ġplaus":12381,"Ġmarketplace":12382,"SCADA":12383,"ĠSAT":12384,"ĠDaily":12385,"Ġexhaustive":12386,"Ġspir":12387,"Ġcompleteness":12388,"ĠCompute":12389,"rases":12390,"ANT":12391,"ĠPut":12392,"Ġencourages":12393,"Ġreproduce":12394,"you":12395,"Ġassistant":12396,"ĠAudit":12397,"Ġappearing":12398,"RR":12399,"Ġalignment":12400,"Ġdiscarded":12401,"Then":12402,"Ġconstitutes":12403,"mails":12404,"INE":12405,"Ġclouds":12406,"Ġimpersonation":12407,"gt":12408,"\":":12409,"Ġtoolkit":12410,"ĠAvoid":12411,"isms":12412,"Ġcancer":12413,"ypes":12414,"ago":12415,"nesday":12416,"Ġpurchases":12417,"Ġwheel":12418,"docs":12419,"Ġnoninterference":12420,"sun":12421,"esc":12422,"Ġtrains":12423,"ĠRelated":12424,"ĠPhone":12425,"Ġtwenty":12426,"object":12427,"Ġwonder":12428,"idity":12429,"Ġprofits":12430,"Ġbiometrics":12431,"gling":12432,"Ġcomparisons":12433,"ĠThreats":12434,"avirus":12435,"program":12436,"ĠVolume":12437,"adian":12438,"Ġpresum":12439,"ĠDA":12440,"Ġunsigned":12441,"Ġbulletin":12442,"Ġbrands":12443,"Ġrelied":12444,"ĠWrite":12445,"lliptic":12446,"ĠWall":12447,"ĠRHEL":12448,"Ġdisks":12449,"Ġoutliers":12450,"rust":12451,"aneous":12452,"Ġtutorial":12453,"defense":12454,"Ġprojected":12455,"front":12456,"Ġjumps":12457,"Ġlights":12458,"Ġdropout":12459,"Ġmisleading":12460,"Ġmanifold":12461,"iw":12462,"Ġexported":12463,"Ġarchives":12464,"Ġobstacles":12465,"ĠClearly":12466,"Ġincorporates":12467,"inja":12468,"/#":12469,"ĠPrim":12470,"Ġmasquer":12471,"untime":12472,"tx":12473,"Ġstuck":12474,"Ġderivation":12475,"ĠRock":12476,"report":12477,"Ġbases":12478,"Ġlearner":12479,"What":12480,"Ġic":12481,"cyber":12482,"Ġtitled":12483,"ĠROP":12484,"ĠPD":12485,"ĠNor":12486,"Ġsafeguards":12487,"boot":12488,"Ġbrowse":12489,"istication":12490,"Ġpiv":12491,"Ġlicenses":12492,"ĠMond":12493,"Ġfuzzer":12494,"cho":12495,"Ġgateways":12496,"Ġenumeration":12497,"Ġinterfere":12498,"ona":12499,"Ġhits":12500,"Ġdefended":12501,"Exec":12502,"Ġgrouped":12503,"URe":12504,"ano":12505,"supp":12506,"Ġfollowers":12507,"ĠSecondly":12508,"umn":12509,"advert":12510,"Ġunrelated":12511,"Ġtheme":12512,"ĠWho":12513,"omatic":12514,"Ġ/>":12515,"Ġcollisions":12516,"Ġdimensionality":12517,"Ġssh":12518,"ĠKu":12519,"Ġmotor":12520,"Ġedition":12521,"KEY":12522,"igu":12523,"Ġshortest":12524,"Ġsought":12525,"Ġdistort":12526,"iates":12527,"250":12528,"Ġmic":12529,"Ġglibc":12530,"ĠArticle":12531,"Ġ67":12532,"Ġperf":12533,"msg":12534,"Ġenumerate":12535,"boards":12536,"End":12537,"Ġstabil":12538,"ĠSections":12539,"Ġdiscour":12540,"Ġfog":12541,"Ġdubbed":12542,"section":12543,"Ġhabits":12544,"ĠKit":12545,"Ġtow":12546,"Ġhal":12547,"ĠProgramming":12548,"Ġessence":12549,"emu":12550,"Gs":12551,"default":12552,"ouch":12553,"ressive":12554,"rout":12555,"ĠThomas":12556,"Ġradius":12557,"ya":12558,"ĠKr":12559,"Scan":12560,"aze":12561,"ĠJun":12562,"ĠGeneration":12563,"ĠTechniques":12564,"tcp":12565,"Intern":12566,"ĠECU":12567,"ĠFIGURe":12568,"Ġresolver":12569,"Ġconting":12570,"More":12571,"ĠWednesday":12572,"game":12573,"Ġcoff":12574,"ĠDEF":12575,"Ġinitiative":12576,"Access":12577,"Ġ62":12578,"Ġ84":12579,"Ġvolunte":12580,"tim":12581,"Ġdozens":12582,"ĠPlug":12583,"ĠRefer":12584,"hoot":12585,"ĠLDAP":12586,"ORMATION":12587,"Ġcultural":12588,"Ġshifted":12589,"Ġ89":12590,"Ġ1024":12591,"Ġmakers":12592,"ĠGeorge":12593,"Ġconsolid":12594,"Ġinterception":12595,"oses":12596,"aste":12597,"Ġfluct":12598,"ĠRadio":12599,"ĠMex":12600,"Ġsuited":12601,"Ġdomestic":12602,"Ġamongst":12603,"Ġeliminating":12604,"Ġlanding":12605,"entially":12606,"Ġrisky":12607,"Ġmisbe":12608,"Ġcharacterization":12609,"Ġadvertisement":12610,"Ġtrials":12611,"Ġtimestamps":12612,"Ġelaborate":12613,"ĠReLU":12614,"################":12615,"clusion":12616,"Ġdistinguishing":12617,"Ġdivers":12618,"Ġdirective":12619,"ĠTEE":12620,"ometry":12621,"ĠBox":12622,"Ġphilosoph":12623,"ĠRequired":12624,"Ġengaging":12625,"Ġpowered":12626,"ĠShare":12627,"Ġcompound":12628,"Cred":12629,"onavirus":12630,"generation":12631,"115":12632,"Ġoscill":12633,"ĠUnic":12634,"GN":12635,"ĠObt":12636,"Ġsong":12637,"ĠAssistant":12638,"Ġwalked":12639,"ato":12640,"Ġjour":12641,"ĠAware":12642,"ĠKong":12643,"Ġissu":12644,"Ġeveryday":12645,"ĠGnu":12646,"accessible":12647,"ĠOWASP":12648,"Ġgun":12649,"Ġvalidating":12650,"Ġdeclass":12651,"ighter":12652,"stract":12653,"Ġsubgraph":12654,"Ġavoidance":12655,"parser":12656,"Ġcope":12657,"Ġ87":12658,"ulti":12659,"anger":12660,"ĠSUSE":12661,"Ġgeographic":12662,"Ġstandalone":12663,"Ġfalling":12664,"Ġbytecode":12665,"Ġtheoretically":12666,"ĠStatic":12667,"Ġvisualize":12668,"ota":12669,"ĠFIN":12670,"ocks":12671,"Ġ69":12672,"Ġfairness":12673,"Bit":12674,"Ġsynchronous":12675,"ĠAFFECTED":12676,"Ġintegral":12677,"Ġflagged":12678,"onical":12679,"Ġacknowledge":12680,"Ġboards":12681,"Ġrelig":12682,"ĠDemocr":12683,"Ġacknowledged":12684,"ctl":12685,"ĠHMI":12686,"Ġrevolution":12687,"Ġspeakers":12688,"sch":12689,"igma":12690,"Ġpir":12691,"Ġemulator":12692,"ĠStan":12693,"acity":12694,"Ġpolar":12695,"Ġsty":12696,"ĠLocate":12697,"Ġpossession":12698,"Ġunaware":12699,"speed":12700,"Ġdecomp":12701,"agrams":12702,"%\\":12703,"Ġrelational":12704,"Ġrotation":12705,"Ġanymore":12706,"ĠGoodfellow":12707,"Ġqualified":12708,"Ġanalyse":12709,"ĠTLB":12710,"dot":12711,"Ġunchanged":12712,"ĠStudio":12713,"Ġonion":12714,"205":12715,"Ġfactory":12716,"Ġtimed":12717,"Ġchunks":12718,"Ġsniffer":12719,"Ġrevis":12720,"Ġpricing":12721,"Ġstegan":12722,">.":12723,"Ġhandy":12724,"black":12725,"sor":12726,"ĠSend":12727,"Ġupcoming":12728,"Ġpending":12729,"Ġwouldn":12730,"iteria":12731,"GC":12732,"Ġsurf":12733,"Ġinfeasible":12734,"ĠOlly":12735,"kb":12736,"ĠBoard":12737,"ocab":12738,"Fool":12739,"ker":12740,"pad":12741,"Ġtranslates":12742,"ĠSELECT":12743,"Ġinfluences":12744,"Ġteacher":12745,"Ġvig":12746,"ĠDaniel":12747,"ĠRuby":12748,"Ġsubscribers":12749,"ccessful":12750,"prov":12751,"Ġhire":12752,"ĠDut":12753,"ĠUnified":12754,"ĠWil":12755,"Ġruby":12756,"ĠSwed":12757,"Ġeb":12758,"Ġproduc":12759,"Ġbegun":12760,"Ġnaming":12761,"Load":12762,"Ġcrowd":12763,"ras":12764,"del":12765,"Ġfounder":12766,"mysql":12767,"Ġalias":12768,"ĠSU":12769,"Ġconscious":12770,"rence":12771,"Ġinsurer":12772,"ĠComprom":12773,"ORS":12774,"Ġsophistication":12775,"Ġforged":12776,"ĠIOC":12777,"Ġgrammar":12778,"Ġdistract":12779,"Ġending":12780,"Ġmaturity":12781,"ĠMinistry":12782,"Ġhate":12783,"ĠROC":12784,"ĠWhenever":12785,"Message":12786,"Ġterminology":12787,"Se":12788,"ĠModels":12789,"ĠCharacter":12790,"Ġomitted":12791,"Ġconsuming":12792,"Ġblogs":12793,"Ġillustration":12794,"Ġsnippet":12795,"Ġlemma":12796,"Ġcontributing":12797,"Ġresides":12798,"ui":12799,"Ġwithdraw":12800,"Ġexclude":12801,"apse":12802,"Ġuploading":12803,"ĠSchem":12804,"Ġstrengths":12805,"Ġentert":12806,"ĠPlus":12807,"Ġsubstit":12808,"ME":12809,"Ġamplification":12810,"Ġfloating":12811,"Ġlabs":12812,"ĠRegistry":12813,"aspberry":12814,"lete":12815,"ĠDivision":12816,"Ġquote":12817,"Ġunintended":12818,"IAL":12819,"AILS":12820,"ĠMITRE":12821,"ogonal":12822,"cre":12823,"Ġ);":12824,"Ġskew":12825,"Ġsituational":12826,"issions":12827,"Ġthumb":12828,"Ġredirection":12829,"ĠMANET":12830,"Ġautomaton":12831,"ĠHew":12832,"ĠQR":12833,"ĠSECURITY":12834,"Ġbalanced":12835,"bedded":12836,"range":12837,"Ġaccidentally":12838,"Ġskin":12839,"Ġnumeric":12840,"Ġxi":12841,"poss":12842,"ĠVerification":12843,"Ġsurfaces":12844,"ĠLikewise":12845,"Trans":12846,"constrained":12847,"Ġaccused":12848,"Ġguilt":12849,"scope":12850,"ĠICT":12851,"ĠTA":12852,"ĠPK":12853,"Ġviolence":12854,"ĠEAX":12855,"Ġrendered":12856,"mips":12857,"ĠSID":12858,"ĠExecutive":12859,"Ġoverfitting":12860,"Ġ61":12861,"Ġ73":12862,"Ġimported":12863,"ĠCluster":12864,"aro":12865,"ĠVision":12866,"Ġearn":12867,"Ġconfirms":12868,"ĠSecur":12869,"idelity":12870,"alties":12871,"git":12872,"Ġshortly":12873,".*|":12874,"Ġbare":12875,"Ġcaution":12876,"mercial":12877,"lored":12878,"Ġdrawing":12879,"ppings":12880,"Ġgrown":12881,"anonym":12882,"Class":12883,"Object":12884,"Ġoverheads":12885,"Ġhacks":12886,"eon":12887,"Ġacadem":12888,"VPNs":12889,"mann":12890,"ei":12891,"Ġworkplace":12892,"Ġsupervisor":12893,"Ġcold":12894,"romagnetic":12895,"nas":12896,"Ġconcludes":12897,"Ġvisually":12898,"Ġbogus":12899,"600":12900,"ĠBulletins":12901,"Ġobligations":12902,"Ġduties":12903,"Ġsucceeds":12904,"Ġprogrammed":12905,"balanced":12906,"ua":12907,"ĠOV":12908,"Ġpressing":12909,"Ġdestroyed":12910,"['":12911,"ĠAssuming":12912,"Ġcrew":12913,"Ġintensive":12914,"isher":12915,"Ġoverwritten":12916,"dir":12917,"Ġrid":12918,"ĠSent":12919,"Ġinconsistent":12920,"Ġextern":12921,"Ġnt":12922,"ARPA":12923,"Ġcounters":12924,"Ġ91":12925,"Ġremind":12926,"ĠHewlett":12927,"Ġexpense":12928,"Ġbuttons":12929,"hn":12930,"ĠDT":12931,"ĠGuid":12932,"Det":12933,"Ġraising":12934,"Ġbucket":12935,"ARY":12936,"Ġpersonality":12937,"compliant":12938,"ani":12939,"Ġrestricting":12940,"frequency":12941,"Ġreside":12942,"Ġhiring":12943,"Ġhttpd":12944,"Ġhostile":12945,"Ġhabit":12946,"Ġsabotage":12947,"ĠCapt":12948,"ĠJose":12949,"Ġ('":12950,"ĠUEFI":12951,"ĠÎ":12952,"ĠSi":12953,"ĠROM":12954,"ilst":12955,"ĠBackTrack":12956,"Ġmissions":12957,"bul":12958,"Ġstamp":12959,"track":12960,"Ġincremental":12961,"oft":12962,"Ġfle":12963,"ĠStar":12964,"Ġorientation":12965,"Ġtainted":12966,"Ġinvocation":12967,"Ġreportedly":12968,"PRO":12969,"\"),":12970,"Ġaudits":12971,"ĠCISO":12972,"Ġvoid":12973,"Ġnond":12974,"{\\":12975,"tag":12976,"ĠQuick":12977,"Ġtradeoff":12978,"fm":12979,"Ġtrem":12980,"Fuzz":12981,"Ġcoffee":12982,"Ġsubmission":12983,"Ġ(,":12984,"ĠGre":12985,"Ġbeaut":12986,"Ġspotted":12987,"accept":12988,"ĠAdministrator":12989,"Ġbesides":12990,"lad":12991,"ĠLinear":12992,"unter":12993,"igg":12994,"Ġfeet":12995,"ĠOk":12996,"ĠBinary":12997,"arith":12998,"ĠImproper":12999,"Face":13000,"Ġfinance":13001,"propag":13002,"Ġaband":13003,"2004":13004,"Ġcod":13005,"130":13006,"Ġunbounded":13007,"rival":13008,"ĠAcad":13009,"Ġtriple":13010,"Ġpsychological":13011,"address":13012,"Ġdeno":13013,"Ġscientist":13014,"ĠApart":13015,"Ġ1994":13016,"ORE":13017,"itically":13018,"dh":13019,"Ġamaz":13020,"DDoS":13021,"Ġtalked":13022,"athan":13023,"ione":13024,"Ġgrey":13025,"itt":13026,"util":13027,"ĠAF":13028,"Ġmovies":13029,"Ġconfront":13030,"ĠDiscovery":13031,"Ġmaximal":13032,"Ġbarriers":13033,"Ġtelecommunications":13034,"Ġinterrupts":13035,"Ġanalogous":13036,"Ġoverlapping":13037,"ĠISS":13038,"Ġpredictor":13039,"ĠSkype":13040,"ĠSl":13041,"cloud":13042,"PL":13043,"Ġtom":13044,"Ġhair":13045,"device":13046,"Map":13047,"andal":13048,"Ġcommodity":13049,"iquitous":13050,"ĠSar":13051,"ĠPRODUC":13052,"Ġimperative":13053,"opensuse":13054,"Ġholistic":13055,"Ġstrongest":13056,"Ġstatistically":13057,"ĠTensor":13058,"ustic":13059,"ĠJoe":13060,"irectional":13061,"102":13062,"ĠWEP":13063,"Ġdistinguished":13064,"Ġcracked":13065,"ĠVictim":13066,"Ġdimensional":13067,"Ġrecruit":13068,"rator":13069,"Ġparking":13070,"ĠInsp":13071,"Prot":13072,"Ġearth":13073,"ĠDeterm":13074,"itan":13075,"Ġdestructive":13076,"Ġdereference":13077,"Ġreplication":13078,"when":13079,"Ġmillisec":13080,"ĠVirusTotal":13081,"Ġhardly":13082,"witch":13083,"ĠMethods":13084,"Ġcalculates":13085,"ĠRPC":13086,"Ġtape":13087,"Ġmappings":13088,"BD":13089,"Ġbacked":13090,"ĠRelevant":13091,"ĠSpe":13092,"Ġaccessibility":13093,"ainer":13094,"beit":13095,"endar":13096,"Ġavoids":13097,"ĠNC":13098,"ĠProfile":13099,"Ġadmitted":13100,"Ġ81":13101,"Ġpassph":13102,"Ġvo":13103,"ĠRo":13104,"Ġviolated":13105,"jacking":13106,"Ġcomfortable":13107,"ĠOp":13108,"lable":13109,"Ġsuic":13110,"Ġ========================":13111,"Ġopenssl":13112,"Ġdropper":13113,"Ġreconstructed":13114,"romium":13115,"Ġdecoded":13116,"Ġexcluded":13117,"Ġoblivious":13118,"Ġmale":13119,"Ġrooms":13120,"gg":13121,"Ġmislead":13122,"Ġcounterparts":13123,"ĠPCA":13124,"determ":13125,"grid":13126,"ĠDistr":13127,"Ġeliminated":13128,"Ġforgery":13129,"Ġassignments":13130,"inte":13131,"ĠSwitch":13132,"mw":13133,"Ġdf":13134,"First":13135,"ĠDVD":13136,"ĠRecomm":13137,"atz":13138,"103":13139,"Ġmacros":13140,"Eng":13141,"udge":13142,"></":13143,"ĠSoviet":13144,"ĠCybercr":13145,"etya":13146,"Ġconceal":13147,"ĠFuzz":13148,"Ġblur":13149,"Ġcutting":13150,"ĠForest":13151,"ĠVan":13152,"Ġfacilitates":13153,"Ġbypassed":13154,"ĠDrive":13155,"Book":13156,"Ġshutdown":13157,"Ġfits":13158,"Ġscreenshots":13159,"Ġsanitised":13160,"Ġnaive":13161,"Ġmicrophone":13162,"Custom":13163,"Dis":13164,"GL":13165,"TF":13166,"leb":13167,"ĠCanadian":13168,"built":13169,"ĠCAPTCHA":13170,"ĠMAT":13171,"Get":13172,"Current":13173,"Ġnested":13174,"mand":13175,"Ġappend":13176,"bor":13177,"LEASE":13178,"Ġnormalization":13179,"Ġwaves":13180,"Ġsurprised":13181,"Ġthoroughly":13182,"Ġanswered":13183,"Ġoffsets":13184,"Ġwires":13185,"Ġrecovering":13186,"Ġgenerations":13187,"Ġcryptanalysis":13188,"Ġenclaves":13189,"cm":13190,"ĠFirstly":13191,"Ġsuffers":13192,"Ġaltering":13193,"Ġofficially":13194,"Request":13195,"Ġspreadshe":13196,"rative":13197,"Ġimaging":13198,"Ġintra":13199,"----------------------------":13200,"Ġcampus":13201,"amai":13202,"Query":13203,"Ġstd":13204,"Ġlocalized":13205,"ĠVi":13206,"Ġdelivers":13207,"focus":13208,"Ġgoverned":13209,"Ġnecessity":13210,"CESS":13211,"antly":13212,"Ġstub":13213,"Ġbalancing":13214,"aka":13215,"Ġsynchronized":13216,"Ġprolifer":13217,"Ġprotest":13218,"Ġsociet":13219,"Ġbright":13220,"Ġselective":13221,"Ġresort":13222,"ĠKnuth":13223,"Ġsharp":13224,"Ġbarrier":13225,"Ġconvic":13226,"ĠVideo":13227,"Ġomit":13228,"ĠSoft":13229,"Ġmisses":13230,"independent":13231,"ilevel":13232,"ĠDie":13233,"fall":13234,"Ġindices":13235,"ĠGrant":13236,"Ġsuddenly":13237,"Ġhired":13238,"Ġprover":13239,"ĠYear":13240,"ĠReader":13241,"RM":13242,"Ġnewspaper":13243,"Ġgrew":13244,"ĠDMA":13245,"ĠOfficer":13246,"ĠObviously":13247,"Ġburst":13248,"ĠLead":13249,"Ġforgot":13250,"ĠElectrical":13251,"ĠStudy":13252,"ĠTai":13253,"gricult":13254,"Ġerrone":13255,"generic":13256,"atility":13257,"Ġoversight":13258,"verted":13259,"sponsored":13260,"readable":13261,"Ġbiases":13262,"Ġsavings":13263,"Ġ600":13264,"Ġ127":13265,"Dec":13266,"herlands":13267,"ĠIo":13268,"appropriate":13269,"ĠLapl":13270,"ĠImplementation":13271,"Ġelectronics":13272,"Free":13273,"ĠTTL":13274,"Ġclub":13275,"RAT":13276,"ĠJIT":13277,"google":13278,"ĠDLLs":13279,"BL":13280,"PP":13281,"Ġtrunc":13282,"Ġprotective":13283,"Ġpushing":13284,"ĠPrivilege":13285,"hr":13286,"query":13287,"Ġcontractors":13288,"Ġobstacle":13289,"Ġnominal":13290,"Ġairport":13291,"Ġpermanently":13292,"Ġstationary":13293,"ĠDistrict":13294,"Ġmerchant":13295,"mm":13296,"Ġdispatch":13297,"IZATION":13298,"ĠJon":13299,"ĠMonday":13300,"wares":13301,"Ġintentional":13302,"profit":13303,"ĠUsed":13304,"variant":13305,"requis":13306,"ĠCare":13307,"Ġperformances":13308,"ping":13309,"Ġangles":13310,"sters":13311,"ĠRegardless":13312,"Ġgrants":13313,"\");":13314,"ply":13315,"Ġinadequ":13316,"iful":13317,"Ġwishes":13318,"labeled":13319,"Ġcorporation":13320,"Ġunlimited":13321,"Ġhazard":13322,"Ġbirds":13323,"ĠSetting":13324,"Mon":13325,"Ġbulletins":13326,"Ġspectral":13327,"Ġinqu":13328,"emporary":13329,"Ġerrata":13330,"Ġoccasionally":13331,"Ġpurchasing":13332,"ĠOAuth":13333,"Ġmicrocode":13334,"uctor":13335,"Ġfunded":13336,"ĠPerl":13337,"olf":13338,"Ġsid":13339,"vasive":13340,"nic":13341,"Ġlinearly":13342,"tiv":13343,"EEP":13344,"Ġarrived":13345,"120":13346,"Ġminimization":13347,"Ġconspiracy":13348,"DLL":13349,"addr":13350,"Ġintentions":13351,"Ġcos":13352,"Ġdamaging":13353,"Exp":13354,"Ġmirror":13355,"ĠNY":13356,"Ġ_______________________________________________________________________":13357,"Ġrain":13358,"Ġforb":13359,"Ġportfol":13360,"NI":13361,"consuming":13362,"Ġdemocr":13363,"Ġsummer":13364,"ĠTransform":13365,"Ġtrajectories":13366,"structured":13367,"Ġ>>":13368,"pector":13369,"ĠSET":13370,"Ġintend":13371,"ĠHR":13372,"Ġ79":13373,"125":13374,"Ġcorrespondence":13375,"ĠAEs":13376,"ĠRNN":13377,"ĠFriday":13378,"Ġpod":13379,"auses":13380,"Ġspeculation":13381,"Ġsockets":13382,"Ġretraining":13383,"grap":13384,"ĠNetherlands":13385,"ĠMap":13386,"Ġcoded":13387,"qt":13388,"ĠSignature":13389,"Ġtimer":13390,"ĠWebKit":13391,"Ġmoments":13392,"ĠScott":13393,"iser":13394,"Ġcorrelate":13395,"Ġworkstations":13396,"Ġrestrictive":13397,"ĠTal":13398,"ĠEucl":13399,"Ġsaves":13400,"Conn":13401,"ĠSimulation":13402,"icking":13403,"Program":13404,"uples":13405,"Ġharass":13406,"ĠConst":13407,"Act":13408,"ĠPac":13409,"Ġundefined":13410,"ĠHave":13411,"current":13412,"Ġconsumed":13413,"Ġoverwhelming":13414,"Ġcmd":13415,"Ġbanner":13416,"ĠLarge":13417,"ĠAlong":13418,"Ġinvoking":13419,"ĠFreeBSD":13420,"ĠINFORMATION":13421,"Ġciphertexts":13422,"Ġverb":13423,"Ġcontributes":13424,"asi":13425,"ĠOverflow":13426,"Ġuncertain":13427,"Ġrootkits":13428,"Ġrefined":13429,"architectures":13430,"Bay":13431,"ĠPenTest":13432,"ĠSubject":13433,"FFFF":13434,"Ġdisag":13435,"ĠPrevention":13436,"ENCE":13437,"ercase":13438,"Ġtalent":13439,"Ġtablets":13440,"Ġclinical":13441,"Fs":13442,"ĠIF":13443,"Ġstatistic":13444,"ĠEstab":13445,"ĠDETAILS":13446,"Ġdegrade":13447,"oston":13448,"Ġtracker":13449,"Rem":13450,"Ġclever":13451,"ĠQuery":13452,"TechRepublic":13453,"ĠGHz":13454,"eller":13455,"Ġpersonalized":13456,"ĠEs":13457,"Ġregime":13458,"127":13459,"ĠLoss":13460,"Ġimplant":13461,"oop":13462,"Ġforming":13463,"My":13464,"ĠIdentification":13465,"Ġpipe":13466,"Ġsrc":13467,"Ġmonetary":13468,"ĠSPEC":13469,"Ġvib":13470,"Ġcarriers":13471,"iden":13472,"Ġdashboard":13473,"Ġfired":13474,"iche":13475,"Ġannotations":13476,"friendly":13477,"ĠMary":13478,"team":13479,"Ġterminates":13480,"number":13481,"Ġdiagnosis":13482,"Ġalleg":13483,"Labs":13484,"signed":13485,"Ġintruders":13486,"152":13487,"ĠFormat":13488,"Ġethics":13489,"ampered":13490,"Ġfirefox":13491,"pid":13492,"Ġcha":13493,"Ġbaselines":13494,"Ġtip":13495,"Ġlogins":13496,"ĠLTE":13497,"Ġurl":13498,"plit":13499,"Ġinjections":13500,"plot":13501,"vector":13502,"Ġsamba":13503,"istribution":13504,"Ġhardcoded":13505,"Ġclause":13506,"Ġadvertisers":13507,"ĠGreat":13508,"perties":13509,"Ġjourney":13510,"ĠNOP":13511,"Ġdating":13512,"ĠItaly":13513,"ĠPV":13514,"ĠKal":13515,"ĠECD":13516,"ĠKim":13517,"Ġadmit":13518,"ocols":13519,"Ġexhibits":13520,"ĠHACK":13521,"Ġcoal":13522,"Ġpersu":13523,"Ġjoining":13524,"gas":13525,"calc":13526,"orders":13527,"ĠQuestion":13528,"ĠIranian":13529,"Ġinitialize":13530,"Sub":13531,"Fl":13532,"audi":13533,"2022":13534,"Ġcoupling":13535,"ĠRDP":13536,"cam":13537,"Ġobserves":13538,"Ġmonot":13539,"player":13540,"Up":13541,"174":13542,"Ġhistogram":13543,"iang":13544,"ĠDSS":13545,"owned":13546,"Ġlistener":13547,"Ġcybercriminal":13548,"ĠMajor":13549,"ĠAndrew":13550,"Ġpublishers":13551,"Ġcriticized":13552,"Ġemulate":13553,"ĠSant":13554,"usually":13555,"Ġcompleting":13556,"ĠThanks":13557,"SION":13558,"ĠCredit":13559,"Ġreception":13560,"Ġworkloads":13561,"Ġwhereby":13562,"SY":13563,"Ġcryptocurrencies":13564,"ĠFrank":13565,"ĠMuch":13566,"ĠLand":13567,"Ġendors":13568,"Ġmixture":13569,"Ġsplitting":13570,"Ġinvestigator":13571,"loaded":13572,"OK":13573,"ĠEdit":13574,"Ġgeographical":13575,"Ġwalking":13576,"Ġnotor":13577,"ĠIPsec":13578,"atories":13579,"Ġintrinsic":13580,"Ġtradem":13581,"ĠMinimize":13582,"ssh":13583,"ĠFeatures":13584,"Ġlogo":13585,"both":13586,"Ġbackdoored":13587,"8203":13588,"Ġextr":13589,"codes":13590,"ĠChat":13591,"ppa":13592,"Comp":13593,"ĠChallenge":13594,"omaly":13595,"ĠFROM":13596,"openoffice":13597,"Ġinadvert":13598,"second":13599,"Ġappliance":13600,"Client":13601,"ĠKE":13602,"note":13603,"Ġaltogether":13604,"giene":13605,"Ġthermal":13606,"Ġquestionna":13607,"Ġconfused":13608,"Ġtraditionally":13609,"Ġinformal":13610,"ective":13611,"Ġassertion":13612,"ĠMagazine":13613,"Ġorthogonal":13614,"Ġcreators":13615,"ĠPOP":13616,"ĠSubsequ":13617,"Ġdisadvantage":13618,"Ġtremend":13619,"ĠCalc":13620,"SSH":13621,"ĠNLP":13622,"ĠHeart":13623,"IPAA":13624,"Ġdispos":13625,"Ġadequately":13626,"ĠStage":13627,"Ġcoins":13628,"Ġindexed":13629,"ĠEconomic":13630,"just":13631,"brev":13632,"ĠXen":13633,"Ġfundamentally":13634,"Ġcheat":13635,"Ġelevated":13636,"Ġspars":13637,"Ġpools":13638,"ĠWeak":13639,"poofing":13640,"ĠTry":13641,"Ġaccuracies":13642,"ĠContext":13643,"adec":13644,"Ġconsulting":13645,"APT":13646,"ĠApps":13647,"ĠBin":13648,"ĠStructure":13649,"SR":13650,"Ġhunt":13651,"Ġsolves":13652,"Ġpromoting":13653,"Ġfooling":13654,"ĠForensics":13655,"Ġcommits":13656,"ĠGPG":13657,"ĠRegister":13658,"Ġ+--------------------------------":13659,"Ġoccurrences":13660,"ĠTaking":13661,"ĠTer":13662,"ĠCryptography":13663,"ĠRoy":13664,"zen":13665,"afa":13666,"ĠPrint":13667,"eral":13668,"Ġinline":13669,"Ġ(%)":13670,"mine":13671,"Ġsafer":13672,"rick":13673,"Ġ($":13674,"Ġbear":13675,"ĠExperimental":13676,"Ġcd":13677,"Ġquantities":13678,"Ġtransmits":13679,"imum":13680,"NR":13681,"Ġcompilers":13682,"ĠRaspberry":13683,"ĠEH":13684,"Ġfellow":13685,"ĠAkamai":13686,"Den":13687,"Ġweakest":13688,"Ġaco":13689,"hash":13690,"ĠStrategy":13691,"Ġglobe":13692,"ho":13693,"ĠColor":13694,"igger":13695,"Ġmulticast":13696,"ĠMatt":13697,"platform":13698,"Car":13699,"ĠTrade":13700,"oster":13701,"Ġnm":13702,"Ġliterally":13703,"Ġdiscrep":13704,"ĠControls":13705,"ĠConcept":13706,"idean":13707,"ĠMeta":13708,"Ġsentiment":13709,"Network":13710,"Ġinteracts":13711,"EB":13712,"Ġbounding":13713,"ĠSchneider":13714,"oul":13715,"ĠRoad":13716,"Ġnoises":13717,"Ġpursue":13718,"Ġhorizon":13719,"Ġmd":13720,"looking":13721,"Ġadmins":13722,"Ġslots":13723,"Ġwrapper":13724,"Image":13725,"224":13726,"ĠMix":13727,"ĠNASA":13728,"Ġprogrammable":13729,"ĠTs":13730,"ĠCCP":13731,"Ġreform":13732,"Ġaccomp":13733,"ĠActivity":13734,"Ġproactively":13735,"Ġsight":13736,"Ġpayoff":13737,"ractical":13738,"abytes":13739,"ĠCriteria":13740,"ĠGnuPG":13741,"Ġhashed":13742,"ĠJohns":13743,"Ġexposes":13744,"Ġalt":13745,"enable":13746,"Ġoperand":13747,"ita":13748,"malicious":13749,"ĠObtaining":13750,"vs":13751,"Ġcreator":13752,"ĠBU":13753,"Ġcul":13754,"ISO":13755,"spe":13756,"long":13757,"ĠTaiwan":13758,"Droid":13759,"Ġmerge":13760,"Ġthin":13761,"Ġdisjoint":13762,"ĠSTL":13763,"Ġenforces":13764,"KL":13765,"ĠLED":13766,"Ġguilty":13767,"ĠNiger":13768,"Ġcoronavirus":13769,"ĠInsight":13770,"rations":13771,"Ġretrans":13772,"Ġtagged":13773,"Ġdescriptor":13774,"jo":13775,"Ġvocab":13776,"ĠNTP":13777,"Ġembr":13778,"Ġvigil":13779,"Ġhighlighting":13780,"Ġepid":13781,"SW":13782,"rize":13783,"ĠNorton":13784,"Ġevil":13785,"Ġquiet":13786,"Ġnu":13787,"ĠCreating":13788,"proxy":13789,"Site":13790,"kins":13791,"Ġreused":13792,"Ġarmed":13793,"ĠComments":13794,"keys":13795,"ĠClinton":13796,"ĠRepresent":13797,"Ġimplied":13798,"ulary":13799,"iley":13800,"Ġdemanding":13801,"Ġdisappear":13802,"Ġbehaviours":13803,"ells":13804,"ĠValidation":13805,"Spec":13806,"Ġevolutionary":13807,"Ġmerged":13808,"Ġdevelops":13809,"Po":13810,"($":13811,"Ġresume":13812,"kaspersky":13813,"Ġseeds":13814,"ĠMedical":13815,"Ġformalize":13816,"Ġreplicate":13817,"Ġbold":13818,"Ġadult":13819,"ĠSep":13820,"serve":13821,"Ġlex":13822,"ĠNeed":13823,"personal":13824,"Ġowns":13825,"ĠIndividual":13826,"Ġbroke":13827,"ĠCort":13828,"ĠHEAD":13829,"Ġbeliefs":13830,"Lock":13831,"everse":13832,"entoo":13833,"Start":13834,"Ġincurs":13835,"ĠNFS":13836,"Ġshr":13837,"ĠED":13838,"Although":13839,"Ġdad":13840,"application":13841,"GT":13842,"Ġcam":13843,"ĠNatural":13844,"ĠAutomated":13845,"ĠSurvey":13846,"Ġplausible":13847,"Ġmodulation":13848,"Ġcompletes":13849,"rolling":13850,"ĠImag":13851,"Ġstrike":13852,"209":13853,"ĠRestrict":13854,"ĠInv":13855,"Ġanalytic":13856,"Sm":13857,"Ġfiction":13858,
[...]
